#version: 0.2 - Trained by `huggingface/tokenizers`
Ġ Ġ
ĠĠ ĠĠ
_ _
Ġ a
i n
ĠĠĠĠ ĠĠĠĠ
__ __
o n
Ġ t
r e
Ġ p
Ġ c
Ġ s
* *
a t
a l
e r
e n
e d
o r
i t
____ ____
Ġ w
h e
Ġ m
Ġ f
i s
Ġ n
ĠĠĠĠĠĠĠĠ ĠĠĠĠĠĠĠĠ
Ġ d
l e
a s
i on
i c
Ġ o
Ġ b
a r
n d
Ġ in
en t
[ **
** ]
Ġ re
a n
e s
in g
Ġt o
Ġ h
Ġt he
Ġ l
r o
Ġ [**
Ġa nd
Ġ 1
________ ________
Ġ (
Ġ e
Ġo f
Ġn o
i l
it h
c t
Ġw ith
u s
a m
o l
u l
o s
o m
u r
i d
Ġ r
ĠĠĠĠĠĠĠĠĠĠĠĠĠĠĠĠ ĠĠĠĠĠĠĠĠĠĠĠĠĠĠĠĠ
Ġ v
i v
at ion
a c
Ġ 2
Ġs t
Ġ g
Ġc on
e l
i g
2 1
s t
u t
Ġf or
Ġ on
o w
re s
Ġt h
i m
Ġ is
t er
a b
a d
u n
Ġ -
a in
Ġa s
u m
e m
Ġ he
l y
Ġa t
o d
t h
as t
i r
am e
ig h
Ġ le
Ġcon t
f t
________________ ________________
or t
igh t
Ġ 3
c e
c h
o p
Ġa m
a g
Ġ 0
i p
e t
at e
a y
Ġp t
in e
0 0
Ġe x
Ġw as
Ġa b
Ġno t
ab le
at ed
es s
Ġp l
Ġn e
u p
i al
is t
Ġc om
i f
u b
Ġs e
o t
Ġre s
v e
Ġ or
Ġa l
Ġp ro
Ġa n
ct ion
Ġ 4
a p
iv e
s e
m al
u re
l o
v er
Ġc h
Ġ 5
res s
h y
Ġa d
Ġt r
ic al
i ent
i a
m ent
Ġb e
o g
l ow
u e
o u
en d
Ġp at
Ġth is
an g
Ġm g
Ġp er
ar d
o c
i b
or y
Ġle ft
Ġa p
n e
il l
Ġn ame
Ġ 9
Ġw e
Ġs p
o us
Ġm l
it al
a re
Ġm ed
Ġas s
Ġa re
Ġ un
ro m
c re
Ġ y
l u
Ġ 7
it ion
Ġ **]
Ġd e
Ġr ight
Ġres p
ul t
Ġin f
p ort
o ur
q u
a ct
Ġ 6
Ġe v
Ġd r
on e
1 0
Ġ /
y p
Ġ im
n ame
Ġc he
ĠĠ Ġ
an t
Ġp m
os p
ĠĠĠĠĠĠĠĠĠĠĠĠĠĠĠĠĠĠĠĠĠĠĠĠĠĠĠĠĠĠĠĠ ĠĠĠĠĠĠĠĠĠĠĠĠĠĠĠĠĠĠĠĠĠĠĠĠĠĠĠĠĠĠĠĠ
Ġass ess
or mal
Ġin t
e ar
r i
ar t
as e
Ġthe re
Ġ 8
Ġp os
ĠĠĠĠĠĠĠĠ ĠĠĠĠ
Ġpat ient
in al
osp ital
Ġ k
s ion
th er
Ġ1 0
ic ation
ar y
el l
a il
c c
p l
Ġp o
Ġ #
Ġw h
1 2
Ġd i
Ġd is
Ġcont in
re d
ul ar
p t
i es
** **
Ġc l
Ġa r
f f
ol og
Ġf rom
Ġs h
it y
Ġh yp
Ġv ent
re n
c on
1 1
er al
u g
h ospital
Ġf e
Ġc t
es t
t e
p h
' s
Ġre as
Ġche st
Ġn ormal
Ġab d
Ġ up
Ġap p
Ġad m
Ġm on
Ġex am
Ġpl an
a x
Ġreas on
i z
us ion
____ __
Ġ ________________________________
Ġ________________________________ ________________________________
________ ______
Ġ________________________________________________________________ ______________
olog y
Ġp ul
a k
em ent
Ġch ang
Ġre m
r ic
ag e
Ġ iv
os is
d ay
p at
d l
Ġb lo
el y
c l
ou nd
Ġ1 2
Ġm e
Ġp ain
al l
ar g
Ġpl ac
Ġhe m
3 0
Ġs ig
ad i
Ġex t
Ġa c
v i
e p
o ut
an s
Ġc o
a nd
Ġa f
Ġim p
Ġh as
5 0
it or
Ġblo od
res ent
re at
Ġst at
ol low
o b
Ġcom p
m on
ĠĠĠĠĠĠĠĠĠĠĠĠĠĠĠĠ ĠĠĠĠĠĠĠĠĠĠĠĠ
Ġs he
ow n
p er
l ast
Ġassess ment
os e
ter n
un g
Ġs y
Ġs up
Ġ q
- -
cre as
Ġ x
ic u
Ġb il
r a
Ġb y
Ġt ub
ren t
Ġb ut
il d
it t
re m
Ġmon itor
ard i
Ġf ollow
ist ory
**] .
Ġl ast
Ġp le
at ory
Ġd ay
Ġe ff
Ġstat us
Ġcontin ue
r ast
Ġf lu
Ġo ver
an ce
iv en
Ġre c
Ġnot ed
Ġtr ans
Ġst able
Ġcon s
u ro
in ation
2 0
Ġrem ain
l d
r on
le ar
Ġre port
id e
Ġw ell
o v
Ġp resent
Ġl ung
b er
Ġl ow
Ġo ther
Ġg iven
Ġs o
Ġp re
Ġc are
Ġh istory
Ġtub e
l er
d ing
e ct
Ġm ild
r al
at eral
Ġb p
c k
h r
a ve
d ition
) ,
Ġexam ination
om e
ut e
ir atory
Ġresp on
u res
Ġmed ical
Ġc a
) .
ication s
Ġflu id
ro p
u nd
adi ology
Ġw ill
Ġ1 1
Ġabd om
Ġ .
t s
Ġa g
Ġ2 4
Ġev al
an c
ur rent
Ġt im
arg e
er t
Ġv al
n i
o le
creas ed
er y
Ġc lear
as s
u d
Ġn um
Ġh er
Ġre g
Ġ ed
om y
t al
Ġo ut
m in
i um
ag n
Ġh r
ir st
ress ion
Ġne ed
ur g
Ġs in
Ġcont rast
Ġnum ber
Ġo b
Ġc m
Ġin ter
Ġl i
ur al
ic k
2 5
y s
Ġsig n
con t
ĠĠĠĠĠĠĠĠĠĠĠĠĠĠĠĠĠĠĠĠĠĠĠĠĠĠĠĠĠĠĠĠĠĠĠĠĠĠĠĠĠĠĠĠĠĠĠĠĠĠĠĠĠĠĠĠĠĠĠĠĠĠĠĠ ĠĠĠ
Ġh our
Ġ1 00
en ce
1 4
Ġg o
**** ****
Ġ2 0
Ġre p
Ġtr ac
Ġeff usion
ion s
Ġc ol
if f
Ġse en
Ġwe re
Ġy ear
mal l
ne um
Ġc ardi
1 5
ĠĠĠĠĠĠĠĠĠĠĠĠĠĠĠĠĠĠĠĠĠĠĠĠĠĠĠĠĠĠĠĠĠĠĠĠĠĠĠĠĠĠĠĠĠĠĠĠĠĠĠĠĠĠĠĠĠĠĠĠĠĠĠĠ Ġ
en s
at ive
Ġ1 4
Ġl ab
Ġo ld
Ġr r
Ġar ter
ound s
1 3
Ġresp iratory
b c
Ġfe ed
Ġt able
Ġdr ain
Ġf inal
Ġh ad
Ġso ft
il y
Ġh is
Ġs mall
Ġ i
Ġno w
) :
Ġm an
ro l
Ġn on
Ġac ute
o ol
Ġval ve
Ġd ist
Ġt e
i or
**] ,
Ġme q
Ġrespon se
cl ip
Ġ ur
f er
Ġp neum
Ġadm itt
us e
Ġdi agn
Ġvent ric
s o
n own
e w
mon ary
Ġs c
Ġcon dition
r adiology
d er
em a
ail y
Ġc r
or m
it s
Ġcl ip
Ġa ort
Ġl ine
od e
ri or
k g
t ain
st r
ic e
Ġto day
k in
Ġpos t
n al
end ing
Ġtable t
Ġh ct
Ġsup port
Ġf ail
Ġin s
v el
os t
Ġs at
Ġremain s
m g
ic h
2 4
Ġp rior
g h
u ction
Ġst ool
Ġapp ear
ug h
Ġs ub
is sion
t t
ou gh
v ed
Ġst art
Ġd iff
Ġs ounds
Ġ %
Ġo p
th m
it ies
it e
Ġsy st
1 6
Ġh ave
Ġp r
Ġc at
Ġth at
Ġcontin u
am ily
y l
Ġaf ter
21 4
o th
res p
u ct
Ġfail ure
1 8
21 6
pat tern
i x
name pattern
hy thm
ac k
Ġur ine
Ġli k
2 2
Ġto ler
reat h
o id
Ġ icu
Ġbil ateral
1 7
Ġ &
Ġdiagn osis
ch ang
Ġnot e
it is
in ding
Ġb r
Ġpul monary
Ġa ir
Ġin d
1 9
Ġwh ich
Ġa ction
it le
p o
ment s
if i
Ġth ick
Ġchang es
Ġne uro
Ġ1 3
Ġto tal
ol ic
c o
Ġc urrent
Ġm in
21 8
c er
al e
Ġb as
n ess
2 6
21 7
hy s
d is
Ġ4 0
en sion
Ġ3 0
Ġre nal
y n
Ġhe ad
Ġon e
Ġcom m
Ġtim e
re e
Ġp e
inding s
c ed
Ġ j
Ġan t
Ġm od
2 8
Ġm m
iz e
o re
as c
Ġal so
e f
Ġ1 5
i le
t r
id ent
p le
Ġeval u
Ġd aily
Ġr hythm
Ġm ult
Ġhe art
chang ed
Ġlik ely
ch arge
2 3
Ġin creased
Ġchang e
a f
vi ous
i ft
id ence
Ġhour s
21 5
ro ugh
Ġf amily
21 9
Ġl y
Ġimp ro
Ġint ub
Ġlab s
ic s
2 9
2 7
Ġ +
Ġed ema
21 3
Ġwith out
at ing
Ġ qu
Ġ en
Ġbe en
Ġmed ications
Ġev idence
Ġ1 8
f irst
Ġof f
t ing
Ġple ural
Ġs l
Ġsin ce
ar in
Ġun changed
b p
en ing
Ġ5 0
Ġp ort
Ġd il
Ġ ro
Ġ2 5
Ġlow er
Ġinf ant
le ct
Ġwe an
d e
ow el
d o
em p
Ġimp ression
21 0
Ġ u
Ġabdom en
Ġplac ement
Ġw or
Ġst ud
u al
if ic
Ġext rem
Ġm id
er v
Ġb reath
ul d
Ġp h
Ġf indings
i o
Ġ1 6
ul l
Ġf low
Ġaort ic
in t
Ġin c
Ġc al
Ġcom pl
Ġ if
Ġpre vious
Ġne g
Ġre ce
Ġarter y
Ġs ize
Ġ ?
m m
ĠĠĠĠĠĠĠĠ Ġ
Ġb owel
ct or
Ġat t
e x
Ġne w
o ve
Ġsh ift
Ġcom ments
Ġtrans fer
Ġc or
Ġventric ular
Ġd o
Ġa ct
im al
Ġd ose
Ġadm ission
Ġm et
le ed
k nown
Ġc x
un ction
ol d
ter ior
Ġg tt
c om
h ed
og r
v al
e ction
ak e
Ġp ress
Ġhe p
Ġadmitt ing
e ase
o x
Ġas p
Ġ @
it ial
Ġcont rol
Ġre qu
Ġd ue
Ġab g
le s
a z
t he
Ġs urg
Ġt emp
do ctor
is on
Ġal l
Ġple ase
Ġper f
Ġth rough
Ġs w
Ġn g
asc ular
Ġt f
he ter
Ġrece iv
Ġc ode
Ġmod er
Ġwh en
Ġdis ease
Ġb leed
ar ison
r h
Ġ0 4
Ġf l
are d
Ġv e
Ġf r
Ġplac ed
Ġb al
a v
Ġstud y
Ġv is
d s
Ġcomp arison
Ġstart ed
ist ent
p m
Ġw bc
Ġsh ow
tain ed
ro w
Ġwith in
Ġim ag
ib le
Ġd el
st itle
Ġcat heter
le v
Ġe m
end ed
Ġa w
n ing
Ġc ult
Ġ end
Ġg lu
Ġc v
Ġassess ed
vi ew
n ormal
Ġs ed
it ation
Ġvent il
Ġs et
Ġsp o
n ot
r ial
ad e
it ral
ac h
Ġre t
s p
6 0
c g
Ġ >
Ġl ob
Ġup per
Ġl iv
Ġd ate
Ġb ed
p s
Ġc an
c v
c a
e k
4 0
Ġre st
ut r
Ġb s
ur ing
c y
Ġhep arin
em ia
Ġle vel
Ġfe ver
g est
Ġp hys
i ot
ar k
g i
Ġf ull
and s
Ġabdom inal
Ġ ident
p os
ap h
Ġpro ced
Ġ0 2
utr ition
Ġ0 3
Ġ% ,
Ġg r
b s
Ġ1 7
as ix
om a
Ġs kin
Ġpos s
Ġab ove
Ġ8 0
cre t
Ġgo od
Ġre f
Ġw all
g en
Ġbal ance
Ġh ome
s in
Ġ6 0
ac hy
Ġident ifi
yn am
Ġ9 0
i ous
Ġv ol
Ġv anc
an e
Ġd es
Ġ1 9
c ess
Ġm ov
Ġhem od
Ġe p
w e
r ight
Ġfeed s
un t
Ġc c
Ġant ib
c ard
Ġr ate
ron ic
g ies
Ġglu c
Ġse cret
t o
Ġmoder ate
Ġasp ir
Ġsat s
Ġm ass
f ort
Ġre view
pat ient
% .
ific ant
Ġfr act
s s
Ġf io
Ġb ack
Ġe lev
v ent
Ġc p
Ġn utrition
Ġwe ek
ip le
Ġt achy
Ġche ck
Ġ und
id ed
Ġm ain
Ġpr n
a ir
ical ly
Ġt w
as is
Ġreceiv ed
ion al
ur ther
Ġsecret ions
e ver
Ġf em
i red
on g
Ġintub ated
ul in
Ġpro g
Ġneg ative
Ġo cc
on ia
s u
le ft
o f
******** ********
3 1
at es
Ġs ome
v is
Ġinter val
Ġ2 6
-- --
Ġd own
Ġplac e
Ġgluc ose
Ġf urther
Ġl asix
Ġ0 5
or ax
ax is
Ġliv er
Ġm ore
Ġsign ificant
p n
1 00
at ely
Ġsyst olic
or rh
op h
Ġhemod ynam
Ġc ough
s ed
ane ous
m ph
Ġch ronic
Ġv er
om an
Ġin r
Ġrec ent
hy l
Ġantib iot
af le
iz ed
Ġn s
s he
Ġcardi ac
Ġhyp ert
ac e
Ġund er
c in
Ġal ler
ard ial
Ġm ay
Ġw oman
Ġcal c
Ġp s
Ġhem at
Ġf ib
Ġins ulin
Ġsign s
Ġpul se
Ġs bp
Ġly mph
ole y
us ed
Ġsyst em
ĠĠĠĠĠĠĠĠ ĠĠĠ
Ġin itial
Ġevalu ate
he m
hyl axis
Ġr adi
Ġsl ight
Ġind ication
Ġp ic
Ġlob e
Ġint act
Ġm itral
Ġ2 8
Ġpneum onia
on t
Ġc all
Ġset ting
m ed
p re
Ġneed ed
Ġhyp er
Ġhyp ot
Ġth en
o uld
Ġpos ition
ut um
orm ed
Ġp ac
v t
Ġm or
Ġ2 3
sin us
Ġl arge
are n
Ġcl in
Ġcomp ared
Ġs ug
Ġtoler ated
ph one
ch i
Ġhem orrh
Ġproced ure
Ġsp utum
Ġf oley
Ġs uction
Ġl im
Ġextrem ities
at a
g u
Ġ7 0
Ġn a
ig n
Ġ0 8
dis charge
el low
cre ase
Ġmult iple
o ther
Ġle afle
Ġgo al
oc al
oth orax
Ġtim es
y ear
r ac
en ed
ne uro
Ġ [
c us
Ġcontinu es
Ġaller gies
cont in
lo g
Ġd op
s h
Ġantibiot ics
Ġr a
4 5
Ġin v
Ġob tained
Ġfeed ing
Ġcx r
card ia
. .
ogr aph
ur s
Ġd em
Ġact ive
m s
Ġt ip
Ġa v
Ġop ac
Ġl o
Ġ0 6
Ġf ree
Ġv i
Ġan y
Ġmild ly
? ?
Ġlung s
Ġh y
Ġc our
Ġfollow ing
Ġext ub
il ar
Ġiv f
t ed
Ġcm h
Ġd ata
Ġ2 7
Ġcompl ain
Ġpic c
Ġ1 50
Ġsin us
en ous
im e
Ġp ar
d ate
Ġpress ure
Ġal ert
Ġf irst
Ġvol um
Ġrem ov
ĠĠĠĠ Ġ
or al
pl er
Ġ3 6
e lect
Ġve in
Ġm ost
3 5
ens ive
Ġp el
i re
Ġte am
at ic
Ġle v
Ġmonitor ing
in es
Ġh ospital
ve re
Ġt re
Ġw he
Ġday s
Ġd im
us p
ar m
5 5
Ġab normal
Ġ ul
Ġcour se
Ġ it
Ġd uring
Ġh igh
Ġposs ible
Ġres ult
Ġam o
b ri
Ġc ar
Ġpneum othorax
Ġpl t
n a
h g
p ro
Ġtransfer red
Ġg en
Ġm r
str uction
Ġse e
n o
Ġimpro ved
Ġd ys
Ġlast name
oc ial
Ġc k
Ġa cc
Ġpro p
te le
Ġ3 7
Ġf unction
Ġv ery
is hed
Ġcurrent ly
Ġde creased
Ġat elect
d uct
Ġvi ew
Ġs ent
con d
Ġsystem s
Ġhemorrh age
Ġul cer
Ġev ent
Ġ2 9
ĠĠĠĠĠĠĠĠĠĠĠĠĠĠĠĠĠĠĠĠĠĠĠĠĠĠĠĠĠĠĠĠ ĠĠĠĠĠĠĠĠĠĠĠĠĠĠĠĠĠĠĠĠĠĠĠĠĠĠĠĠ
Ġfract ure
pos ition
ak ing
at h
Ġpt t
e c
Ġl act
8 0
Ġappear s
Ġleafle ts
t es
ĠĠĠĠĠĠĠĠĠĠĠĠĠĠĠĠ ĠĠ
d ed
od ium
Ġre l
Ġ ,
Ġd vt
Ġcomm ands
usion s
Ġd en
Ġf ent
Ġe y
Ġde v
Ġadmitt ed
ĠĠĠĠĠĠĠĠĠĠĠĠĠĠĠĠĠĠĠĠĠĠĠĠĠĠĠĠĠĠĠĠ ĠĠĠĠĠĠĠĠĠĠĠĠ
she et
Ġ0 7
Ġb et
Ġv ia
Ġbil i
ation s
Ġag ain
w ay
ur m
Ġcons istent
Ġcons ult
l ine
op y
n ight
Ġle sion
Ġcp ap
Ġ3 5
: *
s es
Ġat rial
Ġsurg ery
Ġm d
Ġs odium
Ġflow sheet
q ue
Ġcom fort
Ġmin imal
Ġelev ated
Ġd one
Ġinf ection
is e
Ġdis charge
it ing
Ġs im
i ast
Ġse vere
f ax
Ġatelect asis
k e
tele phone
Ġbreath ing
Ġ2 2
Ġhy d
Ġcomm un
Ġc reat
Ġst r
Ġab le
il ity
e at
Ġinc lu
Ġk nown
Ġp an
Ġpe ep
le ep
Ġdist ress
Ġam t
Ġg u
ly c
at ure
on str
Ġperf ormed
y st
p ed
Ġl ines
ri um
Ġthrough out
7 0
Ġprog ress
Ġshow ed
Ġab s
ĠĠĠĠ ĠĠĠ
Ġh ow
de red
ol us
Ġb el
Ġde f
Ġint ra
Ġm ade
Ġcult ure
Ġal b
ps is
Ġneuro log
Ġper s
c urrent
Ġprop hylaxis
ĠĠĠĠĠĠĠĠĠĠĠĠĠĠĠĠ ĠĠĠĠĠĠĠĠĠĠĠ
Ġwe ight
Ġv ital
Ġtw o
Ġth an
Ġan terior
id er
Ġwh o
Ġs u
Ġcon cer
Ġ es
at er
c ation
Ġe ar
he s
ce pt
Ġp a
Ġn one
Ġsug gest
Ġ us
Ġb l
Ġres ol
qu ent
Ġv ascular
end er
Ġm ot
Ġy ellow
Ġb m
er ative
in k
Ġpro duct
Ġse cond
Ġc e
ne a
Ġac id
op s
l ed
9 0
Ġcon f
is s
or s
an yl
or ac
Ġhypot ension
m ax
Ġimpro v
Ġat rium
p i
Ġm ent
er ic
Ġor dered
Ġdiff ic
Ġc ap
Ġimag es
Ġdis position
rop ri
in ished
Ġy es
Ġn as
ro und
Ġphys ical
Ġa x
urg itation
Ġm urm
Ġk e
ys is
Ġor der
Ġpro b
Ġtrac ing
Ġdem onstr
Ġp ending
+ +
9 8
Ġor al
Ġy our
Ġeff ect
Ġst er
ur n
ip h
it ive
Ġe ch
er ior
v c
vel op
p ul
em pt
Ġs erv
Ġn po
cont rast
ad m
ont aneous
Ġca res
Ġdis cus
Ġfent anyl
Ġdrain s
Ġdrain age
Ġs er
Ġhow ever
Ġchang ed
Ġb olus
Ġventil ation
Ġcomplain t
Ġde p
Ġ9 8
c p
ad y
Ġ0 9
3 3
ic ardial
bri le
++ :
Ġl ateral
c r
Ġd id
Ġcontinu ed
b i
Ġint o
Ġslight ly
Ġw arm
Ġdop pler
Ġre d
l f
Ġpel vis
Ġresult s
Ġm a
at hy
Ġhe pat
Ġtrac h
Ġ2 1
es is
ro x
Ġb en
Ġwor k
Ġy ou
Ġ *
4 8
Ġcomp le
Ġdil ated
Ġover night
w ith
3 6
Ġdo es
Ġca v
om m
Ġte ch
Ġ :
Ġappear ance
Ġmm hg
Ġdiffic ult
ill s
Ġr ad
Ġvolum e
port able
Ġ5 00
Ġfib r
Ġreg ular
Ġeffusion s
o k
Ġt max
em ic
el ine
op athy
: [**
p ut
Ġment al
Ġpul ses
Ġ <
oid ing
e qu
lo cation
Ġrep eat
Ġs ite
Ġdim inished
iz ation
ron ch
Ġatt empt
Ġair way
Ġrec omm
pl an
Ġbleed ing
en osis
Ġf lo
ient ed
Ġcor on
Ġun it
Ġno d
h our
ab d
ol id
Ġins p
urs ing
Ġc ent
ell s
Ġw ave
act ive
ter day
u ff
Ġad v
Ġb oth
a w
Ġ ir
Ġbilateral ly
Ġqu est
ark able
m l
Ġ0 1
Ġinf ar
f ul
Ġclin ical
ot id
Ġon ly
Ġhemodynam ic
Ġapp ropri
Ġg i
Ġf ound
Ġbel ow
3 2
Ġas c
Ġse psis
Ġme as
ic ated
t n
pl ac
Ġradi ograph
s ide
Ġwor s
Ġevent s
Ġyes terday
Ġst ress
ad der
n um
Ġ9 9
Ġv s
Ġr adiology
3 4
Ġo x
Ġk g
Ġg ast
Ġidentifi ed
Ġwh ile
Ġop en
Ġ ent
Ġhypert ension
Ġcat h
o ot
iv ery
Ġde velop
i et
Ġun its
m a
Ġe t
Ġden ies
ph al
Ġtoler ating
Ġmov ement
b ral
rem arkable
Ġflo or
o ver
Ġgen eral
it r
ul a
Ġh d
us c
p g
Ġdel ivery
ab g
Ġs r
Ġt yp
Ġf re
rom b
mon th
Ġdev ice
u c
Ġcommun ication
am in
9 9
Ġst enosis
l i
Ġman ag
Ġper icardial
in f
Ġg a
Ġs leep
op ress
r as
Ġin j
c i
Ġ9 7
3 7
Ġbas es
Ġm om
Ġare a
c m
Ġn ight
Ġpat ent
he al
Ġmurm ur
Ġaort a
Ġse pt
adm ission
Ġun remarkable
Ġep is
Ġon ce
Ġcol or
Ġtachy cardia
Ġv ap
Ġdiff e
ap y
Ġvis ual
omy cin
Ġrad ial
Ġa st
Ġ z
is k
Ġbp m
Ġproduct s
Ġin crease
Ġreg urgitation
Ġad dition
r an
9 7
Ġpro v
Ġ ~
Ġper iph
Ġad equ
Ġun able
Ġsed ation
Ġch f
3 8
Ġneed s
Ġm cg
iast inal
Ġ- -
Ġm y
il tr
ni que
od y
Ġe tt
Ġpos terior
p hys
Ġg ro
s kin
Ġtyp e
Ġth orac
if e
Ġsed ated
f ol
c hem
**] :
ction s
Ġmain tain
Ġd p
Ġl um
im age
Ġ**] .
Ġsecond ary
Ġport able
s ocial
er s
Ġst ill
Ġrep le
Ġ9 6
Ġtech nique
Ġevalu ation
Ġdist al
c al
Ġor iented
Ġm ale
id ne
x t
Ġcont r
i ed
it ed
Ġp art
e z
Ġw ould
Ġout put
Ġex cept
Ġweek s
Ġventric le
**] )
l arg
Ġd rop
Ġaspir ation
Ġ9 5
Ġ12 0
Ġ**] ,
oc k
Ġperiph eral
Ġ7 5
Ġpo or
Ġcons ider
Ġp ast
Ġl s
i an
Ġmed s
Ġey es
mm et
Ġco uld
ar se
Ġdr ug
Ġamo unt
as h
e brile
Ġox y
Ġs m
Ġadequ ate
at or
Ġintub ation
Ġbas eline
Ġpro po
te red
Ġk idne
Ġar r
Ġwean ed
Ġct a
on at
Ġt reat
Ġp al
Ġapp rox
Ġdiffe rent
Ġpropo fol
Ġsh ort
Ġb ronch
Ġdi et
Ġmot ion
c ardi
Ġdi ures
lyc emic
Ġh g
Ġv oiding
Ġn c
b al
/ [**
Ġs ide
Ġh tn
os c
s et
Ġth romb
5 9
b il
Ġaw are
Ġp aren
i od
in d
Ġinf iltr
Ġpos itive
is ion
Ġc op
Ġf ocal
m d
Ġp na
4 4
Ġidentifi er
num eric
Ġ ill
Ġ( [**
Ġcl os
t ic
Ġthick ened
Ġsuction ed
Ġcult ures
iv ity
Ġ3 8
Ġremov ed
Ġstr uct
Ġpm h
Ġimag ing
Ġm icu
a ort
Ġneurolog ic
Ġtrans f
0 7
00 2
Ġt id
Ġal k
g r
Ġth er
Ġdr y
3 9
Ġex c
' d
Ġal t
a vi
4 7
ill ation
Ġo sh
Ġh old
Ġ {
Ġvanc omycin
e red
Ġle g
as ive
Ġl v
Ġst im
Ġsurg ical
n l
4 6
tern al
Ġ ult
Ġinf usions
Ġv t
op erative
j pg
ov ascular
Ġhyp o
creas ing
Ġd et
Ġwh ite
out h
Ġcent ral
Ġm ap
Ġpro cess
Ġacc ess
Ġp res
ch y
ost omy
Ġke ep
Ġarter ial
Ġ3 2
Ġly tes
Ġrep resent
en cy
Ġun known
Ġg lycemic
ir ing
Ġmanag ement
w h
) }
ul ation
Ġ use
Ġun t
Ġwors ening
Ġt er
Ġth ough
Ġr s
g t
Ġhyp ox
Ġ1 30
op rol
ill in
Ġhemat oma
Ġco arse
Ġis chem
Ġm ri
Ġf ar
Ġsc ale
Ġcav ity
Ġaf ebrile
Ġne ck
g an
Ġse iz
n pn
Ġcall ed
hr s
Ġinitial ly
m or
Ġst ent
Ġ4 5
l or
Ġbe ing
ric ular
Ġb re
use a
Ġ14 0
Ġunt il
Ġle ss
Ġs ob
m pt
Ġblo ck
Ġro om
Ġex p
Ġb ody
oprol ol
Ġnas al
Ġfibr illation
en ic
Ġech o
Ġm outh
Ġadm in
Ġ3 1
usp id
l l
ug e
resp iratory
it es
contin ue
Ġse ver
Ġo pt
le x
opress or
r y
4 9
re ct
Ġle ad
Ġconcer n
ut ion
id ing
Ġw nl
i ated
Ġc abg
at rial
Ġen larg
en ol
Ġdr ip
ot t
Ġb ase
rac heal
Ġdrain ing
Ġc ir
ĠĠĠĠ ĠĠ
5 8
Ġv enous
Ġp ot
u le
Ġmor ning
Ġsp ine
Ġsy mmet
Ġs x
Ġup d
at s
Ġcoron ary
ex t
Ġatt ending
t itle
5 6
Ġdist ended
y t
Ġwe ak
Ġl oc
um in
Ġf all
Ġrest art
Ġy o
Ġre ad
Ġtr a
Ġwhe ez
pl ant
Ġna usea
su es
Ġinv ol
Ġsc an
Ġ ic
ren al
Ġf ron
in ine
chi ef
ing le
4 2
ad in
in ter
h ab
ab y
re g
5 7
Ġappropri ate
Ġpro te
Ġcardi ovascular
w ise
p nea
Ġrequ iring
4 3
Ġmor ph
Ġfem oral
um adin
4 1
er ol
mpt om
Ġt rop
Ġc ad
r l
ot racheal
m cg
re l
Ġmet oprolol
d aily
ve al
r ine
Ġult ras
Ġga uge
Ġl opressor
ch ed
t ime
our ce
Ġcons olid
Ġt one
Ġs ul
Ġng t
ly ing
Ġmed iastinal
Ġrs bi
Ġe qu
Ġab x
Ġma e
Ġcont act
Ġpal p
Ġe ct
Ġalb umin
ifi ed
Ġres id
Ġinf erior
Ġresol ved
th ough
Ġtre nd
Ġpat tern
p e
Ġl ip
Ġcol on
Ġan g
Ġg et
Ġfem ale
su le
Ġpro t
Ġfre quent
Ġbr ain
5 1
Ġend otracheal
al y
Ġcar otid
ress ing
Ġaf ib
iv an
at t
Ġw ound
Ġinclu ding
Ġhe ld
iv ely
ab ly
Ġaddition al
0 2
Ġben ign
Ġvanc o
Ġph os
ial ysis
Ġr h
Ġp ink
9 6
us t
Ġst op
v ing
Ġcol le
op r
c our
Ġne xt
Ġm ch
i ac
Ġh x
re st
if ication
ot ic
Ġf il
Ġremain ed
Ġb act
Ġbed side
Ġg all
Ġtre ated
9 5
Ġultras ound
g e
d h
/ /
Ġhe ight
Ġcreat inine
Ġde c
ce t
o on
Ġper rl
Ġmorph ine
Ġocc as
hy per
in ary
i el
Ġst and
ne g
Ġpers istent
Ġpan cre
Ġsp e
ame ter
f ore
Ġad d
Ġarr iv
Ġfollow s
Ġdiff use
on in
Ġp ip
Ġextub ated
Ġg ra
t ender
Ġother wise
Ġtrac he
Ġcol l
ur ys
Ġdiscus sed
Ġsymmet ric
ain d
Ġupd ated
Ġthe se
Ġfron tal
Ġcv p
ic es
Ġco umadin
Ġan x
Ġab out
sp ontaneous
Ġan emia
Ġresid ual
ut es
Ġcontr aind
% ,
op en
Ġvisual ized
c lear
Ġ3 3
Ġref ills
con s
g o
Ġch lor
Ġ2 00
Ġe kg
Ġ1 10
Ġns r
o int
r ation
Ġextrem ity
Ġsetting s
Ġtra um
Ġass ist
Ġp ed
5 4
p r
Ġcalc ium
us ing
ple ase
Ġimprov ement
od es
Ġsever al
Ġinj ur
ar r
Ġf en
Ġs ingle
b l
Ġcap sule
iss ue
Ġre hab
or der
im ately
Ġcontraind ications
Ġsl iding
Ġquest ions
ac ing
Ġdet ail
5 3
Ġre plac
Ġre veal
5 2
Ġsp ells
ect ed
Ġ3 4
Ġact ivity
Ġequ al
al ity
tern oon
Ġlesion s
m itt
Ġd ressing
Ġar m
Ġinv asive
Ġr v
ĠĠĠĠĠĠĠĠĠĠĠĠĠĠĠĠĠĠĠĠĠĠĠĠĠĠĠĠĠĠĠĠĠĠĠĠĠĠĠĠĠĠĠĠĠĠĠĠĠĠĠĠĠĠĠĠĠĠĠĠ ĠĠ
os yn
Ġc anc
Ġin creasing
Ġr ang
Ġect opy
struction s
Ġb ott
Ġm ic
Ġd s
Ġre le
Ġlo ops
ial ly
Ġt current
Ġhepat ic
r it
ra w
Ġt itr
Ġl os
Ġlim ited
Ġl at
Ġdel ay
Ġtrop onin
Ġs ource
dis p
Ġar ds
cardi ac
Ġad j
d i
Ġtrans plant
Ġl ong
Ġm ark
ment al
0 1
a ired
Ġm ax
+ )
Ġbr ady
we en
Ġrel ated
Ġc uff
Ġpro x
Ġkidne y
as k
Ġsh ould
Ġadv anc
Ġs low
Ġ4 8
Ġaf ternoon
Ġadmin ist
**************** ****************
Ġthorac ic
Ġgast ro
Ġcan not
ab et
am ine
d a
Ġrele ase
yl enol
ar b
Ġb id
Ġt issue
f or
b reath
orm ation
Ġserv ice
Ġto mor
ĠĠĠĠĠĠĠĠĠĠĠĠĠĠĠĠĠĠĠĠĠĠĠĠĠĠĠĠĠĠĠĠ ĠĠ
7 5
lo x
Ġmin utes
Ġtomor row
com p
Ġd os
Ġare as
rem ia
ass ium
ens ity
e ch
f unction
ac ute
onat ology
ir th
Ġat ivan
u ch
cl er
Ġcanc er
Ġfluid s
Ġvis it
Ġth ree
Ġdifferent ial
ut s
s ided
Ġgr am
ra ctions
resp on
om ach
ĠĠĠĠĠĠĠĠĠĠĠĠĠĠĠĠĠĠĠĠĠĠĠĠĠĠĠĠĠĠĠĠĠĠĠĠĠĠĠĠĠĠĠĠĠĠĠĠĠĠĠĠĠĠĠĠĠĠĠĠĠĠĠĠ ĠĠĠĠ
Ġventil ator
Ġt aking
Ġopac ity
f e
Ġret urn
o red
t est
Ġinfar ction
w as
6 5
Ġlact ic
Ġm ode
Ġce re
ogr am
Ġ ure
Ġe lect
Ġin ternal
Ġc ell
al low
Ġrh on
Ġto l
Ġsh ock
ur ation
l ing
Ġpr bc
qu id
Ġt est
Ġap pl
Ġbil at
Ġoxy gen
Ġmm ol
ac in
Ġal tered
Ġan e
Ġconsolid ation
f ollow
Ġme et
Ġob struction
Ġr ash
urys m
ec ific
Ġw t
Ġal though
Ġam ts
Ġo s
im en
vent ricular
contin u
st e
Ġpresent ed
d ist
Ġst omach
Ġg reat
Ġsim ple
Ġe os
Ġs usp
Ġstruct ures
at us
Ġcon gest
c or
Ġ er
Ġp ass
Ġimp aired
ell ing
- >
Ġen cour
us h
ra z
m b
Ġro und
osc opy
Ġt ak
av ing
r ay
un ts
Ġclos ely
erv ical
abd om
Ġ "
ugh ter
Ġpl ate
Ġlum en
Ġg l
Ġt ylenol
Ġabnormal ities
oot s
m od
Ġem b
Ġr isk
Ġf iel
Ġprevious ly
s c
Ġr n
ĠĠĠĠĠĠĠĠĠĠĠĠĠĠĠĠĠĠĠĠĠĠĠĠĠĠĠĠĠĠĠĠ Ġ
Ġin ch
ne onatology
Ġg row
in ed
Ġaw ake
Ġw ife
?? ??
t ation
Ġther apy
) *
Ġ =
Ġc ervical
co h
Ġ10 1
Ġsy mptom
Ġcr ack
Ġextub ation
te bral
ve f
Ġmid line
d raw
Ġqu ality
ess el
aort ic
ro id
Ġth us
Ġcomfort able
Ġabs ent
h er
Ġover all
Ġa round
Ġup date
up il
Ġsub c
Ġco ver
Ġm al
Ġsp its
7 7
Ġhr s
ect omy
Ġapprox imately
em per
ff e
we ight
Ġfever s
Ġ9 4
ac ent
Ġc le
Ġd m
Ġchlor ide
Ġtraum a
Ġg as
Ġremov al
Ġme ch
ir ay
Ġcop d
lo ad
Ġrecomm ended
Ġcr it
Ġopt iray
Ġ7 6
Ġt co
el f
0 5
k ing
mitt ent
oc yt
raz ole
Ġinjur y
a ud
Ġcolle ction
Ġret ro
Ġdiures is
Ġes oph
lox acin
Ġne o
Ġin structions
i ef
un ct
n ursing
Ġb aby
is m
s ive
ce phal
ail able
Ġexc lu
Ġh ip
7 6
t te
v enous
ver y
Ġp iv
Ġrequ ired
n r
Ġs ur
Ġev ening
on ly
g aly
Ġinf ormation
c he
Ġf x
at in
Ġrequ ire
i ology
Ġag o
emper ature
Ġint rac
g th
Ġaspir in
Ġreg ion
Ġbet ween
Ġabs cess
ress ed
Ġseiz ure
Ġ6 5
Ġoccas ional
Ġp pi
Ġmet ast
0 8
Ġse g
Ġbe c
Ġf ac
b r
ran ial
Ġw et
end ent
Ġd a
Ġp upil
Ġdi abet
Ġopac ities
Ġcrack les
Ġf ace
. )
ut aneous
Ġcan n
Ġm ask
Ġl ight
Ġsul f
w ard
Ġch ole
h anc
oc ardial
Ġli quid
tr acing
Ġwhe re
Ġhe al
Ġ5 5
Ġis sues
Ġ id
Ġstim ul
Ġrec s
Ġsub cl
op t
op hed
Ġd ialysis
Ġtub es
i e
u k
Ġt ake
Ġal coh
Ġprox imal
1 50
ic ian
Ġn t
) -
oc us
Ġb un
Ġpot assium
Ġgra ft
p an
Ġ8 8
title s
Ġwith draw
Ġh aving
Ġm other
Ġt on
avi an
ph ro
u ation
Ġr bc
ip ro
n s
f en
Ġpro min
Ġasc ites
om iting
Ġill ness
Ġthe y
Ġo ob
Ġre ct
Ġbl adder
Ġtreat ment
Ġs cre
oc ol
Ġb i
t ion
Ġ6 8
Ġn ursing
Ġda ughter
ect ious
Ġi u
Ġamo unts
ome galy
Ġt ender
Ġreg imen
Ġtr ic
in s
Ġinfiltr ate
am ber
im ary
Ġintrac ranial
s erv
opr il
sp ecific
Ġe to
Ġtrac e
Ġeto h
Ġax ial
Ġview s
Ġbre ast
Ġc yst
Ġinter mittent
Ġlev ophed
Ġsubcl avian
Ġh pi
Ġposs ib
ron g
i res
Ġrecomm end
bl adder
Ġv essel
Ġcann ula
im p
he a
Ġpul m
Ġ8 1
str uct
est inal
Ġi i
ap p
Ġte e
Ġw r
com fort
com ple
Ġane urysm
Ġdelay ed
Ġlim its
rom e
st able
Ġs on
Ġass oc
Ġsymptom s
Ġm usc
Ġm s
Ġ4 00
Ġcl ot
ole tte
Ġepis odes
Ġob es
it one
Ġbe fore
Ġdi ameter
Ġs ame
j ect
Ġant ic
Ġb one
Ġfe el
ut erol
Ġd ig
aud id
Ġadvanc ed
Ġmon th
ic ular
Ġhg b
tr ans
Ġ6 6
Ġde crease
Ġint r
w ill
Ġal ong
cr ib
Ġch air
---- -
Ġsw allow
f amily
Ġret ractions
Ġprot ocol
Ġlos s
rh osis
Ġbet ter
Ġav ailable
rop hy
Ġthick ening
Ġaw a
Ġmech an
dist ended
Ġfract ures
Ġappl ied
yp ass
Ġsp ontaneous
Ġarriv al
Ġco unt
Ġcon st
is ter
Ġs ens
it ated
Ġus ing
ill ary
Ġi j
Ġsub se
Ġconf ir
Ġ ut
) ;
m et
Ġpat h
m ia
Ġend oc
ed ema
j or
Ġmeet ing
s a
0 4
ro ke
Ġimprov ing
Ġcom mon
Ġfe w
12 0
Ġh al
Ġabnormal ity
Ġag e
Ġu op
= =
Ġint e
Ġmy ocardial
Ġt urn
Ġdetail s
at itis
Ġepis ode
Ġinf ectious
Ġmark ed
Ġs vc
m itral
end o
Ġl dh
am p
ag ed
Ġext ensive
Ġphys ician
iet y
o ff
is h
d iff
Ġ7 8
d ol
7 8
Ġr t
Ġs b
og en
Ġdemonstr ated
inf ant
Ġmon o
Ġar f
Ġgall bladder
Ġrec or
Ġcomple te
az ole
int estinal
Ġassoc iated
9 4
Ġtemp s
th is
Ġenlarg ed
Ġrang e
Ġn ar
Ġdys pnea
Ġsup ple
Ġelect ro
Ġdr aw
est ed
arr hea
ne uts
ffe ine
Ġtric uspid
Ġt x
Ġint ake
0 6
y m
Ġe very
ag yl
Ġcir rhosis
Ġover load
Ġreveal ed
continu ed
Ġrep air
Ġrespon ds
Ġdevelop ed
s urg
se e
ever y
0 3
Ġcor rel
Ġshort ness
Ġtak en
en opathy
Ġl ater
6 8
Ġrestart ed
Ġt te
s is
d r
cc ess
Ġhe re
Ġd uct
Ġstimul i
Ġprob le
215 3
Ġischem ia
Ġcont our
Ġp red
Ġprov ided
Ġ9 3
Ġreceiv ing
Ġpro l
re ci
Ġch amber
Ġa er
Ġintra venous
Ġc ef
Ġconcer ning
Ġv it
y roid
Ġg ent
it us
Ġreview ed
Ġps v
ure d
Ġ6 7
ard ing
Ġcr ib
Ġis olette
Ġhypox ia
Ġpresent s
les s
p a
Ġb irth
Ġvein s
em i
h istory
Ġhe l
Ġun clear
Ġunder lying
Ġcontrol led
Ġter min
Ġalcoh ol
Ġver tebral
Ġc y
oid s
Ġle uk
ast ric
Ġasc ending
Ġweak ness
op razole
14 0
Ġet iology
fer red
Ġinfar ct
Ġreplac ement
c x
r d
Ġapp reci
Ġlevel s
mon ic
Ġmult i
on es
Ġs ocial
Ġ5 8
Ġalb uterol
ar s
Ġbec ame
n ia
ac er
el t
Ġear ly
9 2
ad dl
Ġlact ate
Ġf at
Ġmic ro
Ġen hanc
Ġh and
Ġmov es
Ġgrow th
Ġb ro
Ġdys function
Ġsp ec
Ġh im
Ġv ar
Ġport al
Ġa cet
ing s
Ġmeas ures
Ġ ide
cy st
Ġdifficult y
Ġrr r
fe ed
ap e
Ġsup erior
ap se
Ġgreat er
Ġp rem
Ġh s
Ġ/ //
Ġc ipro
Ġsp l
crib ed
Ġup on
Ġt pn
Ġan gi
v ue
Ġ8 6
Ġext ra
Ġw gt
Ġemb ol
addl ed
ill ing
Ġgro ss
Ġ8 5
Ġca ffeine
ap er
row n
ig g
Ġelev ation
b ul
Ġbrady cardia
Ġsy nd
Ġver sed
Ġp od
Ġm uc
ol er
li er
Ġlead s
b lo
Ġdi arrhea
Ġo ste
Ġ- -----
pre tation
Ġle ak
az ine
ĠĠĠĠĠĠĠĠĠĠĠĠĠĠĠĠĠĠĠĠĠĠĠĠĠĠĠĠĠĠĠĠĠĠĠĠĠĠĠĠĠĠĠĠĠĠĠĠĠĠĠĠĠĠĠĠĠĠĠĠĠĠĠĠ ĠĠ
h al
Ġstool ing
l ip
Ġpupil s
le t
in ent
ch arg
in itial
az ol
ĠĠĠĠĠĠĠĠĠĠĠĠĠĠĠĠĠĠĠĠĠĠĠĠĠĠĠĠĠĠĠĠ ĠĠĠĠ
Ġth ro
Ġs a
Ġstool s
Ġcc u
Ġsulf ate
ib as
Ġd iv
Ġgro in
f i
Ġs ched
c ent
Ġde ep
Ġ6 9
Ġcare vue
Ġe f
Ġmechan ical
Ġ10 2
ar one
Ġreport s
ac he
olog ist
Ġear lier
Ġey e
Ġar t
Ġs cler
itone al
Ġs ided
und le
Ġbili ary
phys ical
st atus
Ġsynd rome
d w
Ġtrache ostomy
Ġp vc
Ġw ire
Ġcheck s
p rop
Ġam iod
Ġmoder ately
Ġpa o
ress ive
Ġarter ies
Ġl it
Ġfollow ed
Ġpe g
Ġsw elling
Ġor gan
---- ----
Ġb ibas
Ġdiabet es
Ġm uch
Ġor ig
Ġb oots
Ġ3 9
Ġs il
Ġreple te
Ġelectro ly
um ed
Ġ7 2
ad r
Ġton ight
Ġk ne
hyper t
ab ility
Ġ5 6
Ġinc ision
Ġgastro intestinal
Ġ# .
end um
charg ed
ath er
Ġsp ent
Ġs q
% ).
Ġd c
Ġide al
Ġf s
Ġstop ped
Ġreport ed
n ical
Ġquest ion
f indings
Ġm agn
an k
serv ice
ip l
Ġas a
ccess ful
med ications
Ġb ypass
d ural
ĠĠĠĠĠĠĠĠ ĠĠ
ĠĠĠĠĠĠĠĠĠĠĠĠĠĠĠĠĠĠĠĠĠĠĠĠĠĠĠĠĠĠĠĠĠĠĠĠĠĠĠĠĠĠĠĠĠĠĠĠĠĠĠĠĠĠĠĠĠĠĠĠĠĠĠĠ ĠĠĠĠĠ
Ġfiel d
Ġinter vent
Ġu o
Ġde g
Ġdi ast
Ġ2 50
Ġhe ent
bil i
iv ial
ut ic
Ġrhon chi
Ġmeas uring
0 9
Ġc oc
Ġpress ors
lo bal
is ing
ifi er
Ġm v
Ġthro at
Ġexclu ded
ain s
y cin
ent ion
Ġper iod
21 24
w ent
re p
2 20
Ġhemodynam ically
21 25
07 00
ul ed
Ġim m
Ġanx iety
214 1
Ġres ident
7 4
Ġv as
Ġ4 6
Ġb undle
olog ic
Ġs ol
f l
oph en
Ġst roke
Ġp p
- [**
Ġ6 4
Ġpancre atitis
Ġconsult ed
216 7
Ġcover age
p ir
gen eral
Ġf elt
Ġbas al
t inent
Ġw ater
Ġgr ad
Ġpr imary
21 30
Ġhypot ensive
Ġag g
Ġr dw
Ġf oot
oc rit
Ġcm v
l b
Ġ its
Ġ9 2
v h
ia z
if ications
s w
Ġpre ca
er ing
c ol
o ag
Ġmass es
Ġb ip
Ġreg ional
Ġt an
8 8
m e
ut ions
Ġth in
Ġr ib
amin ophen
s up
Ġrecent ly
Ġ3 00
Ġbolus es
Ġbibas ilar
Ġmetast atic
Ġthick ness
Ġprote ct
Ġ7 7
Ġdel ir
u od
Ġt ib
Ġs v
l im
on ix
age al
Ġdiast olic
Ġb rown
Ġshow s
a und
se ous
Ġmch c
ĠĠĠĠĠĠĠĠĠĠĠĠĠĠĠĠ Ġ
Ġdes at
ip ation
Ġsub dural
is one
Ġ ********************************
Ġo per
Ġam p
Ġ5 4
Ġacid osis
9 3
ap hr
Ġ5 7
ast atin
Ġde gen
Ġpromin ent
213 2
Ġsubse quent
ag m
ĠĠĠĠĠĠĠĠĠĠĠĠ Ġ
Ġver bal
kin esis
Ġp ol
l vef
Ġout patient
Ġdos es
or n
Ġamiod arone
Ġem er
Ġshe ath
ph rine
Ġw ard
Ġischem ic
Ġhyd ro
Ġwheez es
Ġdep ression
od one
che st
214 5
p ite
Ġres ection
Ġsw addled
Ġ**] :
pul monary
Ġr iss
216 9
s yst
Ġdef ect
Ġdil audid
Ġdil t
ain e
Ġl ft
Ġtr ivial
r ate
Ġ6 3
p ast
Ġe as
is in
213 1
Ġz osyn
Ġos seous
Ġrep os
Ġobes e
v astatin
b ar
r s
ost ic
Ġpro st
Ġcompl icated
Ġche m
Ġr un
Ġl ll
ary n
Ġseg ment
Ġag itation
Ġag itated
opt imal
Ġf our
Ġmov ing
v ic
6 6
em ide
Ġpreca utions
Ġh us
Ġsup ine
ual ly
Ġst ay
Ġco ag
Ġv omiting
isin opril
Ġgu id
Ġdis charged
Ġher nia
ip s
d op
Ġfl at
ant oprazole
Ġb and
pul se
in c
ence phal
Ġl ad
iv es
8 5
Ġ6 2
Ġcere bral
b as
Ġstat es
op er
prop hylaxis
aren t
Ġpt x
other apy
if act
Ġ10 3
ain ed
21 29
Ġawa iting
Ġrepos ition
Ġ3 25
Ġperf used
Ġspe ech
Ġcompl ications
Ġgr ade
Ġantic oag
ou et
Ġ8 7
Ġsept um
Ġ7 9
h ouet
Ġloc ation
s icu
Ġvolum es
6 9
Ġins ert
16 0
yl ase
Ġkne e
Ġrest ing
21 13
se ction
Ġd nr
Ġprov ide
all er
r t
he pat
Ġhem e
Ġcon j
Ġmain tained
Ġsy n
Ġdes pite
Ġsuction ing
1 30
r ia
Ġdegen erative
Ġno se
Ġch ief
Ġd ob
Ġlip ase
Ġmed ic
Ġsil houet
ro us
chy mal
Ġm i
Ġar rest
21 20
Ġapp oint
21 11
Ġce ft
ad enopathy
Ġag ree
id ine
215 4
Ġfl agyl
um p
218 0
ops y
w t
ren gth
1 10
7 2
Ġf ing
Ġhemat ocrit
Ġr ll
Ġad renal
216 5
Ġhyd ral
ug ular
Ġ7 3
Ġadminist ration
Ġap nea
Ġunder went
Ġsim ilar
Ġck mb
217 8
ca use
imp ression
Ġp antoprazole
mon itor
Ġinf using
ic i
Ġ19 00
med i
Ġn orm
9 1
og astric
Ġ16 0
Ġin patient
Ġi le
Ġfl ush
Ġsub optimal
k ed
216 8
d le
Ġdelir ium
Ġar ch
Ġj unction
aphr agm
Ġn p
th arg
arin a
Ġfor m
Ġ8 4
Ġds g
Ġsp inal
6 4
Ġcalc ifications
qu ired
Ġim age
216 1
n p
ĠĠĠĠĠĠĠĠĠĠĠĠĠĠĠĠĠĠĠĠĠĠĠĠĠĠĠĠĠĠĠĠĠĠĠĠĠĠĠĠĠĠĠĠ ĠĠĠ
Ġdef in
ap id
uro s
6 7
Ġb order
Ġinte gr
Ġc arina
ub e
6 2
Ġcons ent
Ġj aund
Ġ100 0
Ġh co
uros emide
Ġdes c
aller gies
Ġ il
dop pler
ul itis
214 4
a u
Ġcontour s
Ġfeeding s
te ch
Ġcomp ression
Ġs s
im ated
Ġfil m
Ġ8 3
Ġmagn es
214 6
219 3
am m
lip id
21 26
Ġprob ably
Ġprog ression
213 9
218 5
21 17
Ġpress ures
ic ardi
Ġstud ies
Ġcorrel ation
pan sion
er ved
Ġam ylase
ib ut
Ġhypert rophy
Ġflu or
Ġlymph adenopathy
Ġcr an
Ġ4 4
Ġor th
ocyt osis
Ġ7 4
card ic
Ġsp i
21 50
itt ing
Ġv o
c op
Ġbip ap
Ġ6 00
Ġsilhouet te
e g
Ġp cp
Ġse x
att ending
Ġreple ted
Ġne bs
Ġchole cyst
Ġd uod
Ġst rength
t ric
ol ding
Ġ4 7
Ġat her
. ,
Ġ8 9
ex pansion
Ġqu adr
215 1
y ou
v d
Ġadj acent
Ġab use
Ġadm it
n on
Ġj ugular
218 8
Ġg av
Ġs ut
ab s
Ġad ded
Ġps y
Ġv ac
Ġ10 5
o ul
Ġsu ck
Ġte le
Ġco ol
the re
214 2
Ġbe g
ind ication
d es
Ġstand ard
218 7
Ġport ions
Ġpac ifier
Ġlev of
217 2
Ġmon it
Ġcle an
int ub
216 0
se ud
ir ub
Ġan est
00 0
215 6
21 14
Ġh um
Ġw ires
Ġw ant
Ġp ur
pr n
Ġtw ice
Ġdemonstr ates
216 2
Ġsleep ing
Ġparen ts
j ection
u ced
Ġadv ance
Ġc ells
6 3
Ġs it
Ġle tharg
Ġdiv ert
Ġr ule
en a
Ġh ilar
Ġsuggest ed
f ib
ur ia
Ġst age
Ġw al
Ġgross ly
Ġencour age
21 12
c odone
Ġq d
8 4
Ġ encephal
6 1
214 7
Ġo gt
Ġcontinu ous
Ġbi opsy
tric uspid
g et
Ġ12 5
Ġw ent
n ow
Ġag a
8 7
unct iv
Ġ )
it ro
Ġ10 4
21 22
217 3
ul ated
Ġc i
Ġf urosemide
Ġpalp able
Ġhel p
Ġt um
con cl
p ar
. [**
Ġyear s
abdom inal
21 21
Ġpan creas
218 9
ter min
21 23
Ġassist ance
213 8
Ġne b
Ġmed ication
oc ardi
op ic
Ġthromb us
210 2
Ġm ater
217 6
Ġ ery
Ġto ile
Ġj ust
217 9
er open
comple te
Ġeas ily
at ation
Ġob tain
Ġg ive
lyc emia
at ively
Ġhead ache
op l
210 6
Ġs elf
Ġtr igg
e remia
Ġg ain
cephal ic
Ġpossib ly
Ġconj unctiv
Ġ ^
21 18
ap hy
n isone
b and
s f
214 0
lipid emia
8 1
Ġsept al
go ing
p ain
f act
Ġpel vic
Ġbe cause
214 3
d en
218 1
hes ia
wh at
Ġsubc utaneous
Ġn l
Ġport ion
Ġvo ice
Ġnod es
Ġserv ices
Ġtrans ition
Ġph en
214 8
ape utic
8 3
Ġprol ong
Ġsept ic
Ġster oids
Ġcv vh
b e
217 7
Ġs ag
Ġin it
210 8
ici ency
Ġpers ist
Ġsp le
Ġax is
m cv
Ġg re
n g
Ġtitr ated
Ġlob es
8 6
Ġsple en
aort a
Ġr apid
Ġl isinopril
Ġ5 9
m ic
Ġre fer
Ġquadr ant
x one
concl usions
t ube
8 9
ep endent
ak er
21 19
Ġdemonstr ate
icardi um
reg ular
itt al
Ġtr ial
219 0
219 2
7 1
Ġexam ined
Ġsusp ic
Ġlev o
sin ce
Ġse em
ct omy
Ġper i
tech nical
Ġdraw n
p ress
215 9
210 7
7 3
Ġnas ogastric
Ġb ic
s ub
' t
n oid
Ġph ot
Ġph one
Ġl ov
214 9
Ġst rong
im es
Ġmid dle
Ġure an
Ġdesc ending
Ġw ed
Ġ7 1
Ġe cg
Ġlo ok
Ġap ex
Ġm at
19 00
Ġh ands
Ġreg arding
Ġd ors
8 2
ach noid
210 9
respon sive
r r
Ġc re
hepat ic
Ġpo int
irub in
ab olic
ria xone
ol ar
Ġattempt ed
Ġm es
219 1
7 9
d own
Ġopac ification
Ġdrop ped
Ġdil atation
Ġse ction
um ent
al ine
Ġb ri
anc y
ac illin
219 6
Ġref orm
Ġt ing
Ġn ad
Ġ6 1
Ġorig in
Ġenlarg ement
Ġfibr in
216 4
t emperature
n t
ver sed
Ġ4 2
Ġcardi omegaly
217 0
og enic
Ġbri ef
Ġ- >
ar ing
Ġval u
Ġcor d
Ġtr y
Ġp seud
Ġhydral azine
mm hg
ur ning
Ġsag ittal
Ġmagnes ium
open ia
Ġappropri ately
Ġ8 2
Ġj oint
Ġwean ing
Ġf am
Ġinvol ving
Ġes rd
Ġintegr ity
Ġim medi
sp ine
Ġlum bar
act er
Ġdiscus s
Ġf ist
ag es
l ung
Ġre active
Ġevalu ated
Ġinvol ved
he ent
Ġd ensity
Ġpmh x
21 28
215 7
iv ent
Ġ4 1
Ġpat ch
r itis
inter pretation
Ġtum or
Ġmonit ored
ul ose
ar achnoid
Ġex pl
Ġcir c
ant in
Ġr ul
Ġ10 7
Ġrec urrent
Ġtender ness
215 8
Ġn pn
Ġ est
Ġy et
213 4
ter m
Ġg lobal
Ġsu ccessful
Ġrect al
Ġbact eremia
st er
Ġ10 8
mod er
Ġ10 6
218 2
Ġm em
om ed
Ġin hal
Ġsignificant ly
Ġelectroly tes
Ġthough t
Ġsw an
Ġpancre atic
o z
Ġcontinu ing
Ġnar row
Ġir on
azol am
in v
Ġk cl
Ġsup er
Ġbre ak
Ġg ag
Ġas king
Ġh ob
213 7
217 4
itt le
Ġl a
Ġinclu de
ve red
Ġh olding
Ġut i
Ġdivert ic
Ġsp ace
Ġconst ipation
oul der
Ġsc ant
Ġdors al
t ure
Ġblood y
5 00
Ġiv c
213 3
Ġ ip
Ġresidual s
Ġl ife
Ġcon ver
Ġdis section
Ġdeg ree
Ġadminist ered
ep am
Ġ5 3
Ġbr u
Ġfac ial
21 15
Ġdis continued
Ġp n
Ġdi rect
ard itis
ur se
Ġo m
22 00
Ġbr isk
Ġsur round
b ed
Ġf lex
Ġto x
o od
bp m
er m
Ġp ack
Ġcv a
Ġsome what
Ġ9 1
Ġw k
Ġm il
Ġ used
Ġ4 3
Ġpost operative
Ġev en
st itial
a ff
em aker
st art
or ous
Ġap ical
213 5
Ġfing er
Ġ07 00
Ġur inary
218 4
g a
eropen em
Ġanticoag ulation
f lu
d il
Ġgast ric
p ost
Ġ1 12
Ġleuk ocytosis
Ġse c
Ġcalc ification
Ġmr sa
bri ef
???? ??
Ġs us
Ġanx ious
Ġn itro
Ġanest hesia
iast in
Ġhus band
rough t
210 4
Ġplan s
Ġgrad ient
Ġround s
210 5
Ġt ro
Ġsm ok
f inal
216 6
218 3
avi x
Ġblock er
Ġ5 2
z osyn
and ing
n ed
219 5
Ġb ag
li k
Ġcongest ive
Ġapp arent
Ġlit ers
Ġdiagn ostic
Ġd ated
c ro
Ġpred nisone
Ġprob able
Ġcough ing
Ġconf used
ject ive
Ġre con
Ġsinus es
Ġkidne ys
initial s
219 9
ter ic
Ġadd endum
Ġs icu
Ġhyp od
c es
217 5
Ġdis comfort
ip ine
Ġl ocal
Ġp ut
osp h
Ġcheck ed
Ġw id
10 1
Ġcons ist
i ologic
Ġmusc le
Ġsign al
210 3
m ild
s us
Ġlact ulose
Ġl ittle
Ġinter stitial
Ġw ounds
Ġart ifact
Ġmal ign
ocus ate
Ġsh oulder
ĠĠĠĠĠĠĠĠĠĠĠĠĠĠĠĠĠĠĠĠĠĠĠĠĠĠĠĠĠĠĠĠ ĠĠĠĠĠĠĠĠĠĠĠ
Ġant i
Ġconjunctiv a
Ġproced ures
Ġinf l
Ġn urse
Ġ5 1
ell a
abdom en
i ation
ind ow
Ġseiz ures
Ġne phro
Ġhemodynam ics
Ġext ending
Ġto ok
Ġconfir med
Ġlevof loxacin
Ġtemp oral
ne ic
ix ed
Ġpac er
Ġagg ressive
acer b
ver se
g ent
ut ter
Ġer cp
Ġw indow
21 10
Ġdevelop ment
Ġturn ed
p ing
Ġ4 9
z ym
Ġang ap
otid ine
Ġfibrin ogen
217 1
Ġenhanc ement
**] -
Ġb rought
21 27
215 5
ac co
as m
Ġliv es
Ġdil antin
Ġbet a
Ġventil atory
Ġmid azolam
Ġhypert ensive
Ġear s
Ġpe ak
Ġacet aminophen
Ġperf usion
syst olic
lik ely
Ġdr ink
Ġcoll apse
216 3
cy x
Ġq s
rem ains
Ġre str
oc aine
per icardium
Ġtransf usion
Ġs ac
ep ime
Ġsub arachnoid
Ġsw it
ural ly
Ġb ile
iastin um
Ġnot ified
Ġappoint ment
Ġmonth s
Ġesoph ageal
218 6
Ġl en
v ir
Ġdiagn os
Ġs aw
Ġtrend ing
Ġtib ial
re x
213 6
Ġne ar
Ġv asc
Ġl id
Ġfam otidine
Ġdes cribed
Ġinfiltr ates
Ġav r
Ġbas ed
f p
Ġlft s
Ġintervent ion
Ġmet abolic
Ġem phys
Ġceft riaxone
Ġpac emaker
p ot
Ġan ter
f ull
Ġe g
Ġbas ilar
ph os
d em
f ac
/ =
Ġc bc
Ġal low
Ġproble ms
Ġdep ressed
Ġtoler ate
Ġsched uled
219 7
e ff
Ġthromb osis
Ġslow ly
Ġborder line
iet al
Ġam bul
Ġcom b
Ġnormal ly
u ous
Ġun responsive
Ġreturn ed
Ġa rous
r hythm
al s
Ġs en
ul ly
Ġmedic ine
t oler
at ous
Ġfist ula
Ġdorsal is
Ġlik e
plac ed
Ġsurround ing
Ġbott le
Ġd ocusate
Ġhal dol
Ġl arg
Ġped is
Ġex acerb
Ġdis c
per tinent
Ġoxy codone
he ad
Ġbeg in
ogr aphy
Ġdefin ite
h off
u les
Ġcoll ar
follow up
Ġt emperature
cal c
Ġtitr ate
Ġcongest ion
Ġro ot
Ġple as
Ġm ake
Ġme th
Ġnod ule
moder ate
ĠĠĠĠĠĠĠĠĠĠĠĠĠĠĠĠĠĠĠĠĠĠĠĠĠĠĠĠĠĠĠĠ ĠĠĠ
ar ter
Ġhypo kinesis
con ate
m an
en e
art ment
Ġcomple ted
Ġdes ats
i ance
219 4
Ġwithdraw al
Ġplate au
l asix
ak es
Ġdr ift
Ġsuggest ive
r in
struct ive
Ġdrug s
Ġen zym
Ġp ca
Ġl ist
Ġac quired
if y
Ġto b
Ġinf ormed
Ġtid al
Ġnorm o
Ġster nal
Ġe eg
Ġe ach
Ġcoc cyx
ma jor
Ġvessel s
Ġ1 11
Ġretro cardiac
Ġ10 9
21 16
Ġser ial
er acillin
ograph ics
ren ch
Ġhyd r
Ġs af
Ġp fi
Ġhypo active
Ġch ol
i i
in ess
Ġglu conate
he ight
ie ved
Ġind icated
ps v
Ġr ub
Ġpul led
' ,
ad ol
219 8
Ġprolong ed
y o
b ran
Ġbic arb
Ġ uro
Ġnutrition al
Ġt or
Ġprem ature
Ġscre en
Ġm eropenem
Ġmes ent
Ġfrequent ly
Ġto p
.. .
Ġm el
Ġconf usion
id ural
st omy
Ġind ependent
Ġf illing
Ġg round
pro ced
Ġh o
Ġan other
Ġrequire ment
one phro
Ġclin ically
inter atrial
Ġlo ose
Ġf fp
Ġir regular
onephro sis
Ġcoron al
hour s
Ġpac ed
Ġrecommend ations
Ġendoc rine
Ġtachy cardic
le ts
Ġguid ance
Ġm ar
Ġco vered
cl in
Ġfollow up
Ġdop amine
Ġpac ing
Ġshow ing
Ġco il
gen cy
Ġg ib
Ġ17 0
Ġover lying
Ġventric les
Ġtermin ates
pt al
Ġcomple x
re t
Ġh ard
Ġf air
Ġenzym es
Ġdep endent
f loxacin
ra ction
Ġr are
Ġretro per
Ġimm un
Ġ13 8
Ġca use
Ġv ir
Ġs om
Ġfe brile
Ġtoile t
iaz em
ent ial
Ġs ister
et al
in ct
co cet
i at
bs a
t az
c s
Ġan k
Ġm ag
Ġb ar
Ġheal th
Ġl ul
name is
Ġop ens
t emp
Ġ11 5
osc opic
m oid
Ġletharg ic
Ġcardi ology
Ġdis order
Ġappear ing
Ġencephal opathy
Ġeg d
Ġinj ection
Ġpl avix
ur ity
cephal us
Ġma jor
av es
Ġpre p
**] ):
Ġery the
Ġal ine
h as
Ġasp ect
Ġtachy pnea
is sues
Ġpul monic
ot omy
Ġnot able
cin oma
Ġcere b
Ġwr ist
Ġdo ing
Ġneed le
j ob
Ġcv l
Ġduod en
/ -
Ġpers on
he ck
Ġspo ke
e vent
Ġ13 7
Ġhepat itis
Ġp ale
oth yroid
Ġmd i
Ġrequ est
210 1
Ġesoph ag
id s
Ġ11 6
s da
Ġcon d
Ġvol t
Ġep idural
ic illin
ot ional
Ġax illary
Ġt ent
Ġemphys ema
on ent
t imes
ip ital
Ġsuspic ious
Ġa z
g m
Ġhemat ology
Ġting ed
Ġout side
in y
Ġinf usion
Ġattempt s
ard s
Ġhydr onephrosis
pro t
et ic
h ome
Ġserv o
Ġsx n
Ġco operative
Ġresol ution
ĠĠĠĠĠĠĠĠĠĠĠĠĠĠĠĠĠĠĠĠĠĠĠĠĠĠĠĠĠĠĠĠ ĠĠĠĠĠ
Ġbr ach
ain ing
Ġrec heck
Ġwheez ing
ch ron
Ġj p
Ġsut ures
Ġent er
Ġst ated
p aren
Ġup right
Ġ14 1
Ġde comp
Ġon set
Ġsc at
ent ive
Ġm ove
215 2
az epam
Ġpip eracillin
Ġpass ed
ne ed
blo od
Ġn icu
Ġf ri
o unt
Ġper c
op last
or d
Ġapp e
Ġme an
Ġphen y
Ġon going
Ġpat chy
**] /
Ġextub ate
Ġt ear
Ġf ully
Ġm ast
Ġrecor ds
Ġli ft
Ġmaintain ing
Ġtob acco
os tal
Ġt v
ell ar
Ġl r
Ġjaund ice
e val
Ġgram s
Ġendoc arditis
Ġcomp onent
act am
ass ist
om in
Ġins uff
Ġdig its
usc ult
s at
Ġbact er
Ġtr act
Ġref lex
Ġw aking
r im
Ġiv p
m icu
w ell
n oc
ol ol
== ==
ub le
comp ared
Ġlong er
Ġem otional
Ġbe com
Ġprotect ed
Ġnarrow ing
Ġocc l
Ġc ame
Ġrespon sive
Ġcre am
Ġph osph
met ry
Ġster ile
on ary
reg urgitation
Ġqu iet
Ġnod ules
Ġd ad
art rate
b ound
ul ature
ograph ic
lung s
Ġil iac
Ġperf orm
Ġscat tered
Ġconsult s
2 00
sup port
able s
Ġq id
Ġcol itis
m r
Ġt artrate
Ġt issues
Ġappe ared
Ġm arg
Ġne cro
Ġind ic
Ġimpro ve
Ġretroper itoneal
end s
ot e
Ġdilt iazem
oc c
Ġde ferred
Ġt urning
Ġech ocardi
Ġpp x
Ġlid ocaine
oph aryn
Ġ11 3
w n
Ġexacerb ation
Ġper cocet
Ġemer gency
ap ed
Ġsubsequent ly
Ġbil ious
r u
Ġget ting
h is
Ġl ap
d m
ca res
Ġas y
Ġmon day
Ġ18 0
Ġmesent eric
Ġmat ter
Ġfil ter
Ġcl ose
Ġpart ial
un n
Ġcy an
Ġcalc ified
lu c
f a
Ġoff ice
hem e
Ġmuc os
Ġtemp or
cor onary
Ġser os
Ġke y
ren ce
Ġf oc
Ġu f
rom ycin
res is
Ġp ump
proced ure
Ġres usc
Ġpar acent
ass ess
Ġaspir ates
Ġparen chymal
Ġstruct urally
Ġnormo cephalic
per i
omed iastinal
Ġproduct ive
p neic
Ġf ocus
Ġoper ative
ic ed
enic illin
Ġank le
Ġvalu ables
Ġsig moid
c ap
Ġp co
Ġst ick
Ġinc is
cor d
Ġast h
a que
Ġmap s
Ġinfl amm
Ġstand ing
Ġter m
st ick
p ose
Ġliquid s
inv asive
Ġsb t
c ine
Ġreplac ed
Ġcop ious
Ġcipro floxacin
r at
it amin
Ġ11 8
Ġ13 6
Ġent eral
Ġbro ad
Ġradiograph s
pul monic
Ġmater ial
Ġp y
Ġrestr ain
Ġch ills
gr am
b orn
Ġscler a
ne ck
st ool
Ġ13 9
Ġnon tender
Ġcont s
Ġb o
Ġther apeutic
Ġd ic
Ġprote in
p el
Ġradi ologist
Ġcardi omediastinal
Ġn r
Ġasth ma
Ġl g
Ġperiod s
at urity
g l
Ġoral ly
Ġmed iastinum
Ġh cl
ic le
Ġsol ution
r um
Ġfeel ing
Ġ13 5
ivent ricular
Ġp g
s ul
n er
Ġs aline
t ated
st emi
Ġhospital ization
u o
f orm
Ġ11 4
Ġ4 50
Ġped al
Ġheal ing
hy po
Ġc pt
Ġsug ars
Ġsleep s
ole mia
oc ument
Ġc ort
Ġseros ang
Ġa ce
Ġgu a
Ġneurolog y
v ascular
Ġw aves
Ġch ar
Ġappreci ated
Ġintermittent ly
Ġa ut
Ġinc ident
Ġa uscult
Ġa ud
Ġw ake
**] ),
ell itus
Ġst ate
al es
Ġsen na
d ep
f em
hes is
b aby
Ġhypox ic
Ġrest less
Ġconfir m
g ms
Ġfe et
Ġfail ed
Ġconsist ency
Ġch ild
Ġwindow s
Ġcrit ically
Ġfat ig
Ġnot es
Ġphot otherapy
Ġrel ief
se psis
Ġsuggest ing
Ġa a
Ġresol ving
b ing
Ġleafle t
Ġvit amin
Ġphys ically
Ġneuro surg
s y
Ġth ir
u q
Ġg m
orac ic
Ġt l
Ġleg s
Ġsus tained
Ġtip s
Ġproble m
iz ing
ro ss
Ġparacent esis
Ġo g
ipl an
Ġpres erved
Ġm ellitus
Ġl t
prot onix
Ġvasc ulature
ĠĠĠĠĠĠĠĠĠĠĠĠĠĠĠĠ ĠĠĠĠĠ
Ġtransf use
Ġfib er
Ġgeneral ized
Ġem esis
com pl
othyroid ism
b ut
os cler
if ocal
ous e
er c
en uation
Ġf act
Ġe om
de v
pos ed
Ġshe et
Ġpath ology
Ġve get
iplan ar
as pir
Ġl vef
Ġremain der
Ġu a
Ġref lect
- /
Ġrec over
t able
ent esis
w p
Ġth yroid
rect omy
Ġplate lets
Ġminimal ly
Ġt unn
ach ing
Ġpresent ation
Ġb b
Ġsat uration
Ġex ternal
10 2
itr ate
Ġt iny
Ġstart ing
chang e
Ġpleas ant
al ly
Ġrect um
Ġf usion
Ġmult iplanar
h s
ab p
ent ially
Ġintr ap
Ġapp ro
Ġf rench
Ġrepresent s
Ġs le
Ġus ual
Ġhyper lipidemia
am ount
Ġn ested
Ġ14 2
um e
un its
c are
Ġembol ism
hy d
er d
not omy
Ġmot or
Ġmed ial
Ġp nd
k a
Ġtransf used
u es
Ġclin ic
Ġver sus
amp on
ac et
4 00
Ġspec if
Ġo k
Ġcompl iance
t ely
c lo
s er
Ġis s
220 1
Ġf ellow
s elf
Ġrece ive
hypert ension
Ġcef epime
+ ,
Ġ11 9
Ġgre en
Ġp ow
Ġd ocument
Ġbil irubin
ad d
b m
en se
or ation
Ġher ni
17 0
Ġmarked ly
Ġlymph oma
Ġinsuff iciency
d ose
g iven
Ġlen gth
bi ology
Ġ6 50
as al
Ġrhon ch
c arb
Ġt al
ampon ade
Ġhs m
on d
Ġpres umed
Ġvolt age
Ġprot onix
Ġc lo
Ġseem s
Ġpot ential
Ġrestrain ts
ar f
Ġb ul
ith er
Ġem pir
Ġdec ision
intub ated
Ġ ess
iot omy
v oiding
Ġprost ate
ose ptal
Ġ14 3
Ġapp end
Ġ11 7
a qu
Ġto o
Ġs dh
Ġpresent ing
Ġst ab
ic teric
Ġpar ietal
pat hy
Ġq rs
pose ful
Ġle ast
Ġbe gan
Ġc ur
Ġoxygen ation
ir m
Ġs k
ang i
Ġprbc s
Ġn stemi
start ed
cc u
l an
Ġrest ric
Ġas ked
om al
Ġf asc
Ġe c
Ġent ire
Ġlo ad
p ac
a ut
af ib
ion ic
Ġarriv ed
ocyt openia
Ġpsy ch
ge al
Ġ5 50
Ġvas opress
Ġmult ifocal
Ġabg s
t re
Ġst aff
Ġex peri
l ab
Ġto uch
Ġr i
lo on
Ġv el
Ġster notomy
Ġsa h
Ġpro ject
z a
am ycin
Ġunder st
Ġfiel ds
Ġdiscus sion
ement ia
Ġre ady
Ġne ut
Ġm ening
r ing
Ġpart ially
itation s
Ġerythe ma
Ġc b
Ġcatheter ization
is ed
Ġf ont
ut ine
Ġ< =
Ġmm m
ch ing
ant ly
d g
v anc
et y
Ġan sw
Ġv ss
Ġcholecyst itis
af ter
ron id
Ġang io
Ġm ob
op ul
ob actam
Ġcor rect
Ġden ied
Ġeom i
ronid azole
Ġtro pt
Ġst ap
taz obactam
ap s
Ġob structive
Ġlab ile
Ġcyan osis
phys iologic
e ast
Ġde vi
Ġfoc i
a ction
Ġser ous
Ġather oscler
Ġtable ts
Ġbact rim
Ġbronch oscopy
ic ial
or ding
dis c
table t
Ġocc ipital
iv ed
Ġ1 21
Ġdef ic
Ġar th
Ġacc ording
oplast y
Ġinit iated
Ġsim v
+ ]
rop ium
ol ateral
Ġtee th
termin ed
Ġtor so
Ġc ase
Ġo oz
app ear
Ġic a
**] ;
Ġmovement s
oph ren
ch ronic
w a
Ġe l
pe ep
Ġmast oid
Ġwor se
Ġth igh
Ġhyp og
Ġdist ention
Ġinsert ed
Ġb ld
Ġro ute
Ġtrans ient
fac ility
Ġcomfort ably
f rom
Ġorder s
Ġtrans port
Ġan icteric
ox in
Ġcol ace
Ġr x
Ġswit ched
dem ographics
d u
Ġvent ed
Ġchar acter
Ġhyper g
Ġ13 4
Ġ12 6
uc ate
v o
Ġd ark
ext rem
Ġs ch
Ġvel oc
Ġspontaneous ly
Ġnew born
Ġthere fore
Ġ14 5
Ġoccasional ly
con dition
Ġvital s
Ġdiagnos ed
Ġh iv
Ġl p
Ġnon specific
Ġam l
Ġly tic
ud y
or ic
Ġreas s
Ġcomm and
Ġr uq
Ġmicro biology
Ġl ib
Ġbal loon
Ġt rem
Ġl or
Ġg ap
ward s
Ġi abp
Ġpol y
Ġpass ing
Ġest imated
Ġm o
Ġfluor oscopic
Ġp rong
Ġne cess
g y
i asis
Ġp enicillin
Ġfl us
**] ).
neg ative
Ġf ather
10 5
ipl inary
Ġav oid
Ġtempor ary
bas eline
Ġnar c
Ġmost ly
Ġtachy pneic
Ġencour aged
Ġan al
Ġ13 2
p resent
Ġben ef
Ġic d
Ġo wn
so ft
Ġwarm er
Ġstim ulation
pro v
ac cess
ĠĠĠĠĠĠĠĠĠĠĠĠĠĠĠĠ ĠĠĠĠĠĠĠĠĠ
Ġ12 8
r ib
Ġob jective
s ible
d ni
ag ing
Ġro utine
h old
Ġplan ned
Ġarous able
Ġon c
p neum
unct ure
Ġc ga
Ġg est
Ġoccl usion
per f
ro vent
Ġin gu
Ġmet ronidazole
Ġpossib ility
Ġg t
Ġhydro cephalus
Ġt ap
Ġl ay
as one
Ġc is
Ġmurm urs
Ġremain ing
Ġingu inal
arf arin
Ġtrigg er
Ġdo uble
Ġdi aphragm
n at
Ġrv r
Ġbro ther
Ġover noc
lect omy
Ġ13 3
Ġfatig ue
Ġsaf ety
hem at
pre vious
Ġar ms
Ġsu ch
Ġtunn el
Ġsign ed
Ġdob hoff
val ve
Ġbrief ly
Ġk now
c id
Ġe ither
me q
blo ck
z ed
Ġ**] -
Ġbut t
ent s
om on
Ġhyp othyroidism
s ign
Ġm n
e j
cr ip
ign ment
Ġgoal s
Ġf irm
as es
ine phrine
Ġdem and
Ġr ca
Ġsat is
Ġf ore
Ġf inding
k s
Ġmed icated
Ġthir d
Ġpre cord
Ġ12 2
en ox
Ġds d
Ġset t
Ġgav age
ag ic
Ġro s
Ġfre q
Ġp ad
Ġqu ick
Ġinsert ion
Ġlor azepam
ch f
b y
iv ing
Ġspl enic
n c
Ġtr iple
log y
10 3
omy opathy
Ġcr rt
Ġv ena
f ix
Ġculture d
Ġre bound
Ġm aking
am ic
Ġd ementia
Ġantibiot ic
Ġs ites
Ġpar an
h ad
Ġb illing
Ġmalign ancy
Ġp c
ro om
c le
Ġh a
v p
Ġbreak down
Ġintra ventricular
Ġtrans verse
Ġdressing s
we ek
un ting
Ġpresent ly
Ġn ip
Ġvir al
Ġn d
se c
comple ted
21 00
d ef
ĠĠĠĠĠĠĠĠĠĠĠĠĠĠĠĠ ĠĠĠĠ
Ġ12 4
Ġexp ected
Ġline ar
Ġde creasing
Ġor opharyn
Ġmd ct
Ġatt entive
Ġsv g
flu id
Ġm ra
Ġci wa
al t
Ġvar ices
feed ing
Ġaud ible
Ġcardi opul
id i
Ġesophag us
ph ic
v omiting
n one
d ys
ynam ic
Ġpro vis
oth y
Ġt ab
Ġsatis fact
b b
Ġdevelop mental
Ġhyp ov
t ake
Ġdevi ation
Ġdist inct
Ġgu iac
ĠĠĠĠĠĠĠĠĠĠĠĠ ĠĠ
go od
Ġtermin ating
Ġwave form
in creased
Ġnr b
s leep
Ġin ability
Ġprovis ional
us es
Ġy east
or atory
Ġmy el
re ce
Ġsupport ive
Ġst ain
Ġdec ub
p fi
Ġsuck s
en za
Ġwh at
ite al
Ġs lu
Ġgo ing
ĠĠĠĠĠĠĠĠĠĠĠĠĠĠĠĠĠĠĠĠĠĠĠĠĠĠĠĠĠĠĠĠ ĠĠĠĠĠĠĠĠ
Ġthe m
Ġtoler ates
gr ade
al emia
g ed
re es
Ġlim b
s on
kin etic
chi at
Ġvasopress in
Ġaf of
ac ia
Ġthromb ocytopenia
z z
Ġcav a
Ġradi ation
Ġulcer s
ung al
ch ole
Ġh cp
Ġq hs
ly cer
Ġthe ir
onat remia
Ġgl ands
Ġam ber
Ġcond uction
cons istent
s m
Ġam io
Ġadj ust
t en
Ġfem ur
av icular
w s
ib er
Ġmid night
clin ical
ab normal
Ġnt g
Ġev ol
Ġcereb ellar
Ġdos ing
t ail
Ġr ising
Ġhyper carb
feed s
toler ating
Ġg ot
id es
Ġproced ural
rom or
rox ine
us ted
n utrition
Ġ14 4
Ġ12 9
Ġcal m
ad one
od ipine
lim inary
Ġstap les
Ġan ast
os ol
Ġile us
Ġh ouse
disc iplinary
Ġhyperg lycemia
Ġres ist
rat ropium
Ġposition ing
oc oc
Ġcan al
ej un
18 0
opl iteal
v as
Ġex ert
Ġcle ared
Ġin st
Ġinter disciplinary
Ġp ig
in ous
Ġcommun ic
of low
Ġpur poseful
Ġval v
Ġsatisfact ory
aut oflow
p ra
Ġac cept
romor phone
ub ic
Ġbe ats
Ġatheroscler otic
Ġinter pre
crip tion
s ats
Ġb est
f icial
Ġgra v
Ġdig oxin
pat ible
f r
othy roxine
Ġg erd
Ġsh unt
h ilar
Ġaer ation
Ġmax illary
12 5
Ġpart ic
Ġsul ci
oc y
Ġj vp
Ġb orn
an y
Ġno de
Ġic p
Ġcl on
Ġcap t
Ġstat in
em atous
Ġeff ort
Ġpneum ob
Ġrep e
an el
l s
an ch
on y
Ġt amponade
Ġdiures ed
Ġreposition ing
10 4
Ġwors ened
Ġ3 50
c abg
Ġimmedi ately
Ġsp it
Ġcomparison s
Ġ12 7
Ġ12 3
Ġsat ur
Ġam b
Ġgua iac
Ġe jection
Ġsuggest s
Ġpres ence
Ġappreci ate
Ġpow der
Ġser um
Ġk et
g ing
Ġcardi omyopathy
Ġr ales
Ġaer osol
Ġgest ation
aw ake
* #
Ġs end
Ġhem idi
Ġrec ieved
Ġdi aph
Ġrepresent ing
m other
Ġnecess ary
Ġch art
air s
es oph
Ġgr im
Ġsched ule
Ġdo ctor
th ick
Ġl ot
Ġdi zz
ther mia
n icu
che ck
Ġun likely
c all
d im
ro se
ogen e
Ġtox ic
Ġtest s
lu enza
Ġcal iber
t c
Ġ16 00
f low
Ġspe ak
Ġhemod ialysis
ant us
Ġconcern s
Ġf raction
Ġf ood
bran ch
ar ies
Ġgav aged
Ġb ath
Ġcar cinoma
Ġst ones
cop e
b owel
ex am
rib ution
one y
Ġri j
Ġsug ar
Ġrhonch orous
ep pra
he re
n ol
Ġ( +
Ġcell ulitis
Ġnod ular
Ġre or
Ġt aper
Ġob vious
Ġsuper ficial
Ġposition ed
m urm
Ġloc ated
Ġb ur
Ġs ix
op e
Ġ13 1
Ġorth op
Ġspe aking
Ġ( >
ke le
ur ine
Ġrun ning
Ġparan asal
Ġcom patible
Ġ( -
Ġinclu ded
t ot
kele tal
rop nt
itt ed
Ġre cons
wh ich
ur red
Ġexclu de
Ġatt enuation
Ġst ric
com m
clo vir
Ġtoler ance
Ġfil ms
um m
Ġcran iotomy
e v
ter s
Ġp opliteal
Ġspl en
Ġper l
Ġsle pt
ar th
Ġpre vent
Ġherni ation
itt en
Ġint oler
Ġpl ug
Ġan n
Ġpt s
Ġmuc ous
Ġinclu des
Ġp ap
ep cid
l ation
Ġhyd romorphone
Ġcolle ctions
s l
Ġauscult ation
c ious
Ġem s
cx r
omon as
Ġdis po
Ġbutt ock
lu x
Ġcardiopul monary
Ġreposition ed
act ivity
Ġalk al
Ġg irth
Ġa ff
h ct
Ġex erc
p c
er ous
ep skin
Ġthorac entesis
m ost
Ġbegin ning
Ġather oma
Ġh c
**], [**
ip ate
Ġsp h
o ke
im ages
th ing
Ġb ony
Ġwas h
Ġct ropnt
Ġpain ful
ib ility
rex ia
Ġl le
Ġprote ction
ment ation
w are
Ġ**], [**
Ġsp ont
on ate
Ġbott ling
Ġcoag ul
pul m
Ġval ium
Ġpro mod
Ġ14 6
Ġd up
Ġ15 00
Ġclip s
Ġpersist s
Ġprogress ive
Ġpig tail
int ment
w ire
et ite
Ġed ucate
Ġresp ir
in ts
Ġp uff
re view
ill ed
Ġc sf
Ġrecor ded
Ġhyp onatremia
Ġmeas ure
erol ateral
Ġf h
le phrine
Ġm ca
Ġamp icillin
Ġimmedi ate
Ġde xt
Ġred uced
Ġsim vastatin
Ġii i
adol in
we re
Ġw arfarin
s mall
se vere
ogene ous
Ġm ixed
inc lu
Ġcom e
Ġsens it
pl ace
Ġspecif ics
Ġe ve
Ġperrl a
Ġno ur
app ropri
Ġst aph
Ġgt ts
Ġpy rexia
ide red
Ġhe el
Ġ8 00
s g
at ted
on am
he tic
Ġal tern
Ġnour ished
Ġpsy chiat
b et
Ġd x
Ġpenicillin s
arter ial
sion s
Ġcons idered
Ġat or
Ġd est
Ġper tinent
l abs
Ġx ray
Ġchem o
de velop
v ist
pt itle
ens ities
Ġrel atively
Ġ18 00
Ġsevere ly
Ġwheez e
Ġhyper nat
Ġr ig
d ic
ith iasis
Ġwr itten
Ġhe ter
Ġ-- >
Ġad en
pm h
Ġgu ide
Ġes p
Ġstr anding
Ġattempt ing
Ġpromin ence
Ġl ig
gan z
Ġman y
Ġns g
ect or
Ġess entially
ame th
Ġb bs
murm ur
Ġm oney
Ġdrift s
Ġquick ly
Ġgrav ity
Ġinf erolateral
ne vist
Ġgent le
Ġsens ation
opt ysis
Ġke pt
l en
Ġint ensive
Ġhe ard
Ġbr anch
omal acia
Ġator vastatin
Ġto es
Ġg ave
he art
Ġrespon ded
Ġimag ed
Ġc ost
Ġk eppra
Ġoste op
Ġfor am
Ġreform atted
Ġca using
Ġf ut
ex p
Ġplan ning
se en
Ġbrach ial
Ġk cal
Ġmil k
Ġlev othyroxine
Ġrepe ated
Ġv oid
Ġw ob
as ar
Ġv ag
chy m
Ġsom nol
Ġl antus
Ġbed time
im ent
Ġmag nevist
Ġpar aly
cont rol
Ġ ue
Ġscler otic
Ġhemidi aphragm
add endum
Ġprecord ial
up ation
Ġent ered
Ġangi ogram
Ġreg lan
Ġreported ly
wh ite
Ġinf luenza
10 6
Ġvis iting
Ġpalp ation
Ġf ol
Ġcapt opril
Ġcirc um
Ġbott led
Ġfeel s
Ġnon distended
Ġn ph
ig uous
Ġpheny lephrine
Ġlov enox
ong ue
Ġc odes
Ġz one
Ġl ate
Ġhemorrh agic
al ert
Ġs itting
Ġorth o
m om
Ġf os
Ġ14 7
Ġsmok ing
Ġb c
y clovir
os es
Ġangi ography
pt ic
th rough
er us
Ġcrit ical
Ġinter pretation
ophren ic
Ġop ening
o h
Ġlymph s
in fer
Ġcont iguous
Ġhard ware
ĠĠĠĠĠĠĠĠĠĠĠĠĠĠĠĠĠĠĠĠĠĠĠĠĠĠĠĠĠĠĠĠ ĠĠĠĠĠĠĠĠĠĠ
Ġhypog lycemia
Ġ( +)
Ġcomplain ts
di agn
Ġse qu
Ġk vo
Ġl ack
Ġy r
om as
rin one
ub bing
ur ic
Ġinvol v
Ġte aching
Ġarter i
Ġwork up
bil ateral
Ġsup erv
Ġ**] )
Ġlv ot
Ġbr ings
Ġadj usted
Ġclot s
Ġrem ove
Ġpar ameter
Ġp all
Ġdi aper
Ġdivertic ul
Ġhypox emia
Ġemer gent
aren chymal
Ġk ub
Ġdiabet ic
Ġphosph ate
se cond
Ġw at
Ġstab il
Ġfont anel
con azole
Ġloc ulated
wh en
Ġwal let
Ġswallow ing
Ġwor ds
anc hes
Ġm so
Ġan ion
Ġp vd
Ġconsistent ly
er ia
Ġpress or
******** ****
Ġext ension
Ġser ies
we an
Ġr ue
Ġp da
Ġf ive
struct ed
Ġsup p
Ġcolon oscopy
Ġr le
ver tebral
Ġmon os
Ġf ed
Ġsp ect
Ġgall st
Ġanterior ly
Ġc ards
Ġprol apse
Ġpneumob oots
not ed
c ath
Ġext ends
y ing
Ġ15 5
etal ol
Ġdef orm
enol ol
id ay
Ġth r
Ġf dg
pr imary
Ġb is
v s
Ġ14 8
Ġde br
termin ate
ax ial
Ġde cl
plac ement
Ġobes ity
Ġrequ ested
Ġno c
Ġ******************************** ********************************
Ġ**************************************************************** ************
Ġst emi
Ġ******************************** *
on ic
Ġrequ ires
Ġlab etalol
Ġcons cious
Ġdext rose
Ġo l
Ġp et
sh ift
Ġst e
Ġan asar
Ġapp etite
f ace
Ġclo udy
Ġc d
Ġh it
Ġduoden um
Ġco lectomy
Ġprem aturity
Ġgr an
z olid
Ġs am
b leed
m id
ut ed
Ġo v
Ġ7 00
Ġhyper d
al p
ith romycin
Ġresusc itation
r am
ert ain
omy el
lu ded
Ġl ue
Ġv om
Ġpred omin
k es
Ġadd ress
umm ary
Ġ7 50
Ġhem optysis
azol in
Ġec chym
Ġpart icular
g luc
Ġtl c
Ġbronch ial
op ro
od yl
Ġmarg inal
ce f
Ġpalp itations
Ġfac ility
Ġbacter ial
Ġdec ided
Ġfl utter
Ġalkal osis
Ġhypernat remia
Ġhe aring
Ġev ident
Ġst one
Ġang le
Ġt ongue
Ġanast om
m ult
al og
im um
10 7
Ġlit er
omyel itis
Ġbecom es
im m
Ġchild ren
cre at
of ran
Ġmucos al
Ġsub st
Ġenhanc ing
opr am
adm itted
Ġext ended
Ġsv o
Ġperc utaneous
ur sion
Ġep i
Ġmult iv
Ġdil ation
+ ),
Ġmem ber
Ġpro m
Ġbr anches
Ġcyst s
Ġg adolin
Ġooz ing
ron chi
Ġdirect ed
acet aminophen
Ġneut rop
hem orrh
Ġlv h
Ġdrop s
f ever
Ġas d
Ġtrache a
Ġpo le
Ġmil rinone
Ġ15 3
ac odyl
Ġlov ing
Ġe w
dil audid
a ctions
Ġo ac
inclu ding
Ġlay ering
Ġtrac heal
mptom atic
pro duct
fem ale
Ġfirst name
aqu in
Ġclear ance
Ġreple tion
Ġintrap arenchymal
Ġacc ident
Ġsever ity
le afle
Ġn ut
Ġcost ophrenic
n osis
Ġprep ped
% /
11 5
Ġdivertic ulitis
il ic
Ġl acer
Ġ12 00
lo b
Ġind ex
Ġperf oration
oper atively
Ġdiff usion
rece ived
Ġawa it
# :
cp k
Ġas leep
.. ..
Ġmeth adone
Ġsa o
Ġrecover y
Ġd uration
Ġev ac
le vel
ank et
iv ities
comfort able
ur ance
vis ed
k alemia
Ġclos ure
opl asm
eff usion
Ġcrit eria
mal ler
ash ion
Ġref used
c ar
Ġfl atus
Ġac yclovir
ĠĠĠĠĠĠĠĠĠĠĠĠĠĠĠĠ ĠĠĠ
Ġ24 0
Ġrang ing
hy pot
yn chron
Ġmet s
Ġshe epskin
Ġcl ubbing
esoph ageal
am ped
Ġob sc
Ġpneum o
Ġga it
weight ed
Ġsp ell
Ġob s
Ġmar row
b ack
10 8
id ate
Ġcontr ibut
Ġv ig
Ġocc upation
t f
Ġdetail ed
Ġc diff
Ġtele metry
Ġg ang
is es
Ġf ashion
Ġlarg er
w or
Ġa ug
Ġct ab
Ġg nr
c at
Ġparen ting
dic tated
Ġvis ited
Ġip ratropium
us ely
Ġf ell
ra um
Ġcholecyst ectomy
Ġcor respon
Ġn ic
Ġfut ure
trans fer
intub ation
sign ificant
ut ional
Ġelectroly te
as p
h igh
Ġneurosurg ery
ver s
Ġext ent
Ġexert ion
Ġpl ts
Ġcoag s
event s
Ġor if
Ġperi hilar
Ġet c
Ġo t
iv er
Ġhypod ensity
Ġgrow ing
mal e
ox y
Ġanasar ca
Ġs ay
Ġsac ral
Ġexpl ained
Ġcal or
int ra
ag ement
Ġ um
chy ma
Ġhigh er
Ġtunnel ed
ion ized
Ġdi ed
Ġinc om
Ġflu conazole
Ġline zolid
Ġs maller
it ic
surg ical
Ġfr ag
Ġchem otherapy
m y
Ġpl ast
Ġh az
Ġthickness es
Ġal ter
Ġin ver
bp r
ep razole
ul os
act one
th romb
Ġd ent
Ġr up
Ġprog nosis
Ġdet ected
Ġm vc
b id
-- -
Ġinvolv ement
Ġs olid
Ġadmin ister
qu ist
Ġtr an
Ġl ac
Ġdizz iness
Ġinter active
Ġde termined
Ġto wards
h ib
Ġof fer
product ive
med quist
Ġinflamm atory
Ġref ill
t w
su ccessful
olog ies
Ġjaund iced
Ġdecomp ens
he p
Ġat n
rit able
Ġto t
Ġed ematous
Ġz ofran
Ġcomple tely
in a
Ġd erm
ol ysis
appropri ate
Ġintra hepatic
Ġw a
im ize
Ġbis acodyl
en oid
Ġsam ple
ulos keletal
Ġparen chyma
Ġ **
Ġcran i
Ġcoagul opathy
Ġdis location
Ġne uts
extrem ities
Ġparameter s
Ġcvvh d
Ġinhal ation
pos sible
ad ys
6 00
Ġnut ren
Ġbl anket
Ġred ness
rel ated
Ġpul l
Ġt sh
Ġpvc s
Ġaa a
Ġ urg
p p
3 00
sp ace
ri er
t y
Ġiss ue
ĠĠĠĠĠĠĠĠĠĠĠĠ ĠĠĠ
Ġembol ization
Ġreflex es
ne w
Ġn yst
Ġe lb
Ġwhe ther
Ġpro d
Ġh osp
g lobal
Ġche w
cont r
pro b
ang u
ip ime
Ġcur ve
Ġ17 00
Ġconver ted
Ġne ver
Ġr an
Ġoste omyelitis
Ġsubc ostal
Ġsb o
e on
Ġc and
Ġp ubic
Ġnon ionic
Ġ ),
th at
Ġ14 9
Ġtw in
Ġtak es
Ġallow ing
Ġb if
Ġe ating
ud den
Ġat rovent
cv s
i amine
Ġobs erved
p rom
Ġt c
Ġbel ly
Ġun stable
Ġp en
Ġhe av
Ġhum alog
Ġwork ing
Ġelb ow
pel vis
Ġal ignment
Ġveget ation
Ġvis ion
ec ially
block er
Ġw akes
Ġ rom
l it
Ġf ungal
Ġl av
Ġb g
Ġfr iday
Ġal one
Ġdr aped
Ġscre ening
fl agyl
Ġsk ull
Ġv en
Ġexperi en
Ġpm v
Ġres ume
Ġrub s
Ġconsolid ations
Ġprost hesis
Ġos a
r ig
Ġv na
Ġbr bpr
Ġconcern ed
Ġdiff usely
second ary
Ġinter im
sul f
ox ic
Ġ ich
Ġpseud omonas
Ġlist ed
Ġf er
ient ation
Ġt ort
ext ub
Ġcl amped
y our
ac hed
g n
Ġr as
bil irubin
p res
Ġ ice
Ġcef azolin
Ġat yp
Ġcomb ination
Ġf ix
p epcid
Ġcardi ogenic
lycer in
Ġtrac hed
h tn
Ġduct al
Ġcardi over
Ġlat est
Ġne oplasm
fix es
Ġre action
to in
Ġcare view
Ġcent er
assess ment
pre fixes
opro st
Ġmusc uloskeletal
press ure
Ġ# )
ang itis
Ġmater nal
hyd ration
Ġpm a
b en
Ġo stomy
equ al
Ġor b
Ġparaly zed
ext ended
Ġ**] /
Ġsoft ly
Ġatt ention
Ġincis ions
re ady
ps y
re qu
Ġdrop ping
Ġflus hed
Ġexerc ise
c ad
Ġcis tern
Ġlev aquin
ch lor
Ġdup lex
Ġr uled
Ġden se
Ġmel ena
Ġm cv
Ġcor dis
amic in
Ġp ron
Ġfact ors
rom ide
s ens
larg ine
Ġrisk s
Ġben z
Ġs emi
Ġst ep
ech o
Ġdesat uration
head ed
ce ed
y ellow
Ġsyn cope
on itis
en ia
Ġam s
Ġ15 6
Ġpl s
Ġsuccessful ly
Ġne ph
Ġb cx
at al
Ġly ing
al so
Ġheter ogeneous
breath ing
Ġp age
Ġsens itive
Ġhem ith
Ġstent s
Ġf ixed
Ġalter ation
Ġrespon ding
il at
Ġextrem ely
Ġcef ipime
Ġevent ually
Ġdocument ed
g mental
Ġind e
Ġile ostomy
Ġinjur ies
ag er
Ġmultiv itamin
on c
Ġbl ack
cop d
Ġveloc ity
Ġtransf ered
u ck
Ġasy mmet
Ġad enopathy
# .
Ġab ras
Ġdim ension
ac es
Ġdiures e
chole ster
Ġt ight
Ġs ummary
ly tes
Ġ19 0
Ġempir ic
h ave
Ġaccept able
Ġdist ant
Ġbar rier
in ated
Ġg ms
Ġso on
Ġmob ility
Ġanal ysis
Ġb iventricular
cholester olemia
it idine
Ġ2 20
" .
Ġs un
Ġdeg rees
Ġsed iment
d ue
Ġexam s
Ġrecon struction
10 9
Ġconscious ness
Ġdrain ed
or ial
ri ed
Ġref lux
Ġclos ed
Ġpul ling
res ol
b g
Ġt en
Ġbas ilic
Ġmel an
Ġce phal
b ness
Ġaff ect
Ġ( ?
Ġb ol
al b
bil ical
Ġmed ian
Ġtraum atic
pneum onia
Ġtrigg ering
Ġsett les
hy p
ist ing
Ġsec ured
Ġen g
paren ts
br ady
Ġdi ure
ar p
sleep ing
/= .
Ġhyp other
l ad
c an
Ġco ord
Ġairway s
Ġat enolol
Ġhemith orax
-------- ----
on azole
ig uration
Ġcont usion
Ġt ues
Ġlacer ation
r il
in te
Ġexc ursion
Ġanter oseptal
od ies
le bs
Ġhyd ration
Ġcompl ication
Ġhyper kalemia
Ġpl aque
yl oric
Ġred uction
Ġasy mptomatic
Ġaller gy
or b
Ġchew able
Ġg largine
Ġred d
Ġsc ro
Ġaspir ate
Ġmin ute
Ġf ast
Ġgl ass
Ġbec ome
cat heter
Ġnew ly
ac id
Ġwk s
Ġmalign ant
im pro
Ġaf sf
Ġbr adys
eval u
Ġvis ible
Ġ14 00
Ġqu it
st ate
Ġhemat uria
Ġfl ank
Ġoropharyn x
Ġin contin
ole mic
ore tic
ol i
prov ider
Ġbru its
Ġm u
w elling
Ġnum erous
Ġspi ke
c ort
Ġ13 00
im posed
er ated
ĠĠĠĠĠĠĠĠĠĠĠĠĠĠĠĠĠĠĠĠĠĠĠĠĠĠĠĠĠĠĠĠ ĠĠĠĠĠĠĠ
x ious
Ġvalv ular
Ġs udden
Ġab lation
gi ene
Ġdys uria
day s
go al
Ġhypercarb ic
Ġc itrate
Ġcomp ress
Ġmening itis
us ive
Ġcal f
Ġp il
c ostal
Ġtech nical
re ot
oc l
Ġcb d
Ġbreath s
iat ric
Ġn bp
Ġwed ge
leafle ts
4 50
Ġincom ple
g lycerin
sh ow
Ġbronch us
t achy
Ġesp ecially
m ot
u ce
Ġm ight
Ġg out
Ġconf iguration
k er
Ġsusp ect
e lev
Ġhem is
Ġp itting
Ġgr and
Ġhy giene
Ġechocardi ogram
current ly
Ġep ile
it ness
Ġper itoneal
trans ferred
Ġaz ithromycin
il itation
Ġdys ynchron
he x
Ġsup r
c ough
Ġure a
ad s
Ġngt d
Ġdefic its
Ġre q
en ces
-- >
Ġadditional ly
Ġno on
with out
Ġno rep
it ate
Ġcol ostomy
ve olar
th al
Ġd ol
Ġh ap
Ġevac uation
ot ics
Ġgre w
p rior
Ġ15 4
d el
Ġb ronchi
Ġint ro
Ġsp ir
Ġbp s
ous ly
lo c
Ġpro f
is ol
Ġend oscopy
Ġsyn chron
Ġgl and
Ġr ates
Ġan te
Ġdis placed
am ent
Ġqu ite
Ġgadolin ium
Ġ3 60
Ġve a
Ġend s
paren ting
Ġanter olateral
cons ider
Ġmember s
Ġb romide
ul ations
Ġsph enoid
Ġabs ence
Ġb ands
Ġsusp ected
or iented
Ġ '
Ġver te
Ġs ips
chang es
h a
ain t
% )
pot assium
Ġsubse gmental
ob ronch
ĠĠĠĠĠĠĠĠĠĠĠĠĠĠĠĠĠĠĠĠĠĠĠĠĠĠĠĠĠĠĠĠ ĠĠĠĠĠĠĠĠĠ
g es
Ġth iamine
Ġb ac
Ġresp ect
Ġprom ote
Ġnorep inephrine
Ġvar i
Ġsuper imposed
Ġchol angitis
s x
Ġis ol
Ġab p
Ġd d
Ġt m
c ult
l nc
is ions
Ġj vd
Ġn et
ob ic
Ġp anc
Ġ22 00
Ġmv r
Ġcl av
Ġparticular ly
at ivan
vas ation
ro s
Ġsup rac
Ġf ine
Ġbuttock s
v es
b ott
Ġpres cribed
Ġran itidine
anc es
Ġinde terminate
i ella
Ġster oid
s ug
Ġa kinetic
Ġdiaph oretic
Ġcontr act
perf used
gn ancy
Ġdiverticul osis
Ġras hes
Ġaml odipine
tele metry
iat al
v ol
Ġind welling
Ġt rough
gluc ose
Ġ15 2
ane urysm
l um
hypot ension
Ġf iss
og n
con cer
Ġduod erm
11 1
Ġform er
Ġcar b
Ġs vt
Ġmusc les
Ġm ac
Ġgu arding
le g
diagn ostic
Ġechocardi ographic
ag ia
Ġl uc
Ġmanag ed
1 12
Ġup take
in ol
Ġco up
Ġrespon d
re cons
Ġorig inal
. "
Ġrec ur
ffe e
Ġech ogenic
Ġalk phos
Ġ17 5
Ġinfarct s
Ġat tr
ent in
Ġ ens
or us
Ġpre term
f usion
it ol
s ingle
Ġstent ing
13 8
control led
lebs iella
Ġn ail
Ġpar a
Ġbecom ing
Ġfunction al
Ġsu ic
Ġappro ach
am il
rep eat
Ġform ation
Ġpseud o
du cer
Ġs ound
Ġsleep y
Ġtele phone
Ġe at
Ġfre qu
Ġa ver
Ġchlor hex
Ġt sicu
low er
Ġcp r
he um
==== ====
Ġturn s
Ġpredomin antly
Ġredd ened
Ġover weight
f ocal
p red
Ġtry ing
Ġpoor ly
Ġvig orous
i as
Ġg ir
Ġm b
onat al
Ġfol ate
for min
r up
Ġnum bness
Ġure ter
Ġ15 8
Ġlip itor
Ġan at
Ġrequire ments
Ġembol i
en hanc
und er
gi as
Ġsy m
g g
Ġq tc
Ġa chi
Ġin let
Ġcyst ic
ro sis
Ġo ur
Ġextra vasation
Ġinflamm ation
as on
l ateral
id ement
inc ision
Ġmo ist
inf ection
respon ds
re port
m ain
ap ine
Ġdop a
Ġir ritable
thm oid
bet ween
Ġj ejun
cus sion
p ending
v en
aryn geal
Ġom eprazole
Ġdoppler able
w all
Ġdep artment
Ġantib x
Ġun successful
Ġconver s
Ġf i
Ġsub t
Ġde term
cl usion
Ġachi e
Ġto e
Ġcol ored
o un
Ġc ross
Ġpre liminary
Ġno xious
Ġpre op
ime th
Ġintervent ions
13 9
bran es
ush room
is ms
s im
io cephalic
Ġ2 100
Ġser o
Ġphys iologic
lab ored
Ġp uncture
Ġc yt
11 3
hemorrh age
Ġsuprac l
ibut ed
Ġpre operative
Ġp ills
Ġresult ing
Ġinhal er
Ġhal f
Ġletharg y
Ġund e
oli osis
Ġupd ates
Ġsp ot
Ġal ready
Ġlip ids
arr ing
compl icated
ib up
aph enous
Ġph ase
Ġoper ating
Ġinfant s
min uted
Ġventil ated
r ated
umed rol
Ġb x
Ġduoden al
ibup ro
Ġfos sa
Ġ15 1
Ġcand idate
Ġguide wire
Ġex change
infer ior
Ġb f
Ġalcoh olic
em esis
ect ive
Ġun less
Ġtransition ed
Ġseg ments
Ġol ig
p y
Ġlook s
Ġwithdraw s
Ġag ents
Ġl m
Ġarth ritis
Ġsymmet r
u ild
ic d
Ġun c
Ġpartic ipate
Ġair space
Ġdef iciency
Ġ ug
Ġdysynchron y
Ġpil low
d vt
contr ibut
f lex
ac hes
Ġcl us
v ital
13 5
Ġdes cription
Ġres umed
Ġinst ability
ur il
iz ations
pro g
Ġb ones
Ġventric ul
ell ent
Ġst re
Ġth urs
e y
Ġcom ing
st ent
Ġneurolog ical
ce re
Ġdecub itus
ibupro fen
Ġse al
Ġdesat ur
gg ish
Ġent ry
event ful
Ġnyst atin
bilirubin emia
Ġrun s
w k
Ġse at
ab ap
Ġrecor d
Ġe thmoid
Ġincis ional
Ġuro logy
Ġsp ecific
Ġfrequ ency
l v
Ġcalor ies
Ġm ushroom
Ġoste o
at osis
Ġdob ut
creas es
2 50
abap entin
sh ort
headed ness
it ory
r id
Ġarr hythm
er ve
Ġcall s
Ġwaveform s
11 4
Ġman u
att y
Ġco ffee
Ġx rt
ro b
Ġspect rum
stool ing
qu est
Ġfall s
Ġlab et
Ġsw ab
ss a
Ġprogress ed
Ġend o
Ġp oc
Ġcom minuted
Ġanastom osis
lo ck
Ġb ound
Ġclear ly
per icardial
Ġann ular
Ġbaby gram
Ġcorrespon ding
ar ily
Ġsusp ension
Ġin consistent
Ġpat ency
Ġper cent
Ġpost op
g er
Ġcolon ic
Ġn or
Ġb le
Ġ16 8
itness ed
Ġob serv
Ġfasc icular
ure r
Ġmanu fact
ameth asone
Ġo ph
yp h
Ġf aint
Ġnitro glycerin
ret ractions
p art
5 50
Ġval ue
Ġn ature
Ġh ives
ol len
Ġbe h
Ġpre c
Ġk lebsiella
r itor
Ġvalu es
Ġcar ing
Ġbott les
occ as
an x
Ġv ide
Ġs i
Ġmanufact urer
Ġh ab
Ġlig ament
itone um
Ġdevelop ing
re ction
Ġens ure
Ġmass ive
Ġdiffic ile
Ġv re
Ġsynchron ously
continu es
sc ale
i ate
Ġ16 5
Ġo intment
Ġbrach iocephalic
d p
ic les
Ġext r
Ġhyperd ynamic
Ġc ri
th romycin
Ġac ross
Ġpe el
Ġt ue
Ġfair ly
Ġhypod ense
a resis
Ġna res
Ġwid ening
Ġchlorhex idine
Ġh iatal
s oc
Ġhour ly
sug gest
Ġmin or
Ġ16 2
Ġre ferred
d one
Ġhct s
ens ives
Ġpe a
Ġlarg est
Ġep ig
Ġlob ectomy
Ġdrink ing
on ce
r isk
syst emic
ct reot
ul ent
gl ass
Ġsmok er
Ġn np
Ġs em
Ġh cv
Ġdebr idement
Ġexp ector
Ġreform ations
Ġposterior ly
uild ing
Ġd ro
Ġdiagnos es
iven ess
Ġgu ided
Ġum bilical
Ġf atty
Ġlo op
Ġdifferent iation
Ġfunction ing
c ipro
Ġca uses
Ġck d
need s
Ġsuck ing
Ġrecon structions
ts icu
Ġaccess ory
a e
re comm
po int
ctreot ide
Ġs ib
Ġret ention
13 7
Ġcomm ode
Ġsubst ant
av r
Ġtrac king
Ġbenef its
Ġdemonstr ating
Ġre tr
Ġw ay
contribut ory
Ġred uce
Ġplate let
Ġ04 00
i ative
it utional
an n
Ġproject s
Ġocc luded
cre te
Ġexc ellent
ip t
Ġter ritor
Ġoff ered
d uring
ins ulin
d y
ant ib
Ġsol umedrol
Ġhemis p
Ġinf ected
on al
ph agia
oc yst
ol y
Ġceft az
pe g
Ġlav age
Ġal veolar
b ypass
Ġsc arring
Ġne bul
u v
n es
Ġintoler ance
n itol
Ġt pa
Ġaug mentation
u it
iz es
Ġreg ions
Ġcop ing
Ġadvanc ing
Ġmem branes
hep arin
Ġfl air
k en
Ġdist ribution
Ġappoint ments
ou d
olog ically
Ġorthop nea
( [**
Ġvac cine
at ives
Ġprov ider
Ġx an
Ġevol ving
Ġbr ing
ten ance
Ġarr ang
Ġindic ate
Ġsw ollen
hypert ensives
pro x
tot al
Ġb odies
l ithiasis
Ġcool ing
Ġsupple mental
Ġseg mental
Ġpic ture
Ġdist ension
Ġc di
ic c
ld h
Ġper iventricular
Ġmin s
Ġmucos a
in tr
as ic
Ġmeas ured
Ġc s
ong ated
Ġr ise
Ġane urys
Ġs aphenous
Ġl cx
Ġmov ed
b re
Ġslu ggish
Ġr heum
Ġsm ear
Ġtrac er
Ġcomplain ing
Ġclear s
Ġover t
ise al
Ġc el
Ġchol angi
cp ap
appear ing
Ġcontribut ing
Ġg bs
Ġtransf usions
hem od
l arge
Ġgent amicin
re cent
Ġind ications
ile vel
Ġproject ing
Ġincreasing ly
oc ar
pl ate
h icle
ac y
Ġbi oprost
re veal
ech ocardi
Ġto ld
v r
Ġround ed
Ġhypov olemia
inf ar
phys is
Ġdeterm ine
r ide
Ġne os
Ġosteop hy
Ġl d
hy dr
Ġreass ess
11 8
stick s
if orm
Ġappend age
" ,
w he
an terior
Ġarteri ogram
Ġav f
Ġpre gnancy
Ġrespect ively
Ġman age
thick ened
ins ic
c ell
**] +)
Ġport ex
m ass
Ġlymph atic
Ġ2 25
Ġsym physis
Ġl l
Ġdi uril
Ġen c
Ġconst itutional
di abet
Ġheav y
Ġper ine
ung in
Ġth ink
et oh
Ġbenef it
Ġgran ul
Ġcomp rom
Ġrehab ilitation
Ġcoil ing
Ġobserv ation
Ġde x
. ]
Ġpath way
Ġch or
Ġind uced
Ġm ssa
Ġeff ac
min imal
Ġmetast ases
m t
Ġn urs
n ar
bed ding
re active
os ed
Ġclot hes
Ġel ongated
Ġple ur
Ġdobut amine
v itamin
w bc
o atrial
Ġme als
d b
Ġst airs
Ġur inal
Ġgrad ually
Ġmult ilevel
Ġint ensity
ct a
Ġ15 7
ip ated
Ġtrans amin
Ġclon idine
Ġtues day
Ġcm o
Ġnecro sis
Ġ2 30
Ġve hicle
Ġpheny toin
Ġrenal ly
Ġle ave
olar ization
Ġpre ced
Ġap ices
Ġman nitol
Ġunc ertain
Ġag re
surg ery
Ġ9 00
l ap
Ġss i
11 6
Ġshort ly
osp asm
Ġnephro stomy
med s
Ġtort uous
inf l
ocar cinoma
11 7
he rent
Ġ23 00
t ics
Ġfluor o
Ġsa id
Ġmv p
Ġno ds
Ġmain tenance
in ate
Ġpol yp
Ġpres um
Ġr if
Ġpsychiat ric
Ġbm t
arter y
Ġcort ical
Ġatyp ical
Ġc ns
co ag
Ġhyper cholesterolemia
imm un
Ġbar ium
t a
Ġrecur rence
ade qu
Ġd ual
Ġquestion able
Ġneuro pathy
Ġun comfortable
Ġlap ar
Ġtr i
t um
Ġheal ed
ococ cus
ure us
Ġun eventful
s bp
Ġps h
oun ced
Ġtrac k
Ġclear ing
Ġvide o
s uction
Ġcoil ed
Ġin structed
Ġl oud
Ġliv ing
is chem
Ġg pc
Ġpl us
Ġir rig
Ġad e
14 2
14 1
Ġflex iseal
Ġterritor ial
Ġstabil ized
Ġnon contrast
sp its
3 25
Ġoverload ed
Ġrel ative
Ġf olic
Ġcy cle
g ast
Ġreform ats
utic asone
Ġveget ations
ct ed
as ter
Ġwid ely
Ġne ur
Ġtransport s
Ġcb g
Ġaut o
Ġref using
Ġresist ant
Ġmet formin
Ġdest ination
Ġwat ch
Ġo ctreotide
Ġaer ated
Ġspi ked
Ġunderst and
Ġr in
Ġaver age
s we
Ġtear s
Ġpuff s
Ġsomnol ent
ap sed
at io
Ġgall ops
Ġmv a
ans oprazole
Ġconf lu
Ġsu cc
Ġrup ture
ple ural
Ġr ather
Ġforam en
Ġfiss ure
Ġhyper bilirubinemia
Ġwant s
Ġob li
Ġcoup le
Ġchole lithiasis
dil ated
pac ed
il ol
Ġvascular ity
Ġh il
Ġcav oatrial
den ies
den se
f oley
Ġapparent ly
i h
Ġ16 7
co ord
Ġmark ings
Ġrig id
Ġcl ar
Ġsuspic ion
as ed
13 6
Ġcode ine
14 3
Ġtoile ting
Ġlabet olol
Ġos m
/ +
Ġpack ed
Ġal most
st age
af of
Ġfix ation
Ġencour agement
p ink
f io
as yn
Ġsit uation
up date
ig en
Ġsur ve
Ġs ar
Ġdiures ing
/ .
Ġexp iratory
Ġn h
t od
Ġpar ox
ved ilol
tr y
d ge
Ġsulf a
Ġsol n
+ .
Ġpac u
Ġap g
Ġw ide
Ġgang l
n np
Ġsur face
ro phic
Ġmelan oma
Ġr ing
Ġgeneral ly
Ġsh arp
Ġs z
Ġstric ture
Ġo d
Ġ. .
ion ed
Ġver sion
Ġd ka
Ġaccording ly
Ġfl ap
Ġ16 3
Ġcistern s
Ġrin se
Ġc red
aper itoneal
Ġdeform ity
Ġte ens
pul ses
Ġcongest ed
Ġsc oliosis
Ġade q
tod ay
ro ph
l ives
Ġcardiover sion
ren ces
Ġsurg eon
que ez
ch ol
Ġex changed
Ġvent ral
et ron
con ds
ex c
th an
Ġbl ister
pl ast
Ġcomb ivent
s r
hyper thermia
Ġattr ibuted
Ġang ina
Ġ( <
Ġgallst ones
Ġres on
am i
Ġcardi oth
Ġhyper int
k y
Ġbr ight
impro ved
Ġmetast asis
de creased
Ġcont aining
Ġaspir ated
Ġdrink s
Ġat rophy
Ġst em
Ġ15 9
Ġx s
Ġb ms
vis ions
Ġapp rop
Ġdys phagia
Ġhealth y
Ġrestric tion
m ore
Ġh f
Ġdem ographics
follow ing
Ġim port
ococ cal
Ġfor ward
Ġpath ologic
Ġsom et
need ed
b hoff
et ies
Ġorgan omegaly
ster nal
Ġempir ically
Ġe cc
Ġansw er
Ġcel iac
od ine
Ġc ash
Ġg abapentin
Ġantib ody
Ġocc urred
Ġev d
Ġsubt le
Ġ( ~
Ġover dose
Ġinf o
Ġthorac otomy
Ġfore arm
Ġbe at
Ġrespir ations
Ġth ru
Ġnod ding
Ġsib ling
li quid
b o
cef epime
diff ic
Ġin put
11 9
Ġpal ate
dep ression
att empt
Ġl ansoprazole
ĠĠĠĠĠĠĠĠĠĠĠĠĠĠĠĠ ĠĠĠĠĠĠĠ
Ġlift ing
Ġeng or
op ath
Ġpron ounced
hib itor
ut ely
t raum
un it
c ir
m ch
Ġun ilat
show ed
Ġneed ing
Ġd ip
as ia
Ġt ree
Ġcorrel ate
az e
aspir ation
Ġcred it
p arent
t izing
: /
Ġ06 00
Ġnarc otics
Ġp in
sulf onam
Ġd ial
op ur
Ġ# [**
Ġde hydration
bleed ing
Ġexperi ence
Ġp ark
Ġd ni
mild ly
Ġchole st
Ġsupracl avicular
Ġcomplain ed
Ġwash out
Ġut erus
Ġdob bhoff
Ġsign ature
Ġeffac ement
ad ow
Ġgen ital
s ome
Ġpall iative
Ġprox y
ans etron
Ġa ureus
Ġhyper thermia
Ġfs bs
Ġdefic it
Ġfe cal
Ġcorrect ed
Ġbioprost hetic
Ġj o
Ġnebul iz
08 3
ion ella
Ġm vi
Ġcon ve
re actions
sl ight
pos itive
Ġstric t
Ġout l
Ġn itr
Ġpro per
bas ed
Ġdis k
Ġu cx
Ġswit ch
Ġst oma
Ġpseudo aneurysm
il ation
Ġnip ple
Ġemb olus
def ined
Ġh uo
Ġagain st
ob acter
Ġj ew
Ġ17 3
Ġbrady cardic
Ġcharacter ize
ob structive
Ġfl att
s ize
Ġbif ur
Ġre place
neuro log
Ġslu dge
Ġ17 8
s ol
dim er
co un
mult iple
Ġcardi o
Ġinj ected
Ġhelp ful
Ġtr ied
occas ional
l a
Ġst asis
Ġed u
h ow
Ġdefect s
Ġjew el
rop ine
Ġh op
Ġcol i
y ne
Ġtal k
Ġsu ff
Ġt ired
ob arb
Ġne ural
vis ion
Ġonc ology
Ġcon cent
Ġ16 1
Ġen ough
Ġq am
ys mal
Ġr atio
re visions
al gias
Ġjewel ry
Ġinf er
ĠĠĠĠĠĠĠĠĠĠĠĠĠĠĠĠĠĠĠĠĠĠĠĠĠĠĠĠĠĠĠĠ ĠĠĠĠĠĠĠĠĠĠĠĠĠĠĠĠ
Ġinte g
Ġwork ed
Ġgentle man
Ġt ail
Ġextrem eties
Ġlight headedness
h c
Ġdiure tics
Ġhypod ensities
Ġdi ag
Ġtop ical
le uk
opur inol
cl ine
Ġt ach
Ġs queez
af ebrile
adequ ate
int act
ul ous
ay ed
ill a
Ġthurs day
Ġfib rosis
Ġhyper dense
in jection
Ġgangl ia
Ġsit ter
m ov
ifact orial
Ġlim it
nes day
mal ign
Ġl ing
Ġneurolog ically
Ġnip ride
Ġ rol
Ġimm aturity
Ġsplen omegaly
Ġse lect
toler ated
dep artment
Ġposition al
st em
14 5
h pi
Ġveloc ities
ce ft
vir on
Ġtf s
Ġappreci able
is hes
Ġsensit ivities
o o
hypert rophy
Ġnic ard
dis po
Ġsay s
Ġtime out
Ġreveal s
Ġcommunic ating
vital s
in r
Ġa ro
di ures
elev ated
Ġcv icu
Ġpath ologically
Ġcoc aine
evalu ate
Ġv ats
our inary
it ourinary
abnormal ities
c um
Ġn if
lo id
pac ifier
Ġdr ng
Ġse par
Ġgro up
Ġped iatric
Ġaw ay
Ġbo ard
Ġp f
se iz
arth ritis
Ġbol used
Ġ= >
h d
Ġt b
an ter
Ġn erve
Ġtot bili
Ġtest ing
Ġ3 20
Ġet i
is ome
Ġlab ored
Ġclin d
Ġexp ressed
Ġm akes
Ġcont ains
li ke
Ġdepression s
up right
Ġleft ward
Ġserosang u
med ical
Ġin ner
re ad
Ġc n
Ġwork er
f urther
Ġmu cus
b ro
Ġinconsistent ly
last ic
bb b
Ġra ising
Ġcol d
Ġnt nd
angu age
f uo
Ġdic tation
Ġf ro
adr yl
et t
Ġli q
in crease
Ġmyel oma
Ġan swe
Ġpar al
ar ian
art an
Ġhe ar
Ġ16 6
cons olid
Ġhemat emesis
Ġaw ak
s ob
Ġf und
Ġ ionized
Ġdro op
Ġplast ics
Ġcor ne
Ġus ually
opr im
Ġclind amycin
Ġcoc ci
Ġp ounds
c utaneous
Ġsat ting
co umadin
r adi
Ġfall ing
are nal
Ġanswe red
Ġatt ack
Ġpark ing
Ġr pr
imeth oprim
anx iety
yp rex
Ġc ut
Ġc ogn
lum en
psy ch
Ġon d
Ġfour th
Ġobli que
13 4
Ġleg ionella
on s
gr ad
Ġneutrop enia
b ronch
cons ult
Ġcle ans
Ġ16 4
Ġwithdraw n
omin ant
o resis
Ġ08 00
Ġ(- )
Ġtreat ments
Ġinit iation
Ġamb ulation
Ġim v
12 8
st re
Ġasymmet ric
col l
yprex a
an sion
Ġcar vedilol
Ġbicarb onate
Ġfri end
Ġsp ray
Ġbur st
Ġcircum fe
os in
fl at
re hab
id ol
Ġleuk emia
Ġivf s
lim a
act uation
on ol
Ġpatient s
Ġ ips
Ġhip s
gu ided
Ġrefer ral
Ġexp ansion
mor ph
Ġintr aperitoneal
Ġfing ers
Ġjo ints
antib iot
Ġepile ptic
Ġinfection s
st enosis
z e
end oc
Ġw wp
re ason
lo y
Ġmy algias
Ġqs r
Ġout pt
av ailable
Ġinfiltr ation
Ġy rs
Ġexperien ced
Ġl bs
Ġnecro tizing
s iveness
Ġe le
Ġnicard ipine
Ġtr az
Ġcy cl
Ġevol ution
Ġond ansetron
Ġ17 6
c q
Ġacc om
Ġpt a
ug ger
ocy tes
Ġab ility
it ud
Ġmult ifactorial
t reat
Ġi odine
ent er
st roke
Ġcardioth oracic
t op
Ġre intubated
Ġen viron
Ġus es
Ġuro sepsis
Ġrib s
Ġfl are
Ġe ld
d iast
Ġweek end
Ġ4 80
t p
Ġchang ing
Ġgenital ia
c ode
ar act
Ġtrend ed
g ement
Ġb reat
t ob
Ġro tation
Ġshow er
ben ign
Ġtest es
12 2
Ġbl unting
Ġery thromycin
quest ions
dis ease
Ġg e
Ġindependent ly
Ġs cl
Ġac utely
qu el
Ġd in
am ox
Ġmouth ing
Ġfl uticasone
Ġfac et
Ġcol lect
Ġedu cation
Ġcommunic ate
p icc
inte g
od rine
Ġcon clusion
a way
Ġf in
pre liminary
Ġindic ating
19 0
Ġun complicated
po or
initial ly
aspir in
Ġ[ ]
te in
g ag
Ġeti ologies
f ent
od i
Ġbru it
e cg
Ġgen itourinary
Ġmedical ly
Ġun labored
ev idence
Ġf a
Ġx l
Ġmor bid
Ġplac ment
Ġoutl ined
/= ,
ma e
y ond
ac ity
Ġw est
Ġcomp ens
Ġmult id
e kg
ac l
wor k
Ġlead ing
Ġsensit ivity
ital opram
at ures
Ġsh adow
Ġhem olysis
7 00
Ġp d
Ġrel ieved
Ġnc at
im aging
act ing
Ġ ibuprofen
short ness
Ġp ci
Ġreor ient
Ġtrache obronch
Ġs ure
Ġelect ive
Ġt abs
Ġ11 00
diast olic
Ġdr iving
Ġbronch itis
Ġbr id
onol actone
b t
Ġ2 15
Ġlook ing
Ġkeep ing
Ġepileptic us
un able
tre nd
p alp
Ġcommun icated
or cine
Ġsatur ations
v ar
Ġf illed
ir ation
Ġdec isions
arg et
Ġcardi ologist
j ejun
c hes
Ġflus hes
an emia
os a
Ġq day
Ġcephal ic
Ġpr im
com a
Ġmax imum
l n
ell ed
Ġdec ad
Ġnecro tic
Ġan uric
Ġm ust
Ġinter costal
Ġvag inal
te am
Ġfl or
Ġcoll apsed
um inal
id al
Ġmot t
prob able
Ġeld er
Ġlab or
Ġbru ising
Ġav l
v asc
appear s
Ġinsp iratory
c illin
Ġn af
12 4
how ever
Ġ2 18
Ġbe yond
le b
hypert ensive
cap sule
Ġoph thal
Ġgast ritis
Ġth al
res ult
Ġw itnessed
vol ume
op id
Ġsus cept
l iver
our ces
c av
u x
per cussion
met oprolol
thromb us
Ġss ri
Ġk yph
Ġwal king
ri end
Ġtr ig
Ġimprov es
j ected
Ġcompress ibility
Ġde ath
ime ter
Ġrem ote
Ġsecret ion
up per
Ġlim iting
13 2
Ġincomple tely
om et
13 3
Ġpol ys
Ġco herent
consolid ation
12 3
l utter
with in
Ġinte rest
Ġf etal
Ġin hibitor
Ġs ized
Ġ17 7
Ġw ishes
Ġex cess
12 6
Ġpc wp
Ġcs ru
ill ance
Ġangi oplasty
Ġ16 9
Ġwh ole
Ġbifur cation
Ġambul atory
Ġdecad ron
infar ction
diffic ult
Ġbacter ia
Ġ18 1
f ree
per son
n po
Ġt ac
da ughter
d ry
Ġch ips
Ġof ten
Ġp unct
og lob
comp any
Ġv ert
Ġhab itus
Ġlab oratory
Ġde ple
Ġst ability
feed ings
Ġwr ap
Ġdis pl
it ant
Ġm ach
am us
ren atal
dis cus
Ġdiffe rences
Ġexc or
Ġmeasure ments
amp us
Ġvis its
vanc omycin
Ġne onatal
Ġpro ceed
gen ital
x ii
s ounds
Ġre vision
Ġd on
ot ensive
p ur
a er
Ġin creases
min s
Ġrestric t
Ġtrem ors
Ġhypother mia
/ <
o e
Ġinterpre ted
Ġfor med
Ġs ick
Ġdo e
mitt ed
or gan
ast ing
Ġant igen
Ġspi kes
Ġhydro cort
p yloric
Ġdis continue
Ġepig astric
Ġapg ars
act ed
da e
Ġr ds
Ġpan el
id ime
Ġvoid ed
ch air
Ġ2 60
ul us
Ġarrhythm ia
Ġh or
Ġsaf e
f ather
ft s
os te
ral uminal
Ġn co
coun try
Ġadmission s
l at
h aps
- <
Ġd tr
ag a
Ġben adryl
Ġxan th
Ġover breathing
Ġso re
Ġsc ope
yst al
malign ant
Ġs el
Ġansw ering
Ġcran ial
Ġ/// /
Ġl amine
opram ide
al tered
Ġre ach
Ġelder ly
Ġwe ep
l isinopril
p ca
Ġinhal ers
up d
ap t
wh ile
Ġrequest ing
Ġf t
Ġu vc
Ġbeg un
Ġambul ating
og rel
ab l
res hold
Ġhem othorax
Ġmedic ate
k cal
Ġz yprexa
Ġforam inal
Ġcoll ateral
Ġpro mpt
opid ogrel
Ġover l
dis placed
ist axis
Ġmic rop
v g
Ġst rep
th y
w here
ĠĠĠĠĠĠĠĠĠĠĠĠĠĠĠĠĠĠĠĠĠĠĠĠĠĠĠĠĠĠĠĠĠĠĠĠĠĠĠĠĠĠĠĠĠĠĠĠĠĠĠĠĠĠĠĠĠĠĠĠĠĠĠĠ ĠĠĠĠĠĠ
l act
Ġm amm
Ġpseud ocyst
Ġbul b
week s
Ġsup ps
Ġc ert
Ġl n
ĠĠĠĠĠĠĠĠĠĠĠĠĠĠĠĠ ĠĠĠĠĠĠĠĠ
Ġ17 2
Ġap has
Ġm is
a id
Ġdd x
al though
Ġ3 40
Ġb um
Ġmicrop uncture
Ġoropharyn geal
Ġhosp ice
Ġm ig
di ameter
gast ro
Ġcarb onate
en c
ib i
. :
Ġfr ank
ang ar
Ġhemisp here
Ġad vised
Ġsut ure
Ġurg ent
k il
Ġopt imal
Ġt end
Ġcomprom ise
Ġkcal s
Ġse conds
Ġep icardial
Ġenviron ment
Ġsu ite
st ipation
Ġdr ive
ocl opramide
Ġcr f
Ġluc ency
Ġb np
f ail
Ġanti hypertensives
Ġn erv
Ġb ph
Ġsec ure
int ro
Ġmic onazole
Ġmarg in
Ġde terior
ag us
on ed
3 50
hypo kinesis
Ġtoxic ity
Ġm and
ver n
Ġhum erus
or osis
Ġbeh avi
bilateral ly
Ġscler osis
Ġrif ax
Ġle aking
Ġsat ing
13 1
Ġsomnol ence
eat s
hypo x
Ġrel ax
do ing
Ġ05 00
r ipt
Ġpac s
rem ained
Ġoriginal ly
Ġall opurinol
Ġsub acute
Ġprov iding
Ġmid odrine
Ġam pl
ser ies
Ġconst ant
on chi
Ġg d
Ġ17 4
Ġpersistent ly
Ġth reshold
opath ic
Ġa kinesis
Ġhaz y
Ġme c
Ġsomet imes
Ġdecl ined
Ġtransamin itis
rit ory
1 21
ress ively
Ġwa iting
Ġwant ed
Ġsc alp
ster num
Ġat ropine
Ġdr g
g ic
Ġca used
Ġg iving
Ġper ip
g all
Ġacet ab
onstr ated
0 35
Ġret ired
ed icated
Ġsc ar
ve get
Ġnorm otensive
inv ol
- .
Ġwed nesday
as a
os up
em b
Ġy est
Ġdaughter s
Ġexpl ain
Ġnot ify
Ġadequ ately
Ġphosph orus
ĠĠĠĠĠĠĠĠĠĠĠĠĠĠĠĠ ĠĠĠĠĠĠĠĠĠĠ
Ġcomp artment
Ġ500 0
diabet es
Ġred ist
Ġsupple ment
cr an
Ġst en
con f
Ġv p
Ġeffect ive
12 9
Ġrestart ing
Ġgrim acing
Ġsh ut
Ġtib ia
Ġro tated
inf or
Ġneph rectomy
Ġc ard
Ġobsc ured
Ġb it
Ġpur ulent
at rovent
Ġpeak ed
rr r
Ġelev ations
Ġpo ints
eval uation
s al
Ġnot iced
sed ated
rest imated
ro h
Ġconve x
Ġto ward
Ġsurve illance
angar oo
Ġorgan isms
f ast
Ġsc ans
oper idol
Ġslow er
Ġpass es
Ġhc fa
Ġagre ed
al cine
Ġtf i
Ġov arian
Ġinv ested
Ġcert ify
Ġne ct
Ġgr unting
Ġdex amethasone
Ġcat aract
Ġep istaxis
elect ro
Ġtransient ly
Ġ18 8
resol ved
my ocardial
ap po
Ġatelect atic
cour se
ar ms
Ġi h
Ġ |
Ġscre ws
b uilding
Ġh ugger
Ġparox ysmal
Ġph arm
breath er
Ġstruct ure
Ġabras ion
Ġincontin ence
Ġdo x
Ġstat ing
struct ing
ist hesis
not e
Ġ2 17
Ġaccom pan
Ġ' [**
e al
Ġapprox imated
Ġflatt ening
Ġintra abdominal
Ġp ick
he l
Ġan ap
Ġneutrop enic
d id
Ġton s
Ġnaf cillin
Ġspec imen
Ġor ient
Ġls c
- **]
appo intment
Ġt act
Ġ2 10
ver bal
Ġs qu
Ġinc entive
ic it
Ġsign ific
Ġ17 1
cyst ic
Ġrep olarization
Ġs ust
extub ated
Ġro d
ron tal
u ed
Ġw asting
Ġambul ate
Ġug ib
Ġab cess
Ġ28 0
lev of
Ġste ady
car otid
Ġchor dae
ic ate
Ġcharacter ized
b le
Ġcommun ity
sp ells
Ġget s
rent ial
Ġradiograph ic
Ġdrip s
Ġscro tum
un k
Ġh app
Ġdev ices
Ġting ling
Ġt arget
Ġep inephrine
Ġdecl ine
Ġbound aries
Ġsystem ic
Ġarth ro
Ġlik es
Ġdest r
Ġ3 80
Ġmar ried
Ġgallst one
other wise
Ġgestation al
Ġtransport ed
Ġredist ribution
b n
h us
w ound
Ġvom ited
Ġ02 00
im in
Ġc rep
12 7
s ig
z ia
Ġhim self
Ġob t
Ġa id
ok ing
hemod ynam
ont in
Ġl anguage
Ġstr id
ra ight
Ġmeth yl
eff ective
Ġequal ly
exp ired
Ġseem ed
ace re
Ġother s
go als
Ġincident al
Ġf ax
Ġcon ne
Ġ2 28
Ġhum id
Ġp airs
b order
Ġse cre
Ġp us
Ġaer obic
Ġs und
Ġcl a
Ġengor gement
Ġachie ved
u ating
Ġdr sg
er ation
Ġter ritory
Ġclav icle
osp or
Ġro ds
Ġsplen ectomy
oc he
e b
Ġbr ace
Ġw ax
Ġdecomp ression
Ġsk ills
m ay
Ġinter atrial
vh d
is is
Ġserosangu inous
alb uterol
Ġq t
oche zia
Ġsero quel
Ġ2 13
et ine
Ġpre par
Ġsuscept ibility
h x
Ġper haps
Ġsch iz
Ġsolid s
Ġl ost
th roid
Ġam put
om ic
Ġintervent ional
Ġca vern
ste ad
6 50
f rench
Ġvas ospasm
yp e
m el
Ġhypercarb ia
g ra
Ġflex ion
Ġacc ur
pn ic
tre onam
app ing
Ġ29 0
ne o
c ampus
Ġorder ing
Ġweek ly
acere bral
traum a
tr imethoprim
Ġinterpre ter
ou ch
Ġhepat o
Ġbrisk ly
ch amber
Ġemb olic
Ġhypox emic
Ġtitr ating
Ġform ula
vanc o
Ġnitr ite
Ġaw oke
c d
Ġ18 3
Ġf al
b ur
im ation
Ġ18 5
Ġdis placement
Ġle ar
Ġ4 30
ron ically
Ġsp aces
ant ac
14 4
trans f
Ġh l
ose c
Ġs ources
Ġtal king
n ip
is olette
Ġexamination s
Ġc roh
antibiot ics
Ġem py
Ġact ively
Ġinver sions
Ġ iph
il osec
Ġal arm
220 2
Ġpiv s
Ġg ar
Ġuro bil
r bc
Ġadvanc ement
Ġ2 24
Ġther ap
Ġd ominant
Ġro t
Ġd f
mcg s
tre ated
ic ine
Ġprolong ation
Ġpneumo cephalus
iaz epam
Ġcap acity
Ġdecompens ation
stre et
Ġreg ime
Ġcoron aries
se ver
Ġv ic
Ġpresum ably
Ġresol ve
Ġ2 26
Ġsignific ance
Ġth orax
Ġunderst anding
Ġsup pos
g ia
iaz ide
k da
Ġc ec
Ġb ig
Ġinf low
Ġac s
brady cardia
Ġh i
ie ve
Ġ0 0
sw allow
Ġl ock
cav ity
Ġp ure
Ġst raight
Ġfore ign
Ġin effective
rest art
Ġventricul ostomy
Ġanat omy
Ġex pos
Ġconsult ation
Ġp ear
Ġre vers
ph ritis
ul oplasty
tachy cardia
Ġvir us
age ctomy
border line
Ġd amp
ag g
Ġnarc otic
en cour
sw addled
Ġpre vertebral
Ġ2 11
ument ary
Ġsh allow
hyper lipidemia
Ġorthop ed
Ġparen t
Ġderm atitis
Ġs ma
Ġgain ing
Ġap pt
Ġ0 100
Ġem pt
er ies
Ġlateral ly
Ġconsider ation
Ġure ters
Ġlamine ctomy
Ġw hy
Ġre infor
kin son
Ġpro jection
Ġreson ant
Ġdin ner
Ġre versed
Ġas k
Ġse ated
ud dy
con gest
Ġtor adol
Ġct s
and ed
pn a
be en
Ġappro ved
Ġ2 27
y r
ut i
st ones
Ġbreast feeding
Ġqu ant
Ġstre ak
Ġpneum onitis
cre atic
Ġdeform ities
Ġspir onolactone
Ġop posed
h co
Ġimp air
Ġempy ema
ost asis
Ġcp k
ul ate
.) (
Ġun asyn
Ġheel s
Ġgar age
Ġpall or
upd ated
Ġneos yne
Ġ2 29
Ġdep end
sup ine
Ġwall s
Ġcl im
ring e
dr ain
fem oral
Ġc ast
bre ast
Ġm t
r illation
Ġflor a
Ġprob e
Ġlift s
th en
Ġint ox
ap prox
p rol
Ġno thing
Ġgen erated
Ġtrial s
Ġf inished
st op
Ġan us
are a
ep ro
pos terior
st anding
Ġref r
) /
Ġl og
Ġd ull
Ġper ic
fl utter
am ous
Ġg cs
main tain
Ġd l
Ġexp ect
Ġh om
Ġpre lim
Ġjunction al
ar ietal
Ġfl ash
Ġlevof lox
Ġd ts
Ġ17 9
Ġmet oclopramide
Ġment ioned
Ġfer rous
Ġsequ ences
Ġextrem e
Ġp pm
all ic
develop ment
Ġtreat ing
Ġper it
Ġsp an
one phritis
oper itoneum
Ġbl ur
Ġ4 20
ther apeutic
Ġg old
Ġt tp
through out
am ed
Ġdr s
Ġwal k
Ġcirc ulation
con cent
ect asis
ent ric
ail s
Ġin tern
Ġe uv
ad dition
ination s
per iph
i oma
im us
ice al
00 6
ns g
Ġk ef
Ġ18 4
Ġbl ue
Ġauscult ated
act ory
Ġ19 3
Ġconflu ent
Ġst iff
f ocus
m atous
Ġout flow
Ġload ed
Ġ27 0
Ġ2 23
Ġdis crete
ock et
Ġenter ococcus
rid ium
s vg
al ignment
ud ate
Ġeffect s
Ġsens ory
Ġar g
vent il
Ġvari ant
seiz ure
# #
Ġin gest
Ġster num
Ġpp d
m ri
Ġhct z
trans ition
Ġr l
Ġ2 16
bi en
fent anyl
Ġmin imize
Ġut il
ath oracic
v essel
Ġpro jected
cv icu
Ġ ;
Ġk ay
Ġult imately
att enuation
Ġfinger sticks
g av
re quent
ns r
Ġpad s
rob an
Ġesoph agectomy
ĠĠĠĠĠĠĠĠĠĠĠĠĠĠĠĠĠĠĠĠĠĠĠĠĠĠĠĠĠĠĠĠ ĠĠĠĠĠĠĠĠĠĠĠĠĠĠĠĠĠ
he resis
su ck
occ ipital
Ġsymptom atic
Ġdent ition
Ġm ds
Ġoccas sion
Ġket one
ate lect
ste rectomy
gl ish
Ġante grade
fact ant
creat inine
ull ary
or dered
ter al
Ġf old
Ġco bedding
Ġre admitted
ac quired
hal ation
Ġre do
Ġdoes n
Ġright ward
cy t
Ġbip olar
Ġn im
Ġmin imum
ather apeutic
Ġ2 22
Ġ8 50
Ġduct s
ap arin
Ġcrep itus
Ġt a
Ġcl opidogrel
Ġfrag ment
Ġcavern ous
Ġhyper bili
Ġt am
pm i
Ġspecif ically
u ated
Ġhepat ology
na usea
Ġorb ital
Ġrig ors
om atous
Ġsv r
inf iltr
% ),
it in
Ġstr uck
Ġhs v
Ġrestr ained
un changed
Ġinferior ly
et ir
oglob in
v ular
Ġ ]
p od
Ġse ven
Ġc ca
acet am
m n
slight ly
y g
n ically
Ġe rect
cc s
Ġlapar otomy
Ġscre ens
o in
Ġbo y
Ġlarg ely
Ġad verse
Ġr p
Ġmet allic
Ġin stead
Ġsubstant ial
Ġisol ated
Ġnail bed
Ġbreat he
b ra
ĠĠĠĠĠĠĠĠĠĠĠĠĠĠĠĠĠĠĠĠĠĠĠĠĠĠĠĠ ĠĠĠ
Ġdys lipidemia
Ġfund us
sy mptom
Ġdistal ly
Ġic teric
man ent
Ġma ew
intro ducer
ly mph
Ġcatheter s
Ġdef ib
Ġax illa
se quent
mic ro
Ġp ocket
Ġphys iology
Ġstrid or
diff use
or r
Ġmm v
ter us
Ġd y
Ġed ge
Ġhemat omas
Ġnect ar
do es
ac ath
Ġim plant
Ġlim a
Ġr im
Ġwork s
led ge
Ġpack ing
f ed
Ġd ynamic
Ġpre renal
g re
ga uge
Ġhal operidol
reg ional
Ġv ocal
Ġphen obarb
Ġat c
Ġreor iented
Ġprec ip
Ġshadow ing
Ġmach ine
Ġdiaph oresis
Ġ38 3
Ġcontinuous ly
Ġgastro esophageal
Ġvs d
er ine
Ġ37 5
omed iastinum
Ġcla im
Ġhead aches
c ing
il ia
jejun ostomy
iv ers
echocardi ographic
s ized
Ġ ionic
h ance
Ġsuppos itory
oth iazide
l g
acid osis
Ġnurs ery
Ġtr unk
Ġes ld
Ġr is
Ġret ic
us ky
Ġace i
Ġr us
Ġor ientation
tw o
Ġre tained
Ġsuperv ising
ond yl
Ġplug ging
inter mittent
Ġg el
etir acetam
Ġcv s
sa h
r isome
result s
Ġiv h
Ġk angaroo
t ylenol
oxy codone
Ġaden ocarcinoma
Ġabras ions
uc lear
Ġperi hepatic
Ġtransfer s
Ġped i
Ġresusc itate
Ġun us
Ġd edicated
Ġm dis
w ife
Ġan oxic
epro tein
Ġhaz iness
enhanc ed
Ġpro tr
apt omycin
per s
Ġcomp ressive
Ġp renatal
Ġrestric ted
Ġct x
an ing
Ġcont usions
Ġalk aline
atelect asis
Ġgr ay
yt openia
Ġchem ist
re vised
struct urally
ne x
Ġgent ly
Ġconvers ation
levof loxacin
Ġconsider ing
pl ans
Ġflu ct
cardi ovascular
Ġrespir ation
Ġcont ain
Ġcx s
Ġneosyne phrine
Ġp it
l ines
Ġd iazepam
Ġde fer
Ġsinus itis
coll ar
way s
Ġtop rol
Ġsw eats
Ġsac rum
Ġh ung
Ġa ha
Ġm ir
Ġex isting
Ġs uct
Ġv bg
Ġatt ached
ke ep
mot ion
Ġ4 40
Ġjejun um
ĠĠĠĠĠĠĠĠĠĠĠĠĠĠĠĠ ĠĠĠĠĠĠ
wean ed
Ġom r
Ġecchym osis
at ars
ogram s
ig m
Ġreg ulations
rem ov
p rem
Ġic terus
Ġaneurys mal
Ġcl r
Ġinteg umentary
Ġimmun osup
Ġinver sion
iv al
Ġsbp s
Ġcont ext
Ġinterval s
Ġintr athoracic
il s
Ġtact ile
Ġsh own
Ġ09 00
ct ic
Ġmot rin
Ġreturn s
Ġ3 30
d actone
Ġclos er
sed ation
24 0
em er
Ġe ight
Ġtrend s
Ġantic ipate
Ġdos ed
t ol
re breather
ap amil
Ġv oids
ous tic
e u
p ass
Ġsup ra
Ġansw ers
Ġsq h
Ġga u
Ġlight ly
suction ed
a ids
Ġb air
Ġsy s
Ġhem angi
inf ectious
Ġfinal ly
sp utum
Ġra ised
Ġw oke
Ġav m
Ġ6 20
8 00
ep is
Ġagg ressively
Ġpl ct
Ġn aps
d ur
Ġd ensities
d uced
f ound
z ol
cv r
Ġplast ic
Ġosteop orosis
Ġf aster
sub jective
Ġpneum ococcal
Ġpediatric ian
Ġcal s
Ġgray scale
f ar
and om
Ġp yl
symptom s
Ġpot entially
Ġhydrocort isone
Ġc italopram
Ġsur factant
Ġwor risome
Ġaz treonam
Ġprog ram
Ġop ened
Ġtachy pnic
Ġsequ el
Ġm ood
tr ach
Ġmid az
Ġopt ions
Ġen glish
est imated
Ġaphas ia
Ġsupport ed
Ġle t
Ġ4 35
Ġsund ay
Ġhospital ized
Ġgl ide
Ġ18 2
Ġsuggest ion
Ġprim arily
Ġp cv
Ġimport ant
Ġpsychiat ry
bs ag
inct er
ire ct
Ġsc ars
Ġz antac
Ġprod uction
Ġurg ency
Ġdeple tion
Ġrefr actory
Ġintra vascular
Ġassessment s
Ġfluor oscopy
periph eral
m olol
Ġg vhd
Ġsu ccess
Ġexpl oratory
Ġb ka
Ġb w
lo ops
sp e
Ġco re
Ġopac ified
Ġnormal ized
Ġper manent
ex isting
j o
Ġprof ound
hemat oma
Ġkay ex
Ġsh aking
Ġaltern ating
ag on
Ġsqu amous
Ġcour ses
al coh
b oth
et ector
ost ridium
uod en
Ġh b
Ġclus ters
i ant
cl usive
Ġsuic ide
Ġcogn ition
Ġsc r
m ar
w arm
un ch
Ġ3 27
Ġhy sterectomy
Ġmultid etector
Ġj et
Ġ24 00
**]) ;
Ġweep ing
Ġinf r
Ġpar ad
Ġmal alignment
Ġmening ioma
aw a
cret ions
sp ec
Ġrel ate
Ġcheck ing
as ma
Ġcoord ination
l ight
Ġexpos ure
Ġtrem or
ad ine
Ġfrag ments
cr rt
Ġc es
hyd ro
Ġpar kinson
recomm ended
0 18
Ġd z
f lo
Ġmal nutrition
Ġscl eral
Ġgau ze
cor rel
ful ly
iel ds
Ġhe ated
Ġrapid ly
rol imus
w ors
Ġinf orm
Ġhem ip
tr ache
plast y
iv f
Ġgir l
am adol
concent rate
Ġvisual ization
Ġsymmetr ically
Ġcover ing
Ġbreak fast
Ġsupr atherapeutic
m cq
en y
Ġdiameter s
Ġangi ographic
he t
mor phic
p op
ort ical
Ġ25 5
Ġer os
14 6
Ġre actions
Ġu ac
om ies
Ġpneum atosis
Ġgas es
Ġinfer oseptal
lab oratory
Ġknow ledge
Ġfe atures
Ġco unts
comp arison
Ġb ump
Ġra ise
Ġ19 5
Ġentire ly
Ġe ast
Ġcomplain s
Ġcl d
Ġtw it
Ġ? ?
Ġl ies
Ġop i
aspir ates
or i
Ġd aptomycin
Ġla a
luc inations
p da
he im
Ġar tic
Ġfact or
Ġanticoag ulated
u rom
Ġs n
Ġh ole
Ġt ia
Ġp ush
ep s
Ġneur ontin
f illed
Ġf o
Ġosteo arthritis
abnormal ity
Ġunde restimated
av asc
Ġnarc an
f ormation
Ġvis itor
Ġsyn throid
ole ctomy
f amil
Ġj avasc
Ġscro tal
Ġjavasc ript
Ġsurg eries
Ġd ul
Ġprocess es
Ġen ema
Ġb arb
Ġid dm
at roban
Ġd ressed
an a
Ġ19 7
Ġadv air
Ġth y
Ġsubc ortical
Ġtox in
pres cribed
z heim
arr ant
Ġper m
Ġt bili
Ġw igg
Ġgl ute
Ġ18 9
Ġsp ondyl
Ġes molol
Ġnear ly
cop al
Ġb ub
ir s
Ġal arms
Ġposition s
Ġt ag
val vular
Ġns urg
Ġh cc
Ġcleans ed
Ġd usky
Ġspec ial
Ġk in
ive red
Ġtra vel
Ġimp act
15 5
ser ve
Ġanal ges
Ġeuv olemic
Ġto br
Ġpr one
Ġbed rest
Ġ19 9
respon siveness
Ġ4 70
Ġ19 6
col i
Ġcroh n
Ġrifax imin
Ġstat ins
Ġcall ing
Ġabdom in
we ak
develop mental
ile stones
Ġe ager
Ġfri ends
Ġsymmetr ical
Ġnight s
Ġad l
Ġam bien
kg round
Ġkyph osis
Ġlist en
Ġsub jective
Ġj u
Ġper icardium
Ġin adequate
Ġsy ringe
ĠĠĠĠĠĠĠĠĠĠĠĠĠĠĠĠĠĠĠĠĠĠĠĠĠĠĠĠĠĠĠĠ ĠĠĠĠĠĠ
Ġreg urg
ophren ia
Ġcomp are
Ġne onatology
id a
af ungin
Ġmott led
Ġabscess es
chlor othiazide
c ur
Ġdraw s
@ @
Ġn acl
Ġpear l
Ġeas y
ro g
Ġpneum omediastinum
Ġrem arkable
Ġsupple mentation
enc ies
cent ral
ph ric
Ġat rophic
Ġcort isol
mel ena
Ġch ronically
Ġcyt ology
Ġanap hylaxis
orac es
col on
Ġhepato renal
Ġperf or
15 00
Ġlear ning
Ġt ape
ĠĠĠĠĠĠĠĠĠĠĠĠĠĠĠĠĠĠĠĠĠĠĠĠĠĠĠĠ ĠĠ
Ġdes crib
Ġ18 7
Ġf m
in it
Ġad he
fail ure
Ġassist ed
Ġwr iting
Ġb lastic
Ġad nex
Ġvas ogenic
ent ilation
Ġen hance
calc ium
Ġprogress ively
kil o
Ġhil um
t an
Ġsc ore
Ġ20 8
Ġkne es
Ġhyd rox
t ured
Ġok ay
Ġt ill
Ġpf o
al ate
Ġnumber s
Ġcort ex
% -
Ġ+ .
Ġgrim aces
over all
Ġunde termined
co vered
Ġecc entric
Ġintr acerebral
Ġweak ly
se al
c oid
Ġspl it
Ġinfr arenal
Ġa icd
Ġre ver
Ġbas is
Ġexcor iated
Ġincontin ent
Ġceftaz idime
i k
Ġperit onitis
Ġcr y
dis charged
r ad
Ġthr ush
Ġhis s
pc wp
Ġhum eral
Ġdy e
Ġolig uric
Ġ18 6
t ype
Ġson s
Ġpneum oth
Ġ20 6
tot bili
ement s
s dh
Ġoccl usive
dis continued
Ġtraz odone
col or
reveal ed
discus sed
Ġoste openia
Ġman eu
Ġstr ain
se cretions
Ġtest ed
Ġhypother mic
Ġamput ation
Ġwid ened
itud e
Ġcrit ic
Ġtr ue
ol isthesis
Ġca ff
lit ers
rem ove
iel d
cere b
Ġtobr amycin
Ġsub mitted
Ġex plan
ri es
bur ide
pl avix
lex a
t aking
d ensity
Ġint raluminal
di arrhea
Ġcoord inated
Ġpunct ate
Ġooz e
en ced
f ellow
Ġ4 60
pat h
Ġh ot
ly buride
Ġpanc ytopenia
Ġ19 4
t co
he ld
g row
Ġarous es
Ġnon productive
Ġintra operative
Ġspl int
Ġn ative
Ġest abl
le ads
Ġpen et
Ġsucc inate
Ġparen tal
Ġerythe matous
des ats
ap ical
Ġdi amox
Ġsuic idal
Ġnerv es
Ġpap illary
Ġl ws
om nia
Ġs ess
del ir
loy ed
Ġnephro t
bed time
Ġdecompens ated
Ġirregular ity
Ġd row
yp t
hospital ization
Ġlev etiracetam
cont act
oxy gen
invol ved
Ġmr cp
Ġne urom
Ġpre fix
Ġ30 3
Ġre ached
Ġradi ating
Ġaccompan ied
in halation
Ġcorne al
Ġ19 8
Ġ37 0
Ġantic ipated
ob il
Ġureter al
gre en
Ġmet atars
extub ation
Ġp ud
ic ient
Ġmagnes ia
Ġal ways
Ġver apamil
Ġappend ectomy
Ġv est
calc ification
inter val
Ġmet al
le ak
Ġcabg x
Ġunder going
z od
Ġcr ying
Ġ03 00
s po
loc oc
Ġ20 5
Ġtr agus
Ġmem ory
Ġvolt ages
Ġ5 80
pt ion
Ġemergent ly
Ġhypov olemic
c ool
Ġdent al
Ġbehavi or
act ic
Ġadrenal s
a ise
od in
ed ipine
Ġw arrant
met abolic
l ue
a a
Ġbreak through
Ġher self
as po
Ġdirect ly
Ġtrans cription
Ġsecre ations
omy st
Ġact ing
Ġpar at
am ide
Ġcom ment
] [**
de c
y cl
Ġsatur day
Ġr amus
Ġbas o
Ġimmun e
Ġdefin it
Ġpharm acy
Ġecchym otic
er o
ich ole
previous ly
f oc
f alcine
art um
Ġs ang
up on
Ġcrani ectomy
whe ez
m outh
Ġ2 19
Ġsph incter
Ġben eprotein
an al
Ġexc ision
Ġthe cal
Ġ19 2
Ġac oustic
Ġperipheral s
Ġ28 9
Ġam pi
j aund
Ġob serve
Ġl ysis
correl ation
st h
iph asic
s yn
14 8
out patient
Ġst raw
fr act
Ġ40 8
Ġgluc agon
perf ormed
Ġf ung
than ol
endoc rine
Ġ3 22
infl amm
Ġput ting
lev o
v acid
ichole cystic
Ġn kda
ad v
Ġcl ostridium
Ġj aw
Ġsupport ing
Ġthan k
il iac
Ġarous al
post operative
nip aque
b x
fib rillation
Ġd am
ling ual
Ġass es
st ill
Ġinit iate
oc in
Ġrad line
Ġap neic
, %
iz ide
Ġconvex ity
re ne
ĠĠĠĠĠĠĠĠĠĠĠĠĠĠĠĠĠĠĠĠĠĠĠĠĠĠĠĠ Ġ
Ġom nipaque
Ġpleur itic
Ġdel ivered
Ġ19 1
Ġrheum at
Ġ3 45
Ġp yloric
Ġal zheim
Ġthromb ectomy
Ġme p
Ġre intubation
dep ressed
orb ide
one al
Ġreass urance
l ong
o oth
Ġc co
Ġre al
Ġcontr ib
Ġd t
sth oracic
Ġcalc ulated
Ġl aryngeal
Ġmin eral
ib ular
Ġslow ed
Ġimm ature
dys pnea
**] +
/ ,
Ġl c
ox etine
le y
pl ied
oc entesis
od g
( -
Ġrl q
us hed
Ġhumid ified
Ġhal lucinations
oly tic
Ġpre procedure
el onephritis
Ġprost hetic
Ġperine phric
Ġan aer
Ġdi rection
14 7
pop up
= _
Ġl up
we bt
Ġ= .
Ġcon genital
Ġact ivities
webt ag
Ġ25 3
Ġpm i
Ġred em
Ġmy c
dim inished
tob acco
Ġsc ap
Ġindic ative
Ġplug s
m ap
Ġcholangi ogram
100 0
set ting
l opressor
os ity
isol one
Ġless er
in de
Ġintro ducer
olog ical
Ġgastro stomy
Ġt et
Ġfac il
Ġapp ly
Ġpt ca
odg kin
Ġlim bs
et ry
Ġend plate
Ġsupp ly
Ġsibling s
Ġarg atroban
respon se
Ġmal formation
Ġrr t
Ġany thing
b est
el ed
ting ed
Ġhypo kinetic
Ġslow ing
au coma
arb led
val ent
Ġ23 5
n et
Ġdis oriented
Ġgold en
re ple
Ġdf d
Ġinsp iration
Ġgo es
Ġdesatur ations
Ġal lo
Ġsp ut
Ġsl urred
Ġreple ated
b act
ur ium
Ġ5 20
dist al
) (
rom bi
Ġradiologist s
Ġperfor ated
**] -[**
Ġrecheck ed
Ġsp read
uc ing
Ġvisitor s
ul i
Ġsubc ent
ove red
requ iring
immun e
. /
ul sion
Ġexperien cing
Ġblister s
Ġoverl ies
ceft riaxone
med ication
Ġro le
Ġe thanol
vent ional
Ġal dactone
Ġsubcent imeter
Ġer r
Ġml s
g if
Ġopt imize
os orbide
it ary
usc ular
Ġb ab
Ġ27 5
Ġmic afungin
Ġr ml
Ġdis sol
ex pl
Ġn are
Ġrevers al
Ġparat racheal
Ġper icholecystic
Ġhem ostasis
Ġcomp azine
ob es
ch rom
ific ial
treat ment
Ġ30 1
Ġf av
Ġal oe
Ġquadrant s
oc clusive
17 5
Ġschiz ophrenia
or row
Ġcholest erol
n isolone
Ġdim in
ischem ic
Ġintub ate
ind uced
Ġnor vasc
Ġsub falcine
16 5
rop aresis
Ġra ises
Ġz ol
+ /
Ġdifficult ies
Ġpl aqu
Ġeos in
Ġdelir ious
Ġdown ward
Ġinc r
Ġlot ion
b oots
rem ic
Ġcis at
Ġdist ance
a ft
Ġend or
Ġl unch
Ġstimul ated
am bul
ventil ator
Ġrec overed
ca ffeine
ox azole
Ġclot ted
Ġl is
Ġnephro pathy
hes ive
ip ple
Ġdys arth
Ġling ula
alcoh ol
cardi ology
Ġmethyl pred
Ġgraft ing
Ġen ox
cran ial
Ġrh in
odi ures
Ġrup tured
Ġv es
ass oc
ap ril
Ġpoly valent
Ġpc n
Ġs al
oc or
Ġot a
cult ures
foc used
Ġpm ns
Ġbac kground
Ġn it
Ġstay ed
Ġcontact s
op aque
re pl
Ġfontanel s
suggest ed
Ġd stick
Ġne c
s ent
trans ient
Ġdrift ing
Ġ2 12
Ġat e
Ġvar iceal
Ġaf eb
Ġtech nically
exam ination
Ġaro use
Ġ20 3
. ;
Ġ26 5
t on
Ġh ous
> >
q s
14 9
fac ial
Ġqu ad
hemodynam ically
sub sequent
Ġatt end
Ġtr amadol
p enicillin
Ġf ind
28 0
Ġconjunctiv al
Ġbrid ge
ra f
ot ine
Ġaf lutter
Ġtrigg ered
-------- --------
bas os
t rop
Ġcl ass
Ġin ital
ischem ia
Ġenox aparin
ameth oxazole
Ġup set
iv a
Ġmaintain s
t x
Ġbott om
Ġmorph ology
hemat ocrit
con ium
d uoden
e os
t itr
Ġg arbled
ant s
Ġo il
Ġpar ap
15 1
it er
el chair
can not
em s
ir med
Ġhigh ly
Ġrestless ness
col ax
Ġperl a
Ġrestrict ive
Ġincomple te
z apine
Ġrec all
Ġmod est
Ġwor d
Ġhyperint ensity
sulfonam ides
Ġeosin oph
Ġstool ed
Ġconcent rated
Ġne ob
sub cutaneous
Ġr onchi
Ġcircumfe rential
Ġexcess ive
o acidosis
Ġpow er
flu ids
Ġwe ar
as er
it able
min utes
Ġpneumoth oraces
repl ct
Ġintoler ant
Ġophthal mic
Ġwe igh
v a
Ġdestr uction
em ber
m ra
Ġ27 6
st ance
oc ular
dr ug
temp s
Ġun s
Ġhepat op
ther apy
Ġfib ers
Ġthan ks
Ġunus ual
d ata
Ġpl ant
Ġbronchi ectasis
Ġverte x
e rence
Ġpreced ex
zod z
Ġsar coid
m ark
Ġp ouch
br ain
Ġaa ox
Ġdop p
k cl
Ġhemorrh ages
-------- -----
w f
ch ills
Ġreflect s
cy cline
Ġreveal ing
Ġa op
Ġcirc le
Ġintrap artum
th o
Ġ3 26
aryn g
Ġmob il
Ġblur ry
cret ion
ph as
Ġdull ness
agn es
cult ure
Ġbl unt
p ap
Ġm ill
ret urn
av ision
di aphragm
Ġcomple tion
Ġll q
Ġ5 40
Ġun re
ide ctomy
Ġins omnia
Ġ5 60
Ġret urning
Ġmuc omyst
Ġprepar ation
Ġvar ious
Ġtran sthoracic
Ġdamp ened
Ġdam age
Ġgr asp
Ġinf used
Ġmed ium
Ġb ank
ile x
Ġser ologies
Ġh n
bil ious
qu in
Ġaut odiures
Ġmal aise
os ter
yst olic
Ġrs v
Ġpack s
ac ral
Ġallow ed
aphy lococ
asp inal
Ġ3 44
Ġbenz os
Ġdiv ided
Ġen famil
Ġad ding
Ġhyp e
Ġperiod ic
moder ately
Ġmicro vascular
ter ol
Ġconne cted
Ġsm ooth
Ġclean ed
i us
Ġ23 9
Ġ3 90
g erd
Ġparal ysis
Ġoper ation
le ad
h b
ar ch
Ġca ut
wors ening
Ġthere after
Ġel se
Ġ5 30
Ġun responsiveness
Ġambul ance
Ġcereb ro
Ġn abs
recomm end
Ġcereb ell
Ġcec um
hal dol
col ace
Ġsupple ments
Ġ28 5
Ġart ificial
Ġest imation
+ -
Ġdep ending
Ġacet ate
az one
Ġhyp ok
Ġsp on
Ġend urance
sh ould
Ġtracheobronch omalacia
Ġin cl
Ġpreced ing
Ġam ox
m vr
one ctomy
Ġsc ene
Ġhyperd ensity
Ġhf ov
t amponade
Ġon to
Ġju ice
Ġes cal
em ed
str ument
Ġvari able
Ġprior s
th ree
des c
Ġlook ed
Ġhepatop etal
Ġstick s
220 3
Ġaug ment
Ġdecomp ressed
Ġs irs
Ġhemip aresis
Ġplan e
ot rop
Ġnon focal
position ed
Ġsit u
Ġar ising
s ib
Ġmg mt
Ġ24 9
** *
Ġpul mon
Ġbath room
t ions
Ġlo os
Ġket oacidosis
Ġweight ed
Ġrang ed
Ġsen se
Ġlig ation
Ġosteophy te
Ġm en
br isk
t ape
Ġcoil s
Ġlov es
catheter ization
Ġmet avision
rol ithiasis
Ġlup us
Ġin between
Ġsmok ed
intra venous
Ġwithdraw l
Ġex ceed
cl os
co arse
Ġp af
Ġc ig
approx imately
ip ratropium
Ġpack et
Ġt ld
um b
Ġce lexa
Ġexp ired
p orcine
Ġadhe sions
Ġm p
Ġd ng
non specific
Ġacid otic
m il
Ġfib roid
Ġcomb ative
Ġecchym oses
Ġl cs
lev ant
concer ns
Ġte ach
Ġns cl
Ġlen is
Ġlot s
Ġq pm
Ġ9 11
3 20
Ġknow s
Ġfro thy
w ave
Ġvasc ulitis
angu inous
wh o
Ġthigh s
el ing
gen ic
Ġlim itations
s ang
Ġnebuliz er
ind icate
morph ine
y es
Ġe ca
Ġfor mal
Ġradi opaque
ie ving
Ġhel ical
rect al
Ġg lyc
Ġth rombi
= ,
-------- ---
Ġdef ined
t ib
Ġp aged
rol l
lf riend
en uating
r apid
Ġfibers ource
Ġcont ents
15 2
Ġma es
assoc iated
ant ic
oplast ic
c bc
Ġ7 20
Ġextra hepatic
g reat
Ġsyn copal
Ġbarb itr
re quired
Ġc cy
Ġ12 30
Ġ24 4
// ,
Ġpercent ile
nd s
ul um
em et
Ġaller gic
Ġobtain ing
Ġre verse
cr it
Ġ24 5
Ġco un
Ġob structing
Ġcollect ing
drain age
-------- --
ab ove
Ġ3 37
if en
Ġag rees
Ġ4 90
trans plant
Ġpr ilosec
Ġl ive
att ress
! !
Ġf ld
Ġo st
Ġgrand mother
Ġasd ir
Ġsuperv ised
ce ased
amin a
s ched
Ġo int
Ġtrem ens
Ġp epcid
Ġre act
Ġit ching
in creasing
th oracic
15 3
Ġweak er
mot or
awa iting
Ġ3 35
so as
asc ending
Ġonc ologist
.... ....
s ing
Ġtro phic
Ġmep ilex
Ġad hesive
Ġwors ens
prog ress
Ġf oul
Ġtight ness
Ġpar aspinal
Ġchemist ry
Ġdo ub
Ġgast roparesis
m o
Ġvar ic
Ġ4 10
Ġintravenous ly
r ill
Ġmac ro
Ġnebuliz ers
Ġext end
Ġnormo active
an creatic
Ġhemangi oma
Ġquiet ly
Ġ+ /-
Ġconver sion
Ġ3 10
amp ing
Ġsut ured
m eropenem
Ġd ural
Ġ25 7
Ġvest a
Ġg aze
Ġparad ox
Ġg lyburide
Ġsed ate
ac cum
Ġnad olol
w ould
ol um
imm ing
coord inated
Ġth ose
Ġcd b
orr hea
Ġsp arse
Ġechogenic ity
fl atus
Ġkin air
reveal ing
Ġingest ion
ch er
Ġ17 30
Ġcomplex es
Ġbath s
d ependent
in der
Ġdissol ve
Ġe po
il lectomy
Ġlac un
Ġir reg
bott le
Ġm ort
Ġm ci
Ġ3 24
n gt
Ġsepar ate
Ġlm ca
Ġdox y
Ġtitr ation
Ġim pl
Ġarrang e
Ġm ilestones
Ġdel ine
cs ru
Ġadminister ing
26 0
Ġante c
encour age
w al
Ġad dl
Ġtub ing
Ġlight s
Ġ20 2
Ġmin i
b rown
Ġ3 28
Ġ50 8
Ġa ox
Ġiv du
Ġce a
Ġphot o
Ġappend ix
Ġsupr ap
sg ot
Ġinterest ed
Ġent eric
Ġwal ker
Ġ24 6
Ġpost operatively
b actam
Ġpneum onectomy
Ġgrim ace
coord ination
Ġd u
Ġnon displaced
Ġnim odipine
Ġparen teral
Ġnif edipine
sg pt
if th
pred nisone
Ġwa it
Ġp aper
Ġ3 46
Ġeffort s
Ġhem i
under went
Ġesophag itis
Ġcor rection
all en
Ġverte bra
Ġtherap ist
rome ter
Ġex hib
me terol
Ġwh ipple
Ġpost uring
me th
Ġim dur
desc ending
Ġbronch ed
se ptal
ask ing
Ġreceiv es
15 4
Ġ16 30
ste ady
st im
Ġact ually
Ġexplan ation
ot ext
a ult
s cr
Ġnot ably
Ġsed ating
present ed
fl ight
Ġosteophy tes
Ġcr ushed
Ġc ertain
Ġme conium
op hy
Ġins urance
Ġdist ur
Ġsuperv ision
Ġh ist
Ġco oper
con stipation
Ġ6 40
Ġ20 1
Ġn at
gram s
n itro
Ġglide wire
otext ure
Ġst ir
Ġind x
Ġrelax ation
Ġcr isis
oc om
Ġglute al
d iv
y loid
Ġpl ay
Ġadd ressed
Ġmain ly
Ġampl itude
Ġm attress
Ġend ovascular
c ence
Ġin h
Ġreflect ing
infiltr ate
re c
sulfonam ide
b one
s en
Ġc aspo
le ction
ras h
sul bactam
Ġr uddy
Ġ29 9
cere bral
Ġhop ef
Ġresult ant
Ġdm ii
Ġin strument
Ġme ans
Ġintr insic
og enous
dys function
opharyn x
conf irmed
eff ect
Ġaden oma
consult ed
Ġo lan
% ;
ob struction
call ed
veget ation
flo or
Ġext ens
Ġex act
develop ed
id one
Ġreport ing
Ġ4 78
t itrate
Ġorb its
Ġster i
diures is
Ġ% ).
Ġb iting
Ġmanag er
Ġf ick
Ġolig uria
Ġencephal omalacia
Ġbul ge
Ġam a
Ġresult ed
Ġnod al
Ġbm i
Ġul nar
Ġb up
Ġact iv
compl ications
e ved
Ġextra ction
Ġfen a
vent ric
cardi ogram
Ġpos ter
olum bar
Ġc g
Ġnephro logy
6 40
Ġhyp erv
Ġanat omic
ed ucate
Ġreason s
Ġinter vertebral
diaphragm atic
Ġf ifth
Ġech otexture
Ġhydro chlorothiazide
Ġcom es
Ġcar ot
Ġiv ig
Ġmult il
ey e
Ġnic otine
aphr ag
Ġsh aft
Ġend omet
h um
Ġo c
co uld
Ġmig r
Ġ> =
Ġligament ous
Ġ23 8
Ġtac rolimus
Ġte g
om en
Ġtroponin s
Ġt ors
Ġlen i
oper fusion
x n
Ġ** *
Ġsubstant ially
ith ro
ep end
Ġ28 6
m uc
Ġimmunosup p
Ġ6 30
Ġg b
Ġinter mitt
ur ring
Ġtap ered
re cor
ak en
prol ong
Ġalzheim er
Ġdsg s
# )
ro kes
Ġle aving
of ol
al ol
Ġha art
Ġrecommend ation
ib p
Ġradi us
Ġdul colax
th us
hypox ia
Ġgastro enter
Ġretr acting
in ting
Ġth or
surg eon
up rbc
Ġport s
Ġspi rometer
osp len
Ġperipheral ly
Ġav id
Ġsqueez e
intra ventricular
f ungin
Ġ3 55
Ġm eropen
Ġf le
ation al
s ite
Ġthal amic
ep i
Ġun available
top arietal
Ġintox ication
Ġplaqu es
h olding
it rac
os ocial
Ġcont ractions
Ġde his
man agement
Ġfer rit
Ġz ones
ag itation
Ġdizz y
r n
att enuating
sulf amethoxazole
Ġg ated
dem onstrated
un known
Ġpl ain
def ormed
Ġstay ing
r x
Ġt p
Ġb are
the se
Ġcent ered
Ġa qu
Ġaneurys ms
w ed
Ġ4 24
Ġfib ula
agm us
Ġyour self
Ġresist ive
prem ature
Ġregular ly
s artan
Ġs ides
Ġspeak s
Ġoccassion al
Ġmain stem
Ġmechan ically
Ġprem ie
Ġplant ar
Ġp k
Ġs sc
co operative
Ġv f
Ġg one
aphrag ms
Ġarrang ed
phas ize
Ġdis p
Ġs nds
Ġ9 50
Ġgir lfriend
bo ard
Ġbig em
Ġret raction
Ġdispl ayed
Ġsu itable
Ġre nd
Ġmetatars al
Ġr ay
aphylococ cus
Ġper oneal
Ġpneum operitoneum
Ġpur ple
Ġgl ip
Ġdial y
Ġd er
ad j
ce le
Ġbro ken
Ġirrig ation
Ġvag ue
Ġw ish
Ġresist ance
Ġ30 8
Ġdescrib es
Ġperip ancreatic
Ġwal ked
pat ent
thm a
Ġphot ot
Ġhor ns
am ps
Ġdefin itive
sign s
Ġamox icillin
Ġre levant
Ġunderst ands
Ġ3 23
Ġdrow sy
Ġmr s
Ġremov ing
Ġsuperior ly
Ġcor ds
Ġwe aring
fever s
Ġcl l
ocy tic
ral ine
Ġmult ip
cy cle
Ġcr ypt
i ene
Ġven ogram
**] **
mr sa
calc emia
ant i
ov enous
Ġph aryngeal
pre ad
rad ial
Ġachie ve
Ġthorac olumbar
Ġanastom otic
Ġrem ember
b el
sus tained
osplen omegaly
Ġglip izide
Ġor g
Ġwbc s
Ġtend on
r ical
Ġ3 48
Ġfull ness
Ġ23 3
p vd
s ian
in et
Ġpost ure
ip ating
Ġmt g
Ġl bbb
Ġcap illary
' '
18 5
Ġselect ive
echo ic
Ġk er
gastro intestinal
Ġch allen
br ane
Ġopi ates
Ġmo aning
Ġ26 8
hel ial
Ġhypov entilation
f s
Ġmon t
or ientation
abs cess
Ġdimension s
ir on
pt t
Ġmed ially
Ġ2 21
ne onatal
us tr
Ġpt c
Ġl ith
Ġpar as
Ġcardio respiratory
Ġb low
Ġcor p
grad ient
Ġexcept ion
Ġbed pan
Ġper ib
Ġsur v
ici ans
prop ofol
Ġun cal
Ġis osorbide
v ap
oric onazole
Ġcompens ated
ch icine
infl ated
Ġbronch od
dist ress
vis ual
rac urium
Ġimmun izations
s low
Ġbb o
Ġvar iation
Ġn ibp
Ġtw i
Ġck s
Ġimmun ization
m at
ert raline
Ġrs r
Ġgl aucoma
as thma
op a
ok ed
Ġwarrant ed
Ġrang es
Ġant if
Ġstr ip
Ġdid n
Ġcap ture
ic et
Ġsub lux
oc a
Ġ29 8
v its
Ġam ps
Ġip f
Ġwors en
inde terminate
Ġ8 40
Ġekg s
Ġxanth omas
Ġvic odin
penicillin s
Ġ27 9
Ġneph rolithiasis
f requent
Ġten uous
prom od
Ġ+ [**
Ġsent ences
evalu ated
ch ar
neum othorax
Ġpenet ration
il lo
gav aged
Ġre aching
c les
Ġas per
rom etry
Ġwithdraw ing
f ate
Ġmet as
Ġcerebell um
ick man
Ġolan zapine
Ġc sm
Ġb ue
mark ed
Ġill icit
Ġpre fer
Ġref erence
Ġmar oon
Ġ7 80
ix is
Ġfron toparietal
Ġrol ling
pur poseful
t ub
pneum othorax
Ġc ues
om ax
cc a
Ġulcer ation
Ġimmun ocom
st it
Ġmg s
Ġaccess ed
Ġcont amin
Ġatyp s
Ġexert ional
im prov
Ġdis continu
Ġ4 25
Ġlot ions
Ġdiaphragm atic
Ġlip s
Ġimpl ications
15 7
bas o
Ġbif rontal
Ġclon azepam
en em
im ic
m it
un remarkable
Ġch in
os m
g one
Ġprop hyl
Ġleak age
15 8
Ġdivertic ula
is ition
Ġtim ing
o ft
t m
Ġantec ub
m and
Ġcal ms
o res
Ġunder go
Ġperic arditis
t om
Ġhemorrh oids
Ġconj unction
hemat ochezia
ale al
220 4
Ġorth ost
follow ed
Ġtro uble
o ob
Ġ2 14
Ġman ip
Ġwheez y
Ġoccupation al
sens ation
Ġgluc oses
15 6
Ġ7 90
remov ed
Ġprep ared
Ġna use
m ology
Ġ4 19
======== ========
Ġpillow s
Ġanaer obic
Ġwid es
Ġli j
27 0
Ġbub ble
Ġa o
est ig
Ġlog roll
Ġd ens
Ġmax imal
Ġph leb
rem ain
Ġload ing
Ġcollateral s
Ġpolyp s
Ġman ual
neurolog ic
yt ics
Ġrever sible
- ,
Ġdesc ended
Ġprecord ium
reg arding
amp icillin
se g
Ġpl at
sp inal
st udy
d iet
Ġs id
v it
intr insic
Ġtransition al
ox ins
Ġbi ops
Ġacetab ular
enhanc ing
Ġg ained
Ġdos age
alb umin
Ġdysarth ria
hyp othyroidism
g aleal
Ġsub lingual
Ġanter olisthesis
Ġgua ic
Ġspan ish
blo ody
iv ocal
Ġ3 38
de ep
Ġexpector ating
Ġol t
( +)
Ġse quent
urs ue
Ġplac ing
eny toin
Ġwides pread
in j
Ġscre w
ob tained
Ġantic ipation
op le
Ġox acillin
Ġreor ientation
Ġd ir
Ġrt x
Ġdon or
v ia
Ġdr ied
c anc
Ġr andom
Ġsup ras
itrac in
Ġp ent
Ġcr ystal
cr ystal
Ġbleed s
Ġbl ind
Ġlight ened
Ġclip ping
Ġfold s
Ġuns ure
ĠĠĠĠĠĠĠĠĠĠĠĠĠĠĠĠĠĠĠĠĠĠĠĠĠĠĠĠĠĠĠĠĠĠĠĠĠĠĠĠĠĠĠĠ Ġ
ann ular
Ġure mia
report ed
d rop
p cp
am iod
Ġsubst ance
d ig
Ġ24 8
Ġbrain stem
Ġelect ively
s b
Ġoxy contin
re flex
or ing
dys morphic
great er
aw are
Ġurinal ysis
me as
Ġsphincter otomy
Ġ3 36
Ġshe l
Ġns aids
lo ving
ob ular
Ġambul ated
Ġ23 2
Ġment ating
Ġthir ty
Ġfl ight
Ġband ing
sp ect
Ġclus ter
al k
Ġwrap ped
m agnes
Ġrec ieving
20 1
ag ain
Ġnon reactive
Ġ igg
Ġun revealing
ep ine
Ġhyd rop
Ġgent amycin
tr ac
Ġhyp operfusion
Ġind ocin
Ġsub q
Ġsw imming
Ġ6 60
Ġsuprap ubic
u osity
Ġiv s
Ġparadox ical
Ġlc ws
pl asia
p seud
Ġen jo
Ġrub ella
Ġh bsag
h t
ont ine
sever al
restart ed
fort un
ic ted
Ġimmunocom prom
r ub
Ġexp anded
Ġresol ves
bed side
ch ild
k idne
cept ion
al april
Ġident ify
16 1
Ġaf so
Ġ20 9
Ġdel ta
Ġinjection s
Ġrel ation
x x
Ġhum an
Ġfatig ued
at ors
Ġns vt
Ġscan ning
7 50
y thm
r ist
ub stance
ad min
Ġmr g
et il
cipro floxacin
Ġresusc itated
Ġaltern atives
n ic
Ġtric ycl
chlor per
Ġmaneu vers
Ġmem brane
l aw
p ol
pp d
am l
tr ivial
op ed
ang e
Ġhom ogeneous
h cp
Ġmyel os
Ġh ope
Ġband emia
------------ --
ap plied
Ġclav icles
Ġg j
cir cum
Ġp es
re fer
ĠĠĠĠĠĠĠĠĠĠĠĠĠĠĠĠĠĠĠĠĠĠĠĠĠĠĠĠĠĠĠĠ ĠĠĠĠĠĠĠĠĠĠĠĠĠĠĠĠĠĠ
Ġep it
chlorper azine
Ġconfirm ation
Ġsub diaphragmatic
j d
as ps
Ġsample s
Ġrus sian
op ac
ear ly
year s
Ġp ursue
the y
Ġst ump
Ġ20 4
mor ning
Ġinter rog
sul osin
ell ular
Ġdispl ay
Ġ20 7
Ġrest ed
ng n
Ġdiure tic
Ġnscl c
cr ack
ins ert
ins hed
Ġut erine
Ġ18 30
raum atic
Ġ3 99
Ġ4 33
Ġtal ked
leuk ocytosis
ey es
Ġulcer ative
Ġproximal ly
Ġpleas ed
rup tion
d et
gall ops
lo be
re f
Ġes bl
Ġcl avicular
Ġn iv
Ġg p
g ill
difficult y
Ġch o
yn es
ac ol
p acing
Ġ5 29
l on
Ġangio edema
Ġfin ish
Ġ3 18
b un
Ġv oriconazole
Ġurobil ngn
t ia
av ir
Ġ45 1
16 2
Ġ4 17
Ġtort uosity
av oid
f oot
Ġadm its
Ġencephal itis
Ġcalor ie
Ġsh ov
37 5
Ġ6 80
rome galy
Ġd ome
e th
Ġcon current
de g
g ro
ad vanc
be ing
00 5
id ual
16 3
Ġgang rene
di aper
magnes ium
ak ote
m i
Ġo ett
Ġintro duced
Ġ5 90
Ġnephrot oxins
h ip
Ġ8 20
Ġm ist
Ġpersist ant
sim vastatin
Ġple uro
p ip
Ġd st
v ical
Ġde emed
Ġast er
Ġ13 30
Ġs keletal
neuro logy
Ġlevo quin
Ġaccur ate
Ġirrig ated
n ite
Ġl aryng
Ġr af
Ġteam s
Ġhypok alemia
congest ive
Ġ4 26
sc opy
cap s
Ġhyper calcemia
Ġ4 68
p ack
Ġclar ify
Ġits elf
s ur
Ġsh ields
pt ive
lit er
Ġimmunocomprom ised
Ġirregular ly
Ġves icles
ad h
ne xt
Ġac qu
Ġextra ocular
Ġsub galeal
ident ified
fract ure
sal meterol
Ġasp s
Ġ26 4
f all
p iv
Ġcell cept
) ).
Ġgreat est
Ġnarrow ed
organ isms
canc er
3 60
y om
Ġimpair ment
Ġprong s
Ġre jection
Ġhypert onic
Ġret aped
Ġw aff
Ġspi rometry
l os
Ġult ram
it on
Ġh ol
Ġmajor ity
Ġne pro
fe rence
ri an
Ġgu ardi
Ġdocument ation
Ġdec ort
f ick
Ġhyper cap
Ġt aped
Ġmark ers
Ġunder gone
Ġemphys ematous
ind ependent
**] '
if erol
16 6
Ġcan e
un clear
Ġ4 14
16 8
clin ing
cv p
de crease
Ġant rum
Ġut is
ch ond
Ġtrig lycer
anter oseptal
Ġbowel s
Ġtrac ks
Ġmonit er
Ġorthoped ic
Ġc ache
Ġcircum flex
Ġkef lex
Ġt ur
Ġn bn
Ġcons erv
Ġtyp ical
Ġmes h
Ġ4 37
Ġ3 13
Ġexpl oration
Ġhem ic
stop ped
x in
Ġpart icle
lo v
osc ope
Ġstop ping
Ġfax ed
Ġgraft s
Ġdrop let
Ġsett led
Ġcisat racurium
b acter
di ag
improv ement
ph ot
Ġtons illectomy
el vic
not done
Ġst ret
Ġexpector ate
Ġsublux ation
infer olateral
lock ed
// <
17 69
Ġp ra
trans fusion
l np
Ġsm v
inj ur
ore x
ap tic
r ca
Ġspi king
Ġadjust ment
Ġrhin orrhea
Ġ6 45
Ġinv estig
Ġhyp othyroid
ch r
Ġlast ing
19 5
rob ial
Ġcaspo fungin
taz o
rest ing
Ġv od
Ġ50 3
Ġfacil itate
Ġinter medi
sul fa
Ġ30 5
Ġdes itin
Ġ36 3
b ase
Ġdil ator
Ġr bbb
Ġ28 8
ar ct
w arfarin
Ġ9 60
id dm
Ġ4 36
16 4
Ġdoub t
Ġdoppler s
Ġstand by
Ġpurposeful ly
Ġgastro pathy
Ġstrong ly
Ġy om
Ġwill ing
cm h
Ġpl asma
Ġsp asm
Ġfs bg
n ife
lip itor
Ġ% )
amiod arone
Ġm wf
ure ter
exc luded
v l
Ġ ĉ
Ġ25 1
ii i
weak ness
Ġret rop
unt il
c oc
Ġcy cles
Ġspo ken
Ġmultivitamin s
t issue
Ġp orcine
es in
stool s
it ating
Ġch oking
15 9
itis h
Ġhypog lycemic
Ġm ix
ap pre
Ġfl aring
Ġint estinal
sen na
il in
Ġperform ance
ol azone
Ġas ide
sc an
Ġmesent ery
am er
echocardi ogram
Ġequ ivocal
ot tic
Ġ4 55
Ġtransplant ed
Ġmob ile
Ġp cr
yl ine
. '
Ġele ment
i j
Ġb t
ag is
Ġgrad ual
Ġinterpre t
Ġro se
ign ed
Ġorient ated
( >
s ister
Ġglass es
Ġdel er
Ġocc ult
, +
gent amicin
Ġ3 33
ert ic
Ġ25 6
position ing
Ġg ad
Ġan is
Ġcalc uli
p id
Ġincident ally
Ġess ential
Ġcon ventional
Ġauto immune
ray s
der m
Ġfre ely
grow th
s odium
Ġyellow ish
rep resent
. -
int ensive
met ast
Ġafter load
Ġ46 7
e ach
p al
he res
s pl
Ġval sartan
Ġp heresis
Ġbr b
Ġ29 4
ton ight
Ġst rokes
16 9
osc op
Ġ10 30
Ġsub therapeutic
Ġm ural
Ġfr ustr
Ġkayex alate
Ġ3 17
ch an
Ġexerc ises
u a
Ġanast am
Ġarteri ovenous
Ġfav or
hyper cholesterolemia
Ġt bm
9 00
av id
Ġdys pneic
Ġd chf
f riend
Ġc ess
Ġo a
cer vical
Ġreass uring
est rian
f ont
Ġc art
Ġ3 29
Ġb uilding
iat ry
Ġth irst
addition al
Ġaster ixis
Ġ7 60
Ġdoxy cycline
y rs
Ġt s
Ġ23 7
Ġmat uration
p upil
th yroid
cont aining
Ġmast ectomy
uc ible
Ġosm ol
: -
Ġ5 47
concer n
Ġob ject
Ġstep s
Ġa ids
< =
Ġblock ade
Ġintr am
bott ling
Ġfor ms
Ġfor get
sy mmet
ĠĠĠĠĠĠĠĠĠĠĠĠĠĠĠĠĠĠĠĠĠĠĠĠĠĠĠĠĠĠĠĠ ĠĠĠĠĠĠĠĠĠĠĠĠĠĠĠĠĠĠĠĠĠ
aryn x
Ġ24 3
Ġbac itracin
Ġsess ion
Ġshov el
on ts
z ing
sleep s
re h
inflamm atory
Ġvom it
radi ation
f ing
are an
Ġ23 6
requ ire
h and
Ġ4 12
Ġint ras
Ġthorac ics
Ġpal sy
appre ci
07 30
pre vacid
Ġfx n
app end
sup ple
Ġsequ ence
Ġat raumatic
et i
v ts
os h
Ġile um
Ġclar ification
kes person
ie ce
Ġ. ..
Ġperiph ery
Ġbru ises
Ġdem erol
Ġcarotid s
Ġad ls
Ġ26 3
spo ke
Ġperib ronch
il ities
Ġpain s
18 2
Ġcxr ay
prom inent
Ġdim inshed
Ġem phasize
Ġstr ips
Ġtunn elled
du ce
Ġ rop
Ġs anguinous
Ġcol chicine
16 7
hepat itis
arct ation
cl avicular
Ġind ices
Ġfol l
coag ul
Ġre aches
st ud
Ġrectal ly
Ġfontanel le
Ġs alt
Ġur i
Ġd ating
Ġlocal ization
Ġmethylpred nisolone
f ew
Ġenhanc ed
c ral
obronch ial
Ġf b
Ġblock ers
d ri
Ġcess ation
ig o
Ġbronch ograms
cir rhosis
Ġ8 80
est aff
az osin
Ġepit helial
or ium
Ġinfiltr ated
Ġstand point
Ġnurs es
as th
oc ellular
Ġmeasure ment
ast ic
Ġaf b
Ġburst s
in opathy
Ġcon v
uit ary
Ġn utr
Ġ14 30
Ġav ail
Ġfore head
Ġy ank
abd omy
Ġsc out
Ġplacement s
Ġpl asm
Ġ6 25
rece iving
Ġdehis cence
Ġverbal ized
lov enox
en er
olid ay
os ities
Ġthr ills
Ġno s
an est
Ġl aw
Ġde clining
Ġth ings
Ġ60 2
air way
Ġq od
monitor ing
Ġobt und
Ġ3 15
ceft az
ar med
Ġbenz o
p ager
Ġtrans l
23 00
ales ma
Ġvisual ize
Ġco reg
et ric
Ġmurm er
Ġmis sed
ed o
Ġ- [**
ilat ors
fortun ately
Ġno vas
Ġplan es
Ġsem inal
Ġaugment in
at he
tr ace
Ġher p
Ġemer ged
Ġp soas
Ġhous estaff
Ġ3 47
Ġapp y
Ġmand ible
Ġ27 2
Ġindic ates
Ġreinfor ced
Ġ15 30
Ġacc ount
Ġvom itting
p v
a ed
Ġcalc ane
Ġsi adh
Ġd ang
Ġ9 30
Ġele ments
m ech
Ġhyperint ense
ml s
Ġpp f
crack les
23 5
h ands
inter vent
Ġped estrian
0 50
Ġth umb
Ġ11 30
Ġflo vent
am ibi
Ġ26 6
Ġang les
Ġgran ulation
ur inary
Ġro ux
Ġdiffe rence
est amibi
Ġmarg ins
Ġrheum atic
Ġgr asps
Ġxanth alesma
Ġnovas ource
Ġst aphylococcus
Ġcritic aid
Ġex crete
ely ing
Ġmale ate
Ġpy elonephritis
Ġorg ans
2 30
Ġwaff le
en larg
Ġ45 8
ch ct
Ġver ified
epis odes
Ġlock ed
Ġtwit ching
Ġcaff iene
Ġorthost atic
Ġasper gill
Ġvt ach
Ġhydrop neumothorax
Ġthr ive
attempt ed
Ġs estamibi
Ġyo ung
Ġgradient s
Ġa im
Ġp ager
ut ical
Ġcond om
ser um
Ġneos ure
ist ered
Ġinfl ated
Ġgranul oma
n asal
er r
oph arm
lu vc
Ġa i
Ġb ink
Ġh ld
Ġexpl aining
antic oag
Ġct r
eff usions
nar c
cardi ologist
Ġterm inal
Ġc w
compl iance
Ġbel ieved
Ġcvvhd f
Ġsed atives
Ġvigorous ly
in eral
Ġs fa
Ġafter wards
Ġ7 35
iph en
ril obular
Ġsuff icient
sm ok
w aking
Ġm iss
Ġm ibi
ov ir
17 2
Ġex cretion
Ġw s
Ġmultip od
Ġse ed
Ġter ms
pers istent
mon ia
r itation
Ġcircumfe rence
onc ology
Ġpolys ubstance
Ġh fa
Ġ4 22
sens itive
3 80
Ġwax ing
ar ry
des at
titr ated
Ġsid elying
Ġpin point
Ġantif ungal
Ġhemod yn
kidne y
art e
Ġacqu isition
Ġint ially
m ob
inf using
Ġair leak
Ġcontract ed
eg d
ic er
Ġ5 36
Ġs ertraline
ian al
ser ial
add ress
Ġad aptic
with draw
Ġlocal ized
t ro
Ġflush ing
Ġf ul
be cause
at ically
pid em
le sions
Ġvi i
Ġp ons
Ġ35 9
comm un
Ġinvol ve
ang io
Ġsc ab
Ġimm obil
Ġecc ym
ic its
though t
Ġs izes
str ained
yl ate
Ġ29 6
Ġmotor cycle
b ic
an z
Ġsh ot
ra ft
Ġov ale
Ġref uses
Ġ7 30
Ġlocal izing
se at
Ġde vel
Ġweight s
Ġtermin ate
new born
clos ely
Ġbe ar
Ġopt im
Ġleuk s
Ġbol t
Ġmeropen um
Ġgp cs
ome th
v ac
lo cal
Ġsupra ventricular
sim ilar
Ġcy u
Ġbul k
v ss
ist s
Ġ2 31
Ġaf os
Ġhel ped
Ġsuff ered
Ġev id
Ġdiverticul um
Ġb ore
Ġdc d
Ġnot ice
ext ensive
Ġre accum
Ġset s
Ġtrem ulous
y le
ent ly
Ġcerebro vascular
Ġ4 45
fac es
ad erm
Ġd vts
Ġb an
Ġspo kesperson
th ym
at enolol
Ġoutput s
Ġcig are
Ġch b
Ġestabl ish
y cline
ab x
Ġherni as
Ġhem oglobin
Ġdem ineral
Ġsx ing
Ġheav ily
Ġ45 3
trend ing
Ġcontain ment
pm icu
Ġhealth care
Ġregurg itant
ward name
e ce
n f
Ġh ar
ens it
Ġtap ped
Ġorb it
sh ock
Ġdep akote
Ġlob ar
Ġdepend ence
Ġlacun ar
Ġvalv es
. (
Ġrespon ses
Ġdiscussion s
Ġ**] ;
Ġcycl ospor
Ġ27 3
Ġcent rilobular
f at
ph eric
is ional
Ġwh ose
ol itis
Ġ3 98
Ġ^ ^
Ġe bl
if lu
Ġfasc iotomy
Ġd jd
Ġhel ically
par a
Ġris per
Ġcy ber
phys ician
Ġvalv uloplasty
Ġconflu ence
emb ol
Ġid i
Ġbur r
Ġinter v
Ġem p
gu a
Ġwh itish
Ġ28 7
Ġ5 34
Ġs ot
Ġdoctor s
Ġbur den
ifen esin
Ġalcohol ism
Ġredem onstrated
Ġsm elling
Ġsequel ae
il ateral
Ġphys icians
res h
Ġartifact s
Ġ24 7
Ġarrhythm ias
bro ther
3 40
ar inal
op in
Ġcentral ly
Ġresid ue
stud ies
Ġdist r
tt es
icardi ocentesis
Ġflex ure
Ġappl ication
l aser
Ġbum ped
Ġfoc used
Ġatheroscler osis
Ġenter obacter
Ġcomponent s
gu iac
Ġdi ap
Ġug i
Ġradi opharm
Ġr f
Ġun f
Ġ25 9
Ġclin da
Ġc bi
Ġcir rh
Ġver ify
om eprazole
Ġdr am
Ġrest aging
emer gency
o jejunostomy
an es
Ġ# #
Ġprogress ing
Ġcorne als
c ase
ist inct
Ġ7 40
inte gr
am en
Ġacetab ulum
Ġ5 10
Ġ48 5
p et
ab out
Ġmet olazone
rac ycline
Ġtr ap
Ġrare ly
Ġ25 2
Ġz ocor
asth enia
d c
ac ed
Ġpa uses
cral fate
Ġsubc arinal
Ġwhe elchair
Ġsm oke
pass ed
Ġexceed ing
ect able
Ġappro val
og ast
Ġdes ire
Ġintegr illin
ull a
th ro
Ġk il
rough ly
Ġ3 19
, [**
Ġsac ro
main tained
Ġlid o
Ġwat ery
Ġfl ail
Ġpump ing
Ġenjo ys
Ġme g
Ġc er
Ġ3 49
Ġac a
ob stipation
lf ish
Ġh odgkin
co unt
Ġ29 5
aud ication
Ġwant ing
Ġbeh ind
Ġmap ping
appropri ately
Ġ4 29
Ġ30 9
Ġretro grade
17 7
Ġ21 30
Ġfist ul
Ġhem o
Ġsy rup
Ġexacerb ated
Ġpod iatry
Ġ5 70
extrem ity
Ġd b
Ġas best
af lutter
Ġpart ly
Ġtail ored
Ġscre ened
Ġde condition
rill ator
il ution
recommend ations
on uclear
subsequent ly
Ġ+ ,
Ġor ogastric
r v
Ġto m
Ġtrans venous
prolong ed
Ġv l
un e
Ġsp acing
Ġta h
art icular
Ġproper ly
anter olateral
Ġfood s
Ġneurom uscular
Ġdiv ision
hydr ated
Ġgu ard
Ġinital ly
Ġderm at
Ġpron ator
Ġt ell
Ġf u
Ġsch ool
Ġaud itory
Ġpit uitary
Ġisol ation
Ġflu ent
ov an
Ġ24 2
Ġind istinct
Ġsl ice
Ġrect us
gra ft
Ġmagn etic
Ġbenz od
Ġcardiover ted
Ġelse where
ur nal
lev yn
Ġasc itic
Ġdistur b
r ap
Ġr m
Ġeffect ively
Ġsur faces
eti apine
Ġmain t
Ġintoler ances
al ox
Ġcour sing
yst ole
Ġcom a
Ġhemat ochezia
Ġabdomin ial
asc ites
iz ine
Ġton ic
veget ations
Ġ27 4
Ġsister s
Ġl am
chan teric
Ġspec iation
Ġpen is
Ġg ut
ex erc
a ing
k nife
Ġcomp reh
Ġ ____
Ġab ut
Ġleg al
= .
over night
Ġagg itation
Ġ4 13
b ec
Ġ5 15
oc utaneous
Ġben e
or th
Ġ4 47
Ġrefer ring
Ġday time
Ġ26 9
Ġmcg s
Ġh at
ul osis
24 5
Ġ28 4
adm it
ir ritable
Ġca udate
Ġ27 8
on ium
Ġasymmet ry
19 6
Ġl dl
Ġtr ip
Ġsub total
Ġenlarg ing
me an
Ġgnr s
ic one
hemorrh agic
iz er
Ġ25 8
m ater
concer ning
Ġcholecyst ostomy
( +
Ġmid clavicular
Ġsclera e
Ġo ss
vel amer
Ġprevent ion
ct urnal
Ġect opic
Ġ7 70
Ġca ud
ator vastatin
ins ol
taz apine
Ġf onts
Ġk n
Ġend oscopic
Ġthink s
Ġawak ens
Ġh dl
Ġlos ses
Ġind uction
Ġ4 49
Ġrh abdomy
Ġfinger stick
d esis
Ġg un
Ġsens ing
af ternoon
Ġamb u
am ax
Ġ6 70
Ġfree ca
Ġx r
Ġfs g
is c
Ġa ch
lo us
ov ac
Ġ12 50
27 5
Ġmicro organisms
17 4
Ġen alapril
Ġdecort ication
min ute
Ġpar iet
Ġmort ise
Ġcalc ific
Ġcolon ization
Ġcuff ed
Ġpleas ure
Ġfontanel les
f u
Ġbenzod iaz
b olus
17 6
Ġthromb ocyt
Ġscap ula
Ġdig ested
Ġsupp ression
Ġhop es
w itnessed
Ġinf ra
am ylase
Ġam yloid
Ġinhibitor s
ocy te
Ġadl ib
Ġp ill
Ġvasopress ors
' m
st ation
Ġgast rectomy
Ġhypo attenuating
Ġvis c
Ġopt ion
Ġpass ive
2 25
Ġg tube
Ġ67 3
Ġdis e
thick ness
hus band
Ġces arean
im medi
lim ited
prox imal
t v
Ġ4 15
Ġhypo echoic
dr ink
Ġagg itated
Ġlav aged
Ġd ash
18 8
Ġmeth od
Ġtr aining
Ġped icle
Ġpure ed
Ġorthoped ics
Ġendor ses
as ms
iz em
Ġ27 7
Ġtrans mitral
Ġaz ithro
cardi as
n od
Ġsp inous
vi an
Ġcur v
Ġdiag onal
mil k
athy roid
vis it
Ġcare g
Ġd ss
sh aped
Ġmedic ines
Ġrequest s
Ġd luvc
Ġind epend
cal tco
l ist
th orax
morph onuclear
ult ras
Ġlast ed
thromb ocytopenia
she epskin
Ġhe at
ort ed
Ġls b
Ġhydro ureter
bas al
Ġsten oses
at ase
ne bul
Ġdevel ops
pupil s
Ġc rest
Ġdis loc
Ġhil a
s cre
Ġpp p
Ġ5 38
Ġch g
ant a
Ġreason able
Ġsatur ating
Ġbo ost
/ ?
f our
ral gias
Ġsu x
ot opic
20 5
Ġam monia
Ġmechan ism
29 0
seg ment
Ġ38 2
Ġpr act
Ġtam sulosin
el s
Ġnyst agmus
Ġ roughly
Ġhemisp heres
Ġmamm ary
Ġphotot x
i er
tom orrow
Ġper ianal
Ġw ts
Ġin otrop
psych osocial
Ġ5 25
Ġdfd dp
4 40
calc ifications
l c
pre cord
ad en
un asyn
dil t
ul cer
Ġ ending
Ġconvers ant
per rl
???? ?
us b
Ġtam iflu
Ġ25 4
lact ate
Ġhospital izations
Ġgreat ly
Ġpet ech
cl ot
Ġstrong er
arte rectomy
Ġass ault
Ġk lon
Ġro x
ator ies
Ġdesatur ated
Ġg lob
Ġimp action
heal ing
Ġt k
Ġb iv
Ġto oth
Ġtub ular
ym pan
amp in
Ġimmunosupp ression
Ġpo ol
Ġcharacter ization
to ok
Ġdash board
Ġinf use
Ġhyp ocal
Ġcr yo
bn zodz
v ag
Ġm ess
Ġto mm
ok en
Ġban ana
h ouse
Ġsyn agis
Ġcontract ility
Ġinstrument ation
Ġcompl iant
)( ~
recent ly
Ġprob al
Ġfx s
ist ic
Ġmamm ogram
pip eracillin
art ifact
Ġassist s
Ġsarcoid osis
m u
Ġw d
Ġground s
b ip
Ġfib ro
gu id
**] *
Ġl ord
Ġadnex a
Ġt ension
dis comfort
Ġph oned
Ġcompress ible
Ġpyl ori
hydr amine
Ġintra op
Ġsmok es
Ġp as
Ġ? ?????
vascular ization
Ġpar ac
Ġtent orium
Ġcream s
Ġur in
Ġwarm ing
Ġrad ical
Ġher oin
Ġfal x
Ġ3 34
Ġg fr
Ġ3 95
17 1
Ġbas ic
Ġmal le
Ġcirrh otic
Ġre evaluate
Ġg anz
Ġun steady
Ġmy asthenia
Ġb urning
Ġdr iver
Ġinter mit
Ġwash ing
Ġdegen eration
Ġ**] '
Ġ4 23
Ġreg ard
Ġsl ing
Ġpass age
iphen hydramine
up s
Ġ24 1
Ġn ap
Ġpoly morphonuclear
- ?
Ġ8 30
Ġcare ful
Ġtotal ly
Ġcav itary
**] +]
Ġstabil ization
l le
Ġprocess ing
sm x
al gia
ass emia
Ġspondyl osis
p nd
Ġ27 1
17 9
pos sib
Ġd w
child ren
se ptic
p en
Ġlos artan
18 3
Ġread d
17 3
Ġpra vastatin
Ġprompt ing
Ġl uq
Ġ4 28
i ary
Ġmg t
or iasis
Ġ6 35
Ġcall us
tech nique
f olic
l id
Ġencour aging
Ġam ni
f elt
s usp
Ġse ek
Ġshel lfish
Ġport a
Ġfal se
emp oral
Ġang ulation
ag ree
Ġap ep
i ating
ent eric
Ġbe aring
Ġdi e
Ġhepat ocellular
Ġ35 8
log ist
Ġtl cl
21 1
ax il
________ _
ret ro
Ġbreast fed
Ġconst antly
Ġbronchod ilators
Ġn ts
c sf
Ġperson ally
Ġvag al
leafle t
Ġ29 2
Ġem ission
Ġprost atic
Ġdeler ium
r le
Ġb ite
cv a
Ġir ritation
hypo active
Ġtoxic ology
bott led
at z
Ġe ver
if em
Ġlim itation
Ġg utter
Ġlum p
Ġco arctation
Ġan omal
Ġlong standing
Ġclim b
Ġr ami
Ġ5 35
Ġinhal ed
Ġd fa
dil antin
Ġent ering
Ġjejun ostomy
os ing
Ġcycl ed
Ġt ires
Ġwigg le
Ġ5 39
ie ves
Ġbene ath
c ns
Ġn itrate
us ting
Ġcyber knife
ox yl
26 5
prog ression
Ġpat ches
af ate
Ġneurosurg ical
mod est
Ġ ib
Ġse ason
18 1
Ġhung ry
Ġretrop ulsion
hemat ology
Ġhopef ully
Ġ5 33
pt x
Ġly te
Ġph al
imp aired
Ġteg aderm
Ġbel ieve
co ver
Ġcompression s
Ġde creases
Ġrem ark
Ġbiops ies
Ġn ard
Ġre ally
ire cted
Ġconsider ations
at rium
Ġsheath s
Ġcyan otic
Ġ45 7
Ġthy romegaly
og e
Ġimmun ology
k now
Ġun fortunately
Ġwork station
Ġling ular
Ġj er
Ġfl omax
Ġcanc elled
Ġli e
Ġox ide
Ġpersist ed
resol ving
ens ible
ud ative
k ne
Ġcons p
18 4
Ġ29 1
Ġ26 1
Ġprobal ance
Ġcount down
ab ine
ap pe
exerc ise
Ġal levyn
ery the
Ġcap ped
Ġparaly tic
Ġsp aring
rex ate
Ġcholangi ocarcinoma
Ġdiscuss ing
chole cyst
Ġtraz adone
Ġobt use
Ġfr ame
ĠĠĠĠĠĠĠĠĠĠĠĠĠĠĠĠĠĠĠĠĠĠĠĠĠĠĠĠĠĠĠĠĠĠĠĠĠĠĠĠĠĠĠĠ ĠĠ
p he
Ġup ward
Ġstimul us
17 8
Ġdic tated
Ġrot ator
Ġ9 23
Ġcr amping
an ching
Ġpres yn
sens ory
part um
Ġ4 27
calc ified
Ġanti hypertensive
or ient
Ġlat ter
calc iferol
Ġbigem iny
3 30
ic able
ron ate
Ġsacro iliac
ure a
ime ters
ab il
Ġ38 6
, .
te ens
18 9
Ġcond uit
symmet ric
Ġ23 4
ocardi um
Ġdes ensit
Ġhepat osplenomegaly
p oc
21 2
Ġ40 5
review ed
div ertic
Ġto f
Ġile al
pan cre
Ġ28 1
Ġ4 59
Ġde ceased
Ġover nite
Ġav b
Ġanalges ia
19 2
Ġser ious
18 6
Ġcp p
25 5
der mal
Ġ3 11
Ġsub sternal
g astric
Ġimport ance
Ġ4 77
Ġsupras ellar
p f
Ġcr t
Ġfron t
m ac
in oid
Ġsec s
d ressing
Ġ6 57
Ġlip id
Ġ4 97
port acath
Ġphenobarb ital
Ġelev ate
Ġpe ople
Ġqu int
Ġcon c
Ġneut roph
p olar
Ġj el
Ġoxygen ating
Ġtors emide
Ġn uclear
Ġnephro caps
Ġexp ress
Ġpattern s
Ġdig ital
Ġunre strained
d ad
tender ness
Ġbil irub
Ġf used
Ġatelect ases
= [**
l ater
Ġex ophy
Ġhem olytic
or ption
ul sive
as ion
Ġe b
cardi o
lor azepam
Ġeros ion
Ġchallen ge
Ġt ense
Ġh air
r un
Ġrbc s
Ġrecon structed
Ġsequel a
Ġe th
Ġ36 5
uc le
press ures
Ġprotr usion
Ġg sw
Ġ4 99
Ġy elling
chlor ide
yl ene
19 8
Ġend obronchial
Ġacc um
rs bi
Ġtoler able
Ġdes ired
sh th
4 20
Ġl usb
b ef
Ġconsp icu
ot rexate
Ġconsist encies
Ġnat recor
resp ir
Ġhouse hold
Ġrend ering
r are
om atosis
Ġ5 16
Ġradi ant
4 30
Ġherp es
n ose
Ġsar na
Ġempt ying
anest hesia
smok er
Ġd ur
Ġtaper ing
diabet ic
neurolog ically
top ical
Ġc opy
Ġno cturnal
Ġneob lue
Ġsh akes
cl ind
Ġsul cal
et iology
Ġcache ctic
00 4
yes terday
Ġapep aring
19 7
Ġrecommend s
Ġun equal
per itoneal
28 5
Ġb ites
Ġlat ch
Ġliq s
adv ance
bef ore
Ġcl audication
Ġcough s
Ġhydrox ide
d nr
f urosemide
Ġ3 96
Ġ5 45
Ġflu oxetine
Ġreg ards
Ġc surg
ent y
Ġac inet
Ġshoulder s
Ġw ih
Ġ4 44
re bound
ent al
u um
lo fen
Ġ3 97
Ġsp in
ob structing
Ġsul cus
s ource
ast e
Ġdialy zed
ultras ound
diff e
Ġaltern ative
Ġ8 60
Ġmon on
Ġ29 7
colon oscopy
b ody
20 2
Ġ29 3
am ing
ih ood
font anel
Ġ6 55
electro lytes
uct ive
18 7
su ed
Ġconsult ing
Ġcast s
Ġan bx
ening eal
Ġhyper inflated
mult iv
Ġ5 59
ant ine
Ġlith ium
Ġocc ur
Ġpartic ipating
Ġcooper ate
Ġly me
Ġrecover ing
Ġclim bing
f dg
Ġr pe
Ġes r
Ġse velamer
Ġsequent ial
e rect
el ihood
Ġocc ip
Ġ95 8
Ġsx ned
Ġaff ected
pancre atitis
Ġ40 2
Ġmy ocardium
Ġh ickman
Ġ8 58
Ġobsc uration
y el
rep olarization
Ġmmm p
trac heal
Ġapp les
Ġin qu
Ġy iel
Ġstruct ural
Ġt di
a ver
p ad
Ġdet ox
Ġp ontine
Ġcomb ined
t aken
inf lation
Ġl ed
res on
Ġdeterior ation
appe ared
Ġ9 40
Ġlate x
Ġb tw
Ġ6 10
Ġto ge
hypot ensive
ym ic
Ġvol v
Ġcar cin
Ġtoge ther
out put
brief ly
sched uled
Ġret inopathy
Ġchart ed
n ested
prob ably
num er
as y
leg ia
Ġsy l
Ġh ur
Ġhypo attenuation
Ġw ine
per cocet
Ġes c
3 10
m rs
te e
Ġprote us
or one
port ion
Ġ4 75
Ġacc ent
odi ol
Ġchol edo
Ġparal ytics
Ġf us
Ġref ed
com ments
check ed
Ġxan ax
j ugular
Ġcal oric
Ġman if
Ġ48 4
c ocaine
ro idectomy
ain es
Ġagre ement
res idual
rop ion
Ġqu etiapine
Ġprep are
Ġsh in
Ġiv b
cur onium
m vi
Ġs ad
Ġprod ucing
Ġdefinit ely
pel vic
possib ly
Ġexophy tic
Ġper ior
Ġ18 10
Ġdo zing
' [**
Ġarthro plasty
jaund ice
Ġsee ing
er gy
rh onchi
Ġrigid ity
ac ious
ut ive
sw elling
ev ening
Ġglyc ol
er cp
Ġpr ur
Ġc log
Ġpt d
Ġpure e
mech an
Ġrox icet
plast ic
Ġkef zol
i op
Ġass ay
Ġclo ck
mid line
p acer
en able
ag itated
ep er
exc ursion
um ing
lim iting
Ġacinet obacter
Ġappear ances
Ġa ka
Ġrec anal
Ġmiss ing
Ġcalc it
Ġfung emia
Ġ3 39
Ġconver t
Ġcontrib ution
Ġelectro cardiogram
sub costal
Ġsot alol
Ġr pt
un c
Ġband age
Ġc ust
Ġ> /=
Ġmonon itrate
tub es
Ġir rit
Ġperibronch ial
Ġoint ments
Ġrespon siveness
bil at
Ġv ary
Ġc row
Ġb oot
sal va
Ġs ct
Ġ6 90
ich ia
Ġd if
Ġanest het
Ġtri age
bronch oscopy
com b
quest ion
t ach
Ġs oc
iz z
Ġmicro catheter
el ines
Ġhab its
ambul ating
Ġ5 48
20 7
dem and
m usc
4 80
Ġend arterectomy
Ġs ml
ult ured
it ect
19 1
reple te
in ing
Ġu c
Ġchronic ity
Ġpo x
proced ural
Ġimpair ments
(- )
Ġ3 41
Ġcv r
illo facial
Ġsyl vian
Ġun controlled
Ġank les
Ġdet ection
b eat
th orac
Ġad at
Ġechocardi ography
Ġsatur ated
Ġhy aline
ventric le
Ġcar seat
Ġloos ening
Ġd k
Ġflex ed
Ġrep et
r ue
ul ating
tib c
afle t
st ress
sub arachnoid
Ġboy friend
24 7
Ġfdg s
le tharg
Ġket ones
Ġfer insol
cp b
Ġrecor ding
inc isions
Ġpneumob ilia
Ġm aze
0 20
3 70
Ġper icardiocentesis
Ġob e
29 5
d ialysis
Ġl pm
Ġr cc
Ġ7 45
Ġgreen ish
Ġaccept ed
19 9
Ġdec ide
Ġ48 7
Ġcrystal loid
z en
igh ter
l t
Ġ28 2
ometh acin
Ġde cr
metast atic
l od
qu ality
Ġpres erv
Ġp ace
20 4
s ummary
Ġcr p
au ce
Ġsome thing
Ġ____ _
Ġpart ner
phot otherapy
Ġ5 49
Ġpk u
Ġ7 18
Ġwid th
Ġ7 55
Ġed ges
Ġ ild
Ġinter polar
Ġ35 2
Ġsub pleural
Ġapples auce
report s
b ital
l ated
Ġexam ine
we igh
igg y
Ġlik elihood
itud inal
Ġ igm
Ġspir iva
y of
Ġ37 7
Ġurobil n
min ant
Ġhemic olectomy
kne e
al act
Ġconsider able
Ġdefinit ively
Ġo un
Ġzol oft
Ġabut ting
bl ack
Ġarch itect
Ġj ud
e jection
Ġextrem s
me als
Ġlg ib
vent ed
il ing
Ġcl dy
st rength
Ġf resh
Ġ28 3
Ġintub at
ru it
Ġcataract s
Ġgro ins
Ġam enable
Ġmot ility
ar ound
Ġan cef
ap nea
Ġblanket s
iot ropium
Ġcare fully
Ġendomet rial
mater nal
Ġrhabdomy olysis
e en
e eg
Ġverbal ly
Ġarth ralgias
Ġg ol
iod s
sub optimal
transition al
Ġsp itting
med icine
Ġbarbitr t
Ġsp ong
Ġdi re
Ġpost ed
Ġmand ibular
agg ressive
Ġm cq
Ġ4 48
Ġgrow n
Ġcoag ulation
Ġintegr ilin
om er
om ot
Ġdebr is
Ġempt y
epis ode
Ġso ap
enol ate
Ġvert igo
suck s
Ġf iring
18 94
pl t
Ġsupport s
month s
Ġthromb osed
ate ctomy
p uff
Ġcont raction
, ,
sc opic
Ġadjust ments
Ġpick ing
Ġde ad
Ġpleur a
Ġsw e
rehab ilitation
ist ant
Ġallow s
Ġaro used
Ġrheumat oid
Ġme al
Ġstat ic
19 3
erv ice
Ġ( ).
24 1
Ġneg lect
Ġbl ink
g irth
ip ped
Ġimp ing
hyd ral
b undle
it ch
Ġres us
Ġche ek
Ġvolv ulus
Ġarr ythm
Ġclot ting
Ġautodiures ing
t urn
iv ir
Ġlr g
n yst
re current
ob ia
Ġcertain ly
w nl
Ġ4 46
tm p
Ġur s
Ġn ml
but t
intra ven
Ġ4 76
________________ _________
ex tr
Ġhapp y
Ġ4 96
advanc ed
Ġcon ray
Ġsy mm
Ġmod ified
pac emaker
impro ving
Ġann uloplasty
Ġmy opathy
Ġ5 75
aps ular
Ġrec ogn
Ġwor st
Ġtermin ated
Ġpartic ipated
t ies
hys is
Ġshock ed
ric tion
Ġ9 80
lev ophed
mod ilution
col ored
os us
24 2
Ġl ge
Ġure th
Ġex udate
trop onin
f rontal
w ks
Ġappl iance
oph enolate
Ġ" [**
re li
con j
ip enem
Ġlong itudinal
Ġ5 57
Ġt ympan
Ġampl atz
Ġ3 32
sp ir
Ġanastam osis
Ġ26 2
Ġultras on
Ġ4 38
19 4
Ġdesensit ization
ig r
Ġshock s
i ro
Ġinst it
Ġventil ate
) [**
Ġm um
Ġass umed
Ġreson ance
c ision
d x
t ight
os um
Ġnon verbal
Ġperine um
Ġantecub ital
chond ral
Ġ7 25
Ġins ult
Ġsett le
oph thal
Ġunderst ood
Ġintras ervice
Ġkg s
il ac
Ġpyl orus
imeth icone
Ġrtx ns
encephal opathy
h aving
Ġbs c
jaund iced
Ġhold s
Ġstre pt
d izz
assist ed
are r
Ġa unt
Ġep ogen
ort al
Ġappl icable
Ġvac uum
Ġspect ral
sub dural
Ġphosph atase
g ap
Ġtempor arily
Ġmeth otrexate
transf used
Ġind ent
of orm
Ġcollect ed
lo vir
Ġ7 34
reson ant
0 10
Ġfracture d
Ġclon us
str ips
c ms
Ġidentifi ers
order s
spe ech
m ade
y algia
Ġmac ular
es rd
Ġextrem ites
ox an
Ġvas o
Ġidi opathic
f il
Ġneur on
20 99
b d
n ont
Ġ38 5
Ġtra ction
Ġbag s
os ine
Ġun related
arr hythm
Ġful minant
ar ous
ped iatric
Ġvod ka
t max
Ġread ings
Ġsup pl
emer gent
anticoag ulation
Ġcc s
Ġevid enced
um ped
Ġ22 30
lip ase
acol on
Ġextra axial
Ġferrit in
Ġobtund ed
j ust
Ġrec ruit
Ġsudden ly
Ġpat ellar
opharyn geal
c ot
ph osph
ps h
h h
flow sheet
20 3
Ġnit rop
Ġtw ins
rup t
Ġ( )
ly te
Ġps oriasis
Ġtom ography
Ġadnex al
Ġpaper work
Ġmobil ize
Ġb roke
Ġcogn itive
Ġdefib rillator
0 25
k q
bact rim
30 5
22 3
Ġz oster
general ized
athe cal
Ġb ad
220 6
alact oman
am ination
Ġaort o
Ġstent ed
Ġappend ic
ext ra
Ġtrial ed
Ġacc o
ar cer
Ġe ob
Ġde pt
Ġgl en
phe w
Ġde grad
Ġrepeated ly
Ġventricul omegaly
Ġsurv anta
Ġamiod orone
Ġth reat
Ġophthal mology
re placement
ear ing
clin ician
wal ker
ot r
iple gia
Ġlapar oscopic
Ġcontinu ally
Ġsupracl inoid
Ġhem mor
par ietal
in ternal
Ġb ell
Ġmultipod us
s ut
24 3
Ġ36 9
significant ly
om atic
Ġrep aired
init iated
20 6
Ġsub gl
Ġinv asion
Ġpreca ution
Ġde hydrated
ob tain
Ġhyper resonant
Ġp boots
out s
Ġbi apical
Ġrhonch erous
per cutaneous
Ġposter olateral
Ġcar afate
bic arb
Ġab err
immun izations
nont ender
Ġre vascularization
av p
el ate
Ġn u
st and
Ġ36 7
Ġcent esis
a uscult
Ġ3 42
Ġ9 14
ved p
Ġdesat ted
iggy back
Ġbe ers
Ġdis ruption
Ġtrans it
suction ing
Ġguid elines
y east
ac cid
Ġlocal izes
hct z
22 2
23 6
at r
ock s
load ing
Ġ50 5
ex ternal
Ġadd ic
22 7
Ġ5 95
sh ip
Ġgu ia
follow s
cy ste
raf iltr
Ġf es
Ġg gt
wor ker
sens it
Ġy of
Ġpass y
ol ip
Ġ5 27
fing er
Ġle pt
pt iform
ak ed
Ġg er
head ache
Ġv dg
ent eral
Ġ7 10
Ġlow ered
Ġshift s
Ġquint on
Ġ8 70
Ġenhanc es
Ġerr or
Ġcorp us
Ġr ap
Ġdrain able
Ġch ains
g fr
Ġhand ling
Ġconfirm ing
l ate
Ġk ink
Ġst aging
Ġ30 6
ort ion
t oxic
im ens
coag ulation
oscop ically
Ġnasal ly
ed s
Ġw it
Ġflex i
Ġ4 18
Ġmu ir
Ġcaut ious
ap heresis
Ġ3 12
Ġcal var
a ute
Ġcl ick
Ġsurg ically
Ġpres cription
Ġtag ged
Ġple th
Ġbring ing
0 80
ne phro
Ġretroper itoneum
numer able
Ġtrans valvular
Ġb ud
Ġ3 14
Ġbab ies
23 3
Ġaz yg
Ġcephal ospor
le sion
Ġurs odiol
Ġqu ads
Ġdil utional
mar ried
Ġo med
ips y
bact eremia
Ġsil k
Ġhyperg lycemic
g d
Ġun witnessed
per for
Ġcont ained
Ġag ed
Ġg em
22 8
Ġ5 19
Ġbic eps
ric t
Ġ[ [**
Ġpresyn cope
c n
Ġin n
get ting
Ġpossib ilities
at ro
Ġdi aphragms
Ġco ars
Ġple x
pr ilosec
Ġbrother s
osm ol
g out
Ġn iddm
Ġin appropriate
og t
kcal s
Ġsay ing
Ġ5 46
Ġmel d
Ġt il
Ġdis s
Ġinfiltr ative
c ement
24 6
Ġ36 6
Ġliv ed
cm o
Ġdivert ing
r iding
ut er
Ġph arynx
com ing
rep air
aml odipine
Ġ30 7
Ġantib odies
reg imen
orb ic
mov ing
duoden al
m is
30 1
Ġdig it
Ġls cta
ne ut
start ing
Ġ7 75
oh um
4 60
Ġ5 28
Ġalert ness
Ġdep loyed
Ġt ch
] ,
Ġ5 55
Ġb urn
Ġsh ape
fol ate
Ġmax imize
Ġe z
Ġho h
Ġperior bital
Ġgastro gra
Ġexpector ated
Ġtk r
ohum eral
Ġp fts
Ġtr f
cyste ine
on tal
ugh t
med iastinal
Ġcl amp
Ġre tain
Ġf an
220 5
loy ment
Ġforget ful
Ġh ida
20 8
cv l
emper atures
Ġperform ace
Ġdestr uctive
Ġutil izing
precord ial
t rem
u op
gu arding
Ġopac ifications
Ġbibas al
Ġ8 90
Ġmeg acolon
Ġ**] -[**
Ġsu cralfate
Ġrec om
leg mon
enlarg ed
ang ing
Ġintr athecal
g ross
cal s
Ġgua ifenesin
4 10
Ġinf requent
Ġpar amed
wheez ing
Ġwas hed
Ġneut ral
dys lipidemia
Ġr ails
Ġpro ph
um ption
Ġfib ular
Ġdes ating
ask ed
nutrition al
Ġbum ex
22 6
Ġcal tco
Ġcan ula
Ġpac o
h ole
Ġbel ieves
ter y
Ġexam ple
Ġgranul omatous
Ġg li
et s
Ġ14 74
Ġten acious
Ġh oliday
Ġ# *
Ġtl s
Ġbo ok
Ġdent ures
Ġdown going
Ġun i
b w
ur ant
Ġsqueez ing
pre term
Ġleuk ocytes
Ġel ix
@@ @@
Ġsc ores
Ġhapp ened
Ġards net
Ġcorrespon ds
Ġfl accid
Ġcommun ications
orex ia
Ġpiv ot
Ġ68 5
Ġjejun al
Ġbul ging
Ġp axil
20 9
su ff
one x
Ġhol os
Ġprojection s
u ate
Ġt icu
Ġ8 10
ph en
Ġost ial
Ġcr ash
Ġbronch ospasm
Ġtrache omalacia
Ġ4 11
Ġper cussion
Ġwat ching
lact ulose
gall bladder
cl av
Ġlay ing
dilt iazem
Ġp ri
Ġdis lod
Ġin numerable
Ġshift ed
Ġpleuro desis
Ġstret cher
Ġamb isome
under lying
lev othyroxine
Ġsilhouet tes
Ġdial ys
Ġthal amus
ne on
Ġbed s
sat ur
reflex es
Ġann ulus
prob le
Ġfeel ings
Ġorig ins
er oform
hb a
Ġcle arer
Ġhist or
Ġfrustr ated
Ġparac olic
Ġdi ovan
Ġret ard
Ġvertebra e
yl cysteine
Ġ37 9
Ġb es
Ġad ult
amed ullary
l pm
Ġ3 16
Ġ04 30
gro in
Ġglen ohumeral
Ġ38 8
Ġect op
Ġhydrox y
Ġswallow s
is pl
Ġden ying
Ġ4 98
Ġsp asms
cc o
arp al
Ġmir tazapine
f ebrile
Ġgo iter
Ġind omethacin
Ġintox icated
c ome
ax ia
Ġrol l
Ġreaccum ulation
22 9
bi opsy
Ġbare ly
con fusion
Ġ37 8
Ġprompt ed
Ġcal tibc
**] (
Ġin cont
Ġpalp ated
Ġfibroid s
intervent ion
dw n
qu ence
23 8
Ġnip pv
np note
del ayed
Ġd yst
Ġn iece
Ġis o
Ġ4 95
Ġheight s
Ġbile aflet
Ġinfra hilar
Ġport acath
Ġm of
cabg x
un less
Ġprob np
ather oma
Ġcr ush
Ġj r
op arietal
Ġres ected
ne phrine
Ġquestion ing
cult ured
Ġmanip ulation
et ing
Ġ6 14
Ġperip ortal
Ġevent ual
Ġtransamin ases
oc on
Ġobject s
Ġc ul
imic robial
traum atic
d ementia
Ġ48 6
f ungal
o ic
Ġh ifi
lipid s
st ay
Ġlis pro
resol ution
23 7
l bs
Ġext rac
bl ing
Ġ4 65
diagn osis
narc otics
) )
Ġ( %)
ig e
Ġaspect s
Ġmelan otic
ia e
Ġpariet o
auscult ation
Ġ26 7
vag inal
b utr
Ġulcer ations
Ġcrow ding
s vc
dri fts
Ġremark s
multiv itamin
Ġim i
Ġfe v
Ġkn ob
Ġcorrel ated
Ġbroad ly
ill ar
Ġi e
Ġmyc ophenolate
r if
ale xin
Ġcigare ttes
Ġoverl apping
Ġstreak y
Ġ6 12
congest ion
Ġsc op
Ġin place
ls b
p ull
Ġvent i
Ġob lit
Ġaa o
Ġreadd ress
er on
it ched
iv ering
23 9
Ġp ect
Ġ5 26
Ġgastro jejunostomy
comp ression
Ġsubc apsular
Ġp iggyback
Ġv fib
Ġmg so
Ġperine al
Ġsec urity
aster ide
eth ylene
butr in
f x
m ake
Ġob l
Ġprophyl actic
Ġappendic itis
ic lovir
Ġ5 51
Ġaltern atively
emb olic
det ails
Ġ5 11
Ġr y
Ġpul sus
old ed
Ġdepend ant
Ġklon opin
ic us
ak in
Ġ35 6
Ġ09 30
t pn
Ġb inder
n as
pan creatic
g round
st rong
Ġdd avp
Ġr hab
Ġ37 6
Ġoun ce
Ġ9 20
Ġsp ic
ph alexin
Ġmy ocl
Ġpur pos
Ġanesthet ized
spe aking
Ġverbal ize
Ġrecon stit
bet a
Ġobsc ures
Ġn b
Ġve curonium
Ġasbest os
Ġbet amethasone
val ium
Ġ5 97
Ġap c
Ġselect ively
Ġemb o
Ġchole calciferol
Ġf c
op enic
Ġinc idence
Ġus oh
Ġesophag ogast
pres erved
Ġn ac
Ġdim ple
opy r
Ġthorac o
Ġwih t
Ġmal positioned
Ġaltern ate
Ġcreat ine
bet ter
Ġspe ed
seiz ures
Ġ10 50
ceftaz idime
Ġ4 39
Ġprecip itant
mu ir
l ix
Ġ# #.
le c
Ġle s
Ġ40 6
Ġ37 4
Ġobsc uring
Ġbrid ging
la a
on omic
Ġ05 30
set t
Ġartic ular
Ġs es
Ġl ady
pro cess
0 40
m uch
cond uction
rop hys
Ġnas opharynx
intr ac
in ded
Ġarr ive
Ġlacer ations
Ġrecruit ment
r vr
Ġb us
Ġdis covered
Ġext raluminal
ady ne
Ġsaf ely
Ġt iotropium
Ġac he
Ġpalp ate
Ġintr amedullary
osmol ality
Ġps a
Ġo u
36 5
Ġf ish
Ġconsent ed
prov ide
q rs
Ġinter action
25 4
38 5
temp oral
Ġdivert icular
Ġmof etil
Ġpol ice
plate lets
g adolin
Ġt iring
Ġf ill
20 98
comple x
s it
Ġab rupt
ep ines
Ġ50 1
elev ation
int oler
open ex
psy chiat
alactoman n
gadolin ium
Ġmal acia
Ġcrypt ogenic
Ġextens ively
Ġdisc itis
z ac
Ġlact ation
bas ilar
r yl
ab lock
Ġcont amination
mov ement
Ġtracheobronch ial
3 90
Ġ4 16
pro st
ox ia
pro d
w ater
Ġ5 99
num ber
Ġtrans esophageal
br u
Ġtear ful
Ġnodular ity
can n
Ġsubcutaneous ly
ap ro
al c
Ġpre vascular
Ġant imicrobial
pro te
hemodynam ics
urg ical
Ġcalc ulus
or ter
ery thromycin
0 30
od ys
app arent
Ġlept om
Ġan c
Ġcleans er
Ġmigr aines
qu it
pre lim
Ġ \
Ġse vent
Ġult rafiltr
Ġintrap elvic
Ġcard izem
et ics
Ġu v
Ġestabl ished
Ġclog ged
er ization
ad es
Ġder ived
chol ithiasis
Ġr ust
Ġang inal
Ġvas od
24 9
sl iding
Ġv paced
Ġcoll ision
Ġbrown ish
f in
Ġzol pidem
26 9
Ġey el
des pite
Ġr ating
Ġbacter i
Ġval g
Ġcorrel ating
Ġtriple t
Ġster noc
Ġretard ation
im ate
ast oid
dis position
Ġflex ible
arth ro
Ġg s
anc iclovir
Ġret ri
ri ol
ug in
Ġrel i
cl on
Ġval pro
Ġ30 4
Ġbic uspid
Ġ5 76
Ġte xt
non contributory
perf usion
Ġout er
Ġ40 9
Ġ9 38
Ġinc arcer
Ġpa uc
Ġ66 7
Ġc ous
Ġac rom
29 1
g ain
Ġdos ages
Ġcorrel ates
or dil
Ġanest hes
Ġvert ical
Ġguardi an
Ġl lsb
Ġ9 10
Ġ8 27
ann el
u ana
Ġg um
Ġintram ural
Ġne phew
Ġill icits
Ġg ase
Ġreplacement s
Ġdfd kq
Ġpre v
Ġold er
sy nephrine
Ġhep locked
r age
cough ing
Ġu es
Ġ36 8
nebul ization
Ġz yg
bil icus
Ġpred icted
Ġpush ing
return ed
Ġn ine
ob ar
26 1
delir ium
24 4
Ġengor ged
~ ~
Ġpulse less
Ġcoun s
Ġplasm apheresis
bec ame
Ġmid noc
Ġpresum ptive
b irth
or o
Ġtube feeds
Ġam ik
Ġ40 7
del ivery
alk phos
25 1
24 8
Ġdes ated
es p
cor ne
infar ct
i itis
Ġhyper active
ain ts
Ġ5 37
Ġ5 56
ph n
Ġna hco
Ġ40 4
Ġj x
Ġident ity
Ġhypert rophic
Ġmay be
Ġtl so
ip ment
Ġ5 17
Ġout let
trache ostomy
3 15
Ġdr ank
p ale
Ġbac lofen
Ġhome less
Ġrelation ship
26 8
tw ice
spect rum
at ch
Ġ9 22
pre gnancy
Ġbronch omalacia
Ġlump ectomy
op ia
Ġpneum on
Ġmr v
Ġdesat ting
r andom
mon it
rol ate
mechan ical
' ',
w ash
Ġ3 143
Ġpneumonia e
Ġspl inting
g ot
Ġpl cm
Ġ37 3
Ġ6 27
append age
Ġ6 37
0 60
b ld
Ġnerv ous
Ġtet racycline
m es
Ġd iphenhydramine
Ġmanag ment
met formin
clo ck
Ġaqu ac
ace utical
Ġcar pal
Ġexp iration
r amycin
Ġhem operitoneum
Ġamp het
h ood
Ġphal anx
Ġ6 95
Ġwt ih
Ġpn x
palp itations
sup ra
Ġas ystolic
Ġreple ting
Ġrs c
pr bc
Ġhyp osmolality
br ings
Ġeosinoph ilia
Ġt g
Ġmv o
Ġplex us
d ka
y ed
oc r
roph ied
5 20
d ear
col le
mg s
Ġsx ning
rest less
Ġ46 6
injur y
q tc
p antoprazole
Ġ46 3
Ġbath ing
Ġplac em
Ġw dwn
23 1
Ġ35 3
Ġinst illed
Ġconspicu ous
igh b
ugin osa
Ġ3 43
Ġtob ra
Ġgase ous
Ġhepatic ojejunostomy
Ġdob off
palp able
Ġ60 8
Ġexp ressing
b eg
Ġs ing
iz ontal
hyper g
Ġcardiopul m
fib ro
Ġan om
em ask
are st
Ġbag ged
Ġescal ation
Ġcyclospor ine
ij uana
Ġb all
Ġ9 70
omon al
. ?
Ġrif ampin
y mal
26 2
Ġwater seal
code ine
to es
Ġverbal izing
Ġcondition s
Ġconserv ative
local ization
opul monary
Ġverte bro
Ġwax es
47 5
raum a
p ump
v oid
Ġch ance
Ġperiod ically
dem onstr
Ġne oplastic
syn cope
6 25
Ġbel ong
Ġutil ized
---- -----
Ġnas h
39 5
Ġab orted
Ġpre load
Ġest gfr
coll apse
tob ramycin
Ġrus b
Ġdire ctions
? "
m f
electro lyte
w et
Ġunf olded
Ġcephalospor ins
Ġv iv
Ġpunct ured
re w
vent ilation
inter costal
Ġsl ices
Ġide ation
discus s
Ġ12 28
Ġ~ [**
Ġt arry
yp her
co very
dizz iness
4 70
Ġun ilateral
23 4
33 3
Ġhap t
Ġb ox
Ġal ph
in er
or ol
Ġback side
p oly
al ax
Ġanomal ies
Ġdisk us
Ġod or
ib e
per cent
m ics
dis section
m ail
Ġur ic
Ġ35 4
akin etic
u em
Ġpres ep
Ġspic ulated
Ġm ut
Ġint us
Ġamik acin
aa a
Ġm ys
Ġre insert
Ġ4 74
20 97
Ġs cc
Ġretr acted
occasional ly
Ġcoagul ase
Ġ08 30
Ġst ation
ep ile
cro se
**] /[**
Ġsu v
clo udy
49 5
Ġplcm t
Ġdisc oid
Ġdemineral ization
Ġn ucle
ex peri
Ġfasc ia
re check
Ġph legmon
Ġrhab do
st raw
Ġm ature
Ġ4 34
ide x
n if
Ġreass ured
Ġactiv ated
Ġw o
Ġsub sided
Ġ8 75
Ġbink i
28 8
Ġspec ies
b ag
Ġv icu
ap pro
hydral azine
Ġst ri
Ġ0 000
Ġse ctions
und e
Ġcent imeters
in ver
Ġ150 5
opress in
Ġexp ressive
ipt yline
Ġtransplant ation
Ġpnd ing
, ?
Ġsign if
Ġinfar ctions
Ġste ad
e ve
ro ot
Ġpro c
Ġswit ching
Ġcontribut ed
Ġhemmor h
b iventricular
Ġcomp uter
Ġb at
Ġb uff
Ġrec ieve
Ġ5 77
Ġasc orbic
f illing
Ġth ym
Ġpic a
mand ible
dig oxin
________________________________ _________________________
mon day
Ġc cc
vi ac
visual ized
Ġe j
Ġ5 18
Ġ36 4
il ine
ster oids
r us
az epine
Ġcop ies
Ġ48 9
Ġre applied
dr aining
def ect
gav age
mn phn
Ġscap ular
Ġgranul omas
25 2
Ġhead s
int ake
Ġcrani oc
al veolar
ne cro
Ġ6 22
35 5
expl ained
Ġpro chlorperazine
Ġenter ocutaneous
appreci ate
Ġ6 15
p yl
con genital
Ġimm ob
Ġleptom eningeal
Ġthromb otic
Ġtur p
am b
os itis
par athyroid
az ithromycin
Ġleak s
sever ity
Ġelix ir
res ection
Ġk ick
Ġ% .
Ġt emperatures
ve in
Ġlight headed
Ġvary ing
27 2
bound aries
n ant
it z
Ġpe pt
Ġton oc
erythe ma
Ġacet mnphn
Ġpro duce
transf use
Ġparap legia
d ocusate
Ġport ug
Ġholos ystolic
Ġbet ablock
Ġdec ann
Ġan orexia
Ġun loading
ree ch
Ġb u
Ġun co
Ġarriv ing
oste o
lid ocaine
cy an
Ġdeterior ated
Ġap artment
de termined
Ġequ ipment
Ġthin ning
cs m
Ġrestrain t
neurolog ical
Ġs ump
Ġ5 68
Ġneurolog ist
Ġcorrect ly
Ġpet rous
ct al
no on
Ġradiopharm aceutical
Ġeb v
t urning
Ġquant ity
i ar
Ġ200 0
opyr rolate
Ġqu in
Ġven od
Ġconfir ms
l ife
Ġe a
Ġdis ability
Ġx eroform
deg rees
tro chanteric
Ġneuro genic
Ġcal chct
Ġaden osine
Ġcontamin ant
Ġ06 30
Ġcomprom ised
sh ot
Ġ7 47
Ġcatheter ized
r iss
16 00
29 7
sh oulder
Ġfac emask
Ġste reot
h odgkin
k i
Ġcre ated
Ġdys rhythm
s ch
Ġcall osum
Ġaccum ulation
Ġb n
og le
Ġup titrate
Ġz ero
Ġtr iphasic
Ġmet ac
remov al
obes ity
Ġ7 24
ĠĠĠĠĠĠĠĠĠĠĠĠĠĠĠĠĠĠĠĠĠĠĠĠĠĠĠĠĠĠĠĠĠĠĠĠĠĠĠĠĠĠĠĠĠĠĠĠ ĠĠĠĠĠĠ
Ġfo am
Ġneutroph ils
Ġstead ily
Ġas ap
Ġmet ab
Ġmicro cy
hyp onatremia
25 9
ad ded
25 7
Ġhepat is
12 00
ic tal
Ġin cons
Ġsw abs
cg a
Ġtransf ormation
sim ple
Ġw armed
Ġoccassion ally
Ġres erve
Ġper co
requ ency
Ġun coordinated
est ril
26 3
Ġ30 2
Ġsch ist
m ask
Ġ ig
osph enytoin
Ġfast ing
Ġpost p
Ġacet ylcysteine
Ġhor izontal
Ġspong e
Ġc up
23 2
Ġbreast s
diures ed
Ġawak ened
v est
heal ed
lum bar
Ġum bilicus
Ġlo a
te x
Ġepile ptiform
Ġbl bs
Ġun cooperative
Ġdisorder s
i y
or x
Ġis ch
Ġ35 1
azolam ide
cell ulitis
Ġeccym otic
Ġf ear
Ġin cre
Ġtachy p
Ġ23 30
Ġ38 7
Ġws clip
i ans
Ġlik ley
Ġmagn et
monit ored
ome ter
Ġret icular
Ġoph th
Ġ35 7
d t
Ġc spine
Ġes char
stent orial
rash ing
ss i
Ġencephal opathic
Ġb uck
pt um
Ġlow est
aff ective
Ġcyt oxan
Ġbup iv
m en
amp y
25 8
29 3
Ġcec al
ob al
Ġins ide
Ġlev oxyl
Ġoper ators
p vc
Ġg erm
li e
b f
Ġval salva
Ġaut onomic
Ġ5 98
ben z
Ġl ister
Ġ5 58
Ġfail s
ap to
pat ch
25 6
Ġment ation
Ġfluor oscopically
Ġre n
18 00
butt ocks
Ġh cap
Ġro b
int o
Ġinit iating
ap ex
cre p
thick ening
Ġac know
over load
Ġepile psy
Ġtricycl ic
Ġl amina
se cs
heal th
Ġ68 8
Ġpneum at
Ġ47 9
compl iant
Ġ7 39
Ġret x
aly zed
orol ac
it ux
Ġ8 45
Ġpoly ethylene
Ġ6 97
Ġpart s
Ġduct us
Ġsub chondral
Ġ(- ).
Ġex lap
Ġint est
transition ed
Ġsm r
mov es
en ess
Ġne ighb
Ġme ant
40 5
Ġpar af
ardi ac
Ġcav ities
Ġredem onstr
Ġover riding
Ġwarm th
fail ed
alactomann an
Ġdisloc ations
Ġac hes
Ġlat ched
Ġp v
ni i
inc isional
ri o
26 4
Ġsim ilac
wean ing
present ly
Ġintus sus
o am
micro biology
non distended
Ġthy roidectomy
re positioning
occ upation
Ġawak ening
ran olol
Ġlocal ize
ot emia
Ġnod ded
5 60
Ġ5 78
Ġmusc ulature
Ġstiff ness
Ġguia ic
l r
Ġadj usting
whe l
Ġ10 37
26 6
Ġf it
Ġex it
ri x
dop amine
Ġdd d
28 7
ines is
g abapentin
Ġcp b
a res
Ġdr aing
Ġcareg ivers
non laser
press ors
rophys iology
or ig
Ġit ch
pot ential
Ġcircum cision
Ġ( #
id om
ist ration
Ġ**] ).
Ġ**] :*
35 1
Ġdraw ing
vers ing
oge ther
un responsive
ispl enic
al emic
od ense
Ġmark er
Ġ10 45
appear ance
ro t
Ġtrap ez
a i
ver t
Ġstr aining
Ġpas se
op ing
Ġlab eled
hyper bili
Ġwr ite
m np
Ġventil ating
Ġpauc ity
3 35
o ing
Ġpneum onic
Ġfor amina
Ġap art
Ġcm l
Ġadv il
gr y
lymph adenopathy
Ġintussus ception
ic ating
assist ance
Ġpsychiat rist
Ġanalges ics
in yl
oc obal
Ġ6 56
Ġ6 53
ore ctal
qu es
Ġassist ing
Ġhel ps
Ġsus tain
Ġprov ides
pt s
Ġpe ptic
clin ic
Ġs lo
27 6
dr ip
oper ating
t id
t unn
Ġed uc
Ġintravascular ly
Ġl ax
Ġ8 99
Ġic ps
e as
om ark
Ġpr iv
de x
be e
Ġcoun ter
chole st
Ġdimin ish
Ġst aining
wheez es
25 3
ment ed
integr ating
Ġmanif est
Ġroot ing
Ġtri adyne
t ip
Ġt es
Ġp ub
ro cyt
h o
Ġ9 45
Ġnon contributory
omin ate
Ġhemis pheric
leb itis
Ġacco unting
ment ioned
28 2
Ġspir its
ovir us
Ġs umm
Ġoff icial
syst em
Ġsc ds
h im
Ġdebr ided
st ates
Ġx openex
d istent
Ġq flow
Ġdist ortion
f ormed
27 8
Ġnh l
j p
om idate
Ġmed iastin
trans dermal
hem is
n orm
Ġc left
27 3
there fore
b os
28 3
rub s
Ġ7 97
Ġcomp uted
ox ime
ak inesis
Ġaccur ately
ow ed
Ġtriglycer ides
luc id
Ġf id
em inal
Ġam nt
Ġsh orter
Ġiv ab
Ġstart s
comfort ably
Ġchem ical
Ġpowder s
ocobal amin
Ġp ps
Ġam itr
Ġis ordil
inc ing
lab or
Ġrecons ult
Ġcholedo cholithiasis
Ġan ca
29 8
Ġbn zodz
ir regular
Ġan gry
remain der
Ġrem inder
Ġgirth s
f iciency
Ġf osphenytoin
clin ically
level s
Ġa in
ach s
Ġhydr ated
cef azolin
Ġutil ize
5 30
it abine
Ġqu ery
Ġpar otid
Ġw anes
j unction
Ġ ****
ion ate
Ġe lim
Ġpos ts
Ġpent obarb
Ġbuff ered
Ġ3 92
Ġmagn um
Ġhb v
perfor ation
el ol
vi ii
Ġw and
Ġthromb o
Ġvas opressor
Ġcand id
Ġaspergill us
Ġb ending
Ġtyp ically
Ġns aid
Ġcompreh ension
Ġno str
Ġex posed
Ġnon occlusive
diagn osed
Ġ01 30
oscler otic
los s
Ġgol yt
ap aque
post operatively
v f
Ġper isplenic
Ġtwit ches
pen et
vir al
l ib
Ġvis apaque
Ġperco ce
Ġw rong
Ġas ystole
Ġj tube
Ġ48 2
Ġs imethicone
or ced
Ġmg m
Ġ50 7
Ġ50 9
Ġacet mnp
g tt
27 4
45 5
th iamine
00 7
Ġ7 48
present ation
intrac ranial
26 7
Ġorgan ism
0 15
Ġm er
Ġ5 54
Ġcomple ting
lim its
st omach
Ġsh aped
Ġmusc ular
Ġnause ous
p ly
c emia
Ġinver ted
Ġrelax ed
Ġdiscontinu ation
Ġpreserv ation
distent ion
esoph agus
Ġ3 94
intoler ance
h ips
rat ia
endoc arditis
Ġ6 76
re q
as d
an us
ot roph
co al
Ġprof ile
Ġlabor atories
Ġosmol al
Ġn n
Ġfh p
coag s
Ġaffect ing
Ġarthro pathy
gua iac
Ġcoll imation
l af
y rid
Ġtran stentorial
Ġfe as
Ġlaryng oscope
plan ned
Ġaquac el
i abp
Ġacc el
toler ance
Ġas e
Ġtrans hepatic
Ġhyper inflation
neuro pathy
Ġcad aver
Ġnorm ocytic
Ġtrig lyc
prol apse
Ġhapt oglobin
br ach
Ġbreast feed
Ġket orolac
Ġhistor ian
am s
Ġ8 15
Ġx ii
sx n
Ġtomm orrow
Ġ6 47
setting s
Ġ- .
ist ics
Ġtrans parent
Ġ36 2
inter pre
Ġarriv es
am ole
inf luenza
Ġextr insic
id us
Ġsc i
Ġfut her
Ġbelong ings
f ri
Ġ ud
up ogen
Ġopt ic
present s
3 45
ul ence
Ġ9 48
ocr its
r ating
ap artment
Ġ5 96
Ġstat lock
Ġacid emia
ill icit
27 9
duct ed
pres umed
Ġker lix
coc cyx
yrid amole
Ġis l
Ġeval aute
Ġtrache oplasty
ga it
Ġ6 32
Ġmin im
max illofacial
e om
oly zed
Ġpick ed
Ġpetech iae
Ġsomet ime
Ġmig ration
Ġapp r
Ġden y
Ġparox etine
< /
o cele
Ġup to
ov a
Ġrt c
Ġimmun ode
Ġ46 2
cle an
5 80
6 20
29 4
Ġdiet ary
Ġfin asteride
Ġultrason ographic
Ġth rashing
ol am
Ġ6 75
Ġinvol utional
Ġhap to
n acl
ac s
py elonephritis
hemod ialysis
Ġcous in
m em
29 9
Ġattr ibut
Ġtrans aortic
Ġman ner
rol isthesis
off ice
Ġur inate
28 1
sat uration
Ġpsych osis
c uff
Ġacet azolamide
Ġ4 93
Ġ5 74
Ġsh unting
car inal
Ġbup ropion
op os
Ġ6 18
33 2
intermittent ly
4 90
Ġst ren
Ġ6 17
Ġrheumat ology
or ies
Ġre w
Ġurgent ly
Ġ5 13
ograph ically
Ġfasc iitis
Ġconsist antly
embol ization
p itting
Ġevalu ating
Ġdel t
Ġmening eal
Ġ9 55
lu de
Ġdw i
Ġy el
Ġviv onex
Ġ14 15
27 7
Ġdegrad ed
Ġlum inal
off icer
Ġpur pose
Ġpulmon ology
Ġsound ing
Ġ ended
Ġsw ing
Ġoptim ized
Ġconsolid ative
Ġtak ed
Ġton ite
Ġl b
og raft
Ġrem eron
Ġmy x
trache omalacia
o affective
Ġborder s
Ġc ow
Ġap ne
Ġaz otemia
Ġ6 96
Ġeros ions
neuro surgery
sf ield
Ġmalle olus
? )
cher ichia
Ġparaf alcine
Ġposts urgical
Ġsome one
enhanc ement
on set
Ġn am
Ġrem inded
ont oid
pan creas
serv o
Ġoccip ut
bili ary
0 90
Ġr itux
Ġinter trochanteric
Ġsheet s
pass ing
Ġn med
Ġst d
Ġar ctic
s cribed
Ġimp ending
Ġpre vacid
Ġsr r
ret ired
urant oin
Ġsoft ener
Ġident ification
part ial
8 50
es e
Ġtw enty
Ġ37 2
Ġbronch o
Ġcell ular
Ġintermedi us
Ġe ps
Ġyiel ding
parathyroid ism
Ġap s
Ġlob ulated
Ġ48 3
ipl opia
, "
Ġ3 21
iot omies
Ġpat ella
Ġevery thing
Ġpseud omonal
Ġz inc
Ġdecondition ing
n ish
34 1
Ġrepresent ed
Ġbi omark
Ġgrand parents
mov ements
Ġwigg les
se ated
Ġvaric osities
' .
Ġt ax
lev aquin
Ġ58 2
Ġtro ch
- "
Ġb reech
Ġoccas ion
function ing
Ġfluct uating
Ġbenzodiaz epines
Ġmys elf
Ġ6 48
un ivers
Ġmanag ing
m v
u ding
ut ing
Ġret rolisthesis
Ġluc encies
Ġrecanal ization
Ġc ypher
Ġ8 25
Ġgang ren
Ġl if
Ġq tt
gh t
Ġfib rom
block ers
Ġ6 11
ott en
Ġstab l
Ġwh om
Ġop in
Ġintermedi ate
Ġobe ys
fib er
28 9
side red
Ġfron tot
Ġphleb otomy
Ġase ptic
f urantoin
% /[**
Ġstap le
Ġgastroenter ology
Ġser oma
Ġxray s
Ġnic ely
Ġco om
27 1
Ġmar ijuana
Ġrecover s
vol t
z ine
iv c
50 5
ov ale
Ġcough ed
Ġcorrespon d
mass es
ival ent
Ġses ha
Ġ7 49
ax ine
Ġprop ionate
obes e
Ġd ar
Ġ7 15
Ġup going
pro chlorperazine
Ġsqueez es
Ġmess age
re ated
Ġp b
Ġultras ounds
Ġval lec
33 6
36 6
Ġ38 9
Ġ7 32
und um
28 4
severe ly
Ġdram atically
Ġ5 14
hyperg lycemia
d ynamic
f air
ol an
em inated
cl ose
46 5
des cribed
Ġ6 78
ep idural
Ġ58 6
Ġwe ars
Ġvi ii
bid ities
s end
Ġthromb oph
Ġov ary
orb ital
gross ly
9 50
Ġrest s
col lection
osa ic
Ġinterrog ated
arous able
Ġint imal
17 51
Ġit p
Ġbroad ened
grow ing
r ance
uk ast
Ġfibrin o
Ġquant ified
Ġm os
34 6
Ġcommunic ates
Ġ8 95
Ġpersist ence
za ar
Ġap aced
need le
Ġaver aging
Ġad n
Ġ9 90
Ġca ution
34 4
Ġbronch osp
most ly
Ġmultil obar
Ġsub occipital
Ġ37 1
57 5
Ġket amine
Ġre bleed
Ġann ually
Ġup rbc
Ġile o
Ġcond yle
Ġcompens ation
Ġthrombocyt open
res istant
nt g
m ode
Ġbru ise
Ġstep down
Ġr fa
Ġho un
Ġtaked own
od ed
Ġint ense
Ġgran ular
Ġdermat ology
p renatal
Ġple ure
Ġdip ped
cor rect
cap t
lu cin
sp it
Ġmont ior
Ġs ella
Ġw oken
oc clusion
Ġtan nish
man y
Ġaden oca
Ġ48 8
Ġcalcit riol
Ġry thym
x s
Ġpro zac
Ġsp ur
Ġ40 1
Ġhelp ing
tachy pnea
Ġ5 44
Ġalkal otic
Ġd ynes
Ġferrit n
07 5
Ġroot s
Ġvenod ynes
ph o
29 6
36 2
Ġperform ing
Ġcontribut ory
suggest ive
Ġal p
Ġrem nant
b ph
Ġn ice
at n
g or
hyp og
Ġp th
5 40
um en
29 2
m ening
Ġab nl
su vastatin
Ġsuper infection
Ġmigr aine
l antus
Ġ60 9
Ġmat rix
Ġtons illar
Ġ6 99
Ġinf xn
Ġ76 6
cl onic
Ġprostate ctomy
Ġfluct u
Ġsil ent
tachy cardic
ist ed
Ġco ated
Ġhoun sfield
an uria
ov ag
ex or
Ġ56 3
Ġmorbid ly
expl oration
Ġ8 19
z il
Ġin struction
Ġ39 1
Ġreinfor ce
mand ibular
Ġ7 78
te xt
cl us
whe elchair
muc ous
Ġunco vertebral
Ġslo ugh
28 6
u ity
Ġ11 50
Ġcomp ar
Ġwell butrin
Ġabnormal ly
light headedness
cl avian
Ġ6 58
Ġso res
sp i
cort isone
op tic
Ġ7 37
Ġro of
Ġbul lous
Ġdysrhythm ia
Ġac alc
Ġdef lated
Ġnp cpap
reple ted
f os
17 00
Ġexp anding
bel ow
Ġnot ing
Ġ+ +
Ġ5 24
Ġtub erc
Ġma alox
d ob
reported ly
Ġp fr
et in
fr iday
4 25
s le
s acral
Ġhemidi aphragms
Ġcontrib ute
ag o
Ġq daily
supra ventricular
Ġanom aly
Ġ8 38
ru q
Ġselect ed
Ġextens or
w aves
Ġstud ent
gr and
Ġsens ed
Ġleuk openia
th urs
Ġdes ign
Ġtra versing
Ġdeple ted
s bt
Ġ5 53
Ġsp ouse
art man
st ap
Ġ6 33
56 5
raz olam
Ġkayex elate
f ic
Ġf ur
Ġimp acted
Ġser ology
ocl avicular
clind amycin
lucid um
bs x
Ġzyg omatic
t oprol
Ġe ase
we ave
pro state
exp ected
Ġalph a
d ocument
Ġaphas ic
Ġcadaver ic
res usc
od erm
30 3
com mon
Ġtransition ing
Ġfiss ures
---------------- ----------------
: :
n ad
Ġ60 5
require ment
Ġmeant ime
Ġpp v
inflamm ation
Ġper itoneum
ob jective
` `
Ġ58 3
Ġfrag ile
hydr ate
Ġapg ar
Ġme x
ud dle
13 00
Ġcor n
Ġgen er
he aring
Ġre cc
et ia
Ġ(> =
t ogether
Ġ6 98
oph obia
chem otherapy
Ġ7 96
Ġpal atal
Ġexc ited
Ġbrady cardias
gluc an
bos acral
in patient
Ġm ul
Ġflu c
d oses
Ġpen ile
lu ct
Ġpanc ultured
sched ule
ex ert
34 2
laf axine
Ġm th
Ġopin ion
Ġun enhanced
Ġpos it
est ion
Ġbet adine
cardi omyopathy
Ġ66 8
sup er
m c
in ating
en zym
Ġintub a
k ub
bal ance
ir t
Ġfl av
sw itched
Ġdip yridamole
Ġc ant
48 5
Ġaer uginosa
Ġprepar ing
Ġimmunode ficiency
Ġtr ies
plant ar
Ġgun shot
volt age
the tic
Ġtarget ed
Ġnause ated
Ġsup posed
Ġaort ob
Ġh icc
Ġchar coal
al or
Ġw on
le idom
el ukast
Ġnephro logist
Ġhype re
ol amine
ine al
Ġan emic
di aph
Ġbiomark ers
5 10
Ġrel ieve
ge ine
Ġfistul ogram
o y
Ġg otten
fe eling
Ġsulf onam
dr ains
ca ff
Ġbro viac
Ġphot orx
Ġtes la
Ġsar coma
Ġinterv ene
Ġo mental
maintain ing
n stemi
t one
40 1
33 4
Ġven ip
Ġthrombocytopen i
b ac
th ank
Ġ3 31
Ġim ipenem
Ġtrans duced
af sf
fat ig
se ptum
lo ose
uch al
Ġocc ured
Ġ= /
pmh x
bip ap
Ġch ain
Ġinc ub
Ġperson ality
Ġo val
ition er
Ġloc omot
bre ak
Ġlocomot ion
Ġcharacter istics
Ġgrav ida
Ġd at
am ni
ing u
st ated
Ġtr as
Ġ6 13
ud ine
Ġgluc an
2 21
b urn
Ġf ior
s lu
Ġw fl
ne bs
Ġsm ile
Ġprotect ive
suck ing
35 7
Ġprecip itated
Ġres uming
con sidered
te aching
Ġmineral ization
Ġsulfonam ides
Ġne ither
Ġ7 99
33 7
Ġpar aph
Ġspec imens
s om
Ġmetac arpal
ag en
her nia
Ġazyg os
ine ous
Ġrel ates
Ġtr im
Ġpara esophageal
Ġclus tered
Ġn est
Ġ60 7
Ġaspir ating
58 5
Ġbru ised
Ġchemist ries
g s
n or
hes ias
Ġun iform
Ġ8 55
io ology
36 4
tum or
spec ial
it ious
ot onin
Ġal igned
Ġ7 77
Ġcal med
amic tal
Ġincarcer ated
h iv
h ard
Ġb ill
d irected
Ġinvolv es
Ġsten otic
red ness
pre h
v na
Ġg alactomannan
ug r
Ġpercoce ts
c bg
Ġh uddle
ac yclovir
dim ension
Ġrot ating
immedi ate
r pr
Ġk phos
20 96
Ġz estril
Ġtransl ator
Ġal ive
ds d
34 7
Ġhy geine
Ġfes o
Ġ8 98
Ġ07 30
pi ece
Ġquestion ed
Ġdiast asis
Ġluc ent
Ġfeas ible
l ottic
ul opathy
Ġprop ranolol
Ġprot amine
hyper carb
Ġclon ic
nitro glycerin
Ġcalcane us
w ires
Ġm osaic
Ġact ual
omen on
Ġavid ity
Ġgolyt ely
( <
Ġv ue
6 80
w r
on ch
od ic
end ronate
Ġscan ned
Ġpn uem
Ġp vl
ut in
Ġam in
Ġ78 7
oper amide
Ġ7 95
Ġrem ission
Ġheterogeneous ly
Ġultrafiltr ation
unde restimated
Ġfung us
Ġdecann ulation
em as
Ġpurpos es
Ġfrontot emporal
Ġl in
pl at
Ġnon rebreather
Ġvol s
Ġvolum etric
Ġpel lucidum
Ġhypo int
par ox
if er
Ġ7 38
Ġoccas ions
Ġting e
Ġtac ro
letharg ic
Ġ5 12
ocyst is
30 7
Ġlymph ocytes
hal f
Ġchar cot
Ġcalm er
l ic
Ġb iphasic
35 3
Ġsten otroph
Ġd ht
Ġal ot
Ġsix th
Ġdislod ged
Ġw ished
Ġh ence
ib ly
36 8
Ġread iness
col itis
g yn
ent orial
Ġ40 3
Ġprog raf
Ġhal lucin
4 45
: </
ce ctomy
Ġet omidate
inc ident
2 24
Ġc uts
g as
Ġmm p
Ġfam il
Ġtr imethoprim
Ġcurv ature
de vi
Ġod ontoid
Ġamni otic
Ġhemat ocrits
Ġser ratia
Ġperi op
Ġrepe ating
it n
um pe
Ġdown trending
Ġlum bosacral
Ġsx d
Ġmir alax
Ġ5 65
Ġinn ominate
0 70
Ġcyst oscopy
Ġbreaths ounds
ast al
ang ed
Ġassess ing
ans hip
Ġflo ors
hyper nat
Ġ68 6
arthro plasty
Ġind uration
36 1
Ġs g
Ġtr is
Ġrem ians
Ġ12 37
emp loyed
ex acerb
36 7
Ġperi operative
irect al
Ġimmobil izer
Ġ45 6
Ġmultiv essel
con ne
Ġmoist ure
Ġattack s
Ġapp le
Ġpath ological
electro cardiogram
Ġhar vest
Ġgangren ous
hel p
or in
Ġk umpe
Ġnon dysmorphic
Ġheparin ized
Ġ03 30
Ġes cherichia
prov ided
at i
Ġev es
Ġhydral izine
Ġha em
Ġattribut able
**] :[**
Ġcef pod
Ġ^ '
00 9
36 3
event ually
Ġpredomin ant
Ġg yn
Ġtempor oparietal
Ġd ced
st en
Ġbo op
Ġne upogen
Ġbo un
Ġpocket s
oxygen ation
Ġpostp oned
Ġinterrog ation
Ġacknow led
f asc
x rt
Ġg ains
ric k
Ġtracing s
th in
pot assemia
Ġm bp
Ġre luct
Ġ5 43
Ġsed ative
Ġhyper potassemia
ues e
s hed
38 6
Ġsluggish ly
Ġfluct uation
Ġcontamin ated
Ġimping ement
b les
Ġp end
ob last
ics w
path ology
l ant
Ġpre carinal
Ġos ms
Ġ56 4
withdraw al
port al
Ġ57 1
Ġgerm inal
m ag
Ġcont ent
Ġfr x
hemat uria
p in
Ġ4 31
Ġfe e
Ġco ok
Ġ50 2
hyper kalemia
Ġsess ions
Ġaccent uated
Ġhome care
k et
Ġal le
br adys
flu oro
Ġrequ ir
Ġech ym
Ġintub ations
60 5
comp ens
Ġpredomin ance
Ġhb a
Ġredemonstr ation
Ġn uchal
an oprost
Ġ6 29
Ġvas eline
eom i
( #
Ġmeet s
Ġpud ding
Ġsu crose
fil ter
ig moid
co astal
Ġthr ill
Ġproceed ed
$ $
d al
ep ig
Ġag onal
Ġphen omenon
Ġhyper k
Ġrul ing
Ġwrist s
g bs
lu ding
Ġconcent ration
c ells
Ġorth otopic
Ġf dp
Ġrun off
sett les
30 4
Ġover whel
h ol
ice pt
Ġsl p
cardi ogenic
Ġmuc oid
intub ate
Ġgrand daughter
Ġn ort
Ġsp urring
ail ed
30 2
antibiot ic
Ġd iplopia
os al
Ġ56 7
Ġrestrict ions
renal ly
hyp ov
isc iplinary
leidom astoid
th ir
35 9
fl uticasone
Ġanticoag ul
thyroid ism
Ġup titrated
Ġover hydration
Ġrep ogle
neut rop
oph age
70 5
colle ge
spec ified
Ġ7 14
Ġrisper idone
Ġc age
Ġte a
Ġhypernat remic
l abet
Ġpo inting
Ġr ac
Ġhem iplegia
chem o
v ig
Ġ4 32
Ġ25 00
d ro
Ġr id
Ġelbow s
b a
Ġpo e
55 5
Ġmyel ogenous
clav icles
ak s
33 9
abg s
conf used
Ġfail ing
Ġdise ased
Ġ8 78
Ġmyel odys
Ġesc ape
Ġeduc ated
r heum
s i
t raz
Ġcol um
Ġsc d
Ġ45 4
Ġhouse officer
Ġo up
Ġ02 30
lo bar
Ġ7 13
Ġstrict ures
f h
Ġf bs
ak y
Ġpara vertebral
n kda
ex cept
fe et
Ġbegin ing
suggest ing
Ġrespon sible
Ġwal ks
Ġvisc ous
emp ir
36 9
Ġnephro st
6 30
t ues
Ġ5 23
Ġent ers
plate let
Ġretic ul
Ġ6 19
Ġsepar ation
Ġrepet ition
Ġc nii
Ġi ugr
Ġthrough t
Ġexcor iation
t or
30 6
Ġsurgeon s
Ġ7 44
Ġcath erization
Ġatt en
p co
an ast
emet ics
od ular
et im
Ġ ion
35 6
Ġ38 4
Ġhydro thorax
Ġblur ring
Ġprefer s
r p
Ġw itness
Ġgastroenter itis
or ph
Ġdis se
Ġinc hes
jejun al
Ġun aware
Ġk it
Ġnon invasive
Ġhyper parathyroidism
Ġnas opharyngeal
osteo arthritis
Ġnostr il
ther ap
ef y
Ġprop fol
Ġstay s
Ġhypert rophied
Ġcyst ectomy
Ġgr ip
tr ial
Ġdecompens ates
Ġprovider s
Ġdiss eminated
Ġfor ce
ult ure
Ġ8 77
Ġar ise
Ġag ressive
Ġ4 43
Ġhem ovac
Ġover lie
Ġ46 9
on ide
Ġde b
iot ics
cons cious
Ġdisturb ance
Ġ84 26
Ġcefpod oxime
us al
Ġ20 25
cardi over
39 3
Ġ48 1
Ġmicro angi
Ġgre y
l ly
ni ques
Ġcxr s
Ġbronchi olitis
Ġg yne
ther modilution
Ġhyp onat
Ġqu es
Ġintermitt ant
Ġsuppl ies
os igmoid
Ġpneum ocystis
Ġinotrop ic
l anguage
Ġde al
Ġpal mar
Ġ47 3
Ġmaneu ver
6 60
de ceased
Ġpri est
etim ibe
resp r
Ġschiz oaffective
or ker
op ens
de xt
Ġp i
ang itic
Ġref use
Ġprof use
artman n
in atal
Ġ6 54
cc v
Ġgag ging
Ġhomogeneous ly
Ġthirst y
Ġfall en
Ġsimilar ly
Ġb ov
Ġl icsw
Ġresp alor
Ġhal o
eff ort
Ġw omen
**] "
ul air
Ġaut opsy
Ġcholest asis
capt opril
el ve
ev es
Ġcaff ine
not es
oph off
iac in
m aking
r ll
Ġof m
Ġ6 16
pe ak
Ġdevi ated
Ġapne as
5 70
35 4
40 2
Ġ39 3
Ġpersist ing
inte rest
tunn eled
es ia
comm ands
g ave
Ġh k
Ġiv da
Ġflow s
Ġgel weave
Ġvallec ula
a j
Ġb ent
Ġb urs
om ated
Ġg bm
Ġul na
39 4
col oration
Ġcyan ocobalamin
ev en
Ġa ide
im ab
Ġloc ulation
Ġsigmoid oscopy
Ġt d
Ġsh ield
Ġp ans
Ġl aser
Ġhyp oplastic
Ġfos amax
it ative
Ġintrac ardiac
Ġethmoid al
------------- <=
Ġpract itioner
Ġaberr ant
n our
st airs
Ġcomm enced
Ġph ases
ands on
Ġcheck list
Ġdu vc
Ġthromboph lebitis
parox ysmal
Ġv vi
Ġmouth s
beg in
Ġl bp
Ġv a
Ġper irectal
Ġdef ec
Ġpulmon ologist
Ġsec undum
i oclavicular
Ġvi remia
cir c
Ġn iacin
37 6
turn ed
Ġpro ct
Ġendoc rin
anch able
Ġrust y
Ġap ap
Ġun well
Ġartifact ual
Ġdialys ate
Ġp olic
Ġred ressed
Ġsyn thetic
breast feeding
r ule
s vr
Ġep id
Ġappreci ably
b ath
ot he
igm ata
Ġtroch anter
Ġ6 65
Ġhyp op
49 3
Ġter azosin
4 35
a erated
Ġ7 46
34 9
Ġdel iver
Ġsim ply
Ġscan ner
def ib
var ic
Ġrifax amin
Ġindistinct ness
Ġstereot actic
Ġcomp ressing
Ġaccompan ying
out side
hyper bilirubinemia
n kg
Ġres c
ire ction
39 1
warm er
Ġvenip uncture
st abil
00 8
Ġred raw
Ġ6 26
fac are
Ġs ider
Ġcomp any
Ġins ensible
Ġho arse
end otracheal
Ġcondition ing
Ġbl anching
Ġfirm ly
rict ive
Ġmetab ol
or ne
Ġd apto
Ġmild y
Ġtech niques
Ġmom ent
Ġoblit eration
um bilical
Ġpl ates
ron tation
Ġgluc ometer
admin istration
Ġf ight
Ġtr apping
ph enytoin
ral ateral
Ġbag ging
palp ation
Ġser otonin
Ġconv incing
ap ular
qu ot
Ġamitr iptyline
an other
qu ick
oste op
Ġris bi
asy mptomatic
univers ity
7 20
ren hanc
Ġequ ivalent
Ġd ophoff
ff p
Ġcent rum
Ġantimicrobial s
m arg
v om
Ġ10 56
Ġ58 5
Ġprod uced
l ty
30 8
Ġ00 30
con ver
Ġout line
reci eved
Ġf ift
ch or
ne ath
Ġchild hood
bnzodz pn
ar ia
Ġpa use
Ġloc ations
Ġtol iet
n urse
Ġen emas
Ġtransfer ring
hum alog
Ġthoraco abdominal
Ġw ak
Ġb outs
il ator
Ġ6 77
pl ing
44 1
stim ulation
Ġtri am
hypox ic
Ġlord osis
Ġocc urs
inf ormation
37 4
Ġbi atrial
Ġpus hed
38 9
Ġsci atic
b earing
Ġb last
st atin
Ġscab bed
hypernat remia
Ġt em
Ġv ite
Ġ8 68
Ġcons umption
Ġprop hy
Ġasc ities
ext ension
Ġrom i
Ġshift ing
ins ki
Ġorthop aed
perrl a
Ġinter view
35 2
at ly
Ġe coli
Ġ7 17
14 00
Ġsubt raction
l am
w ob
dis location
Ġcrani oplasty
50 6
Ġ11 12
devi ation
b rought
Ġinfer o
Ġtriglycer ide
thickness es
spir onolactone
w akes
ot ax
Ġ9 25
Ġ**] ),
ph aryngeal
Ġob structed
38 1
Ġbreat hes
swallow ing
Ġ6 46
33 8
Ġhole s
Ġsternoc leidomastoid
Ġ8 48
Ġorgan ized
er ized
Ġcon com
Ġreminder s
r c
Ġpre ference
oint estinal
aff ect
Ġestablish ing
Ġdis cer
ov ent
l p
q id
ra v
warm ing
Ġcalcane al
Ġmacro cy
pre operative
Ġorgan izing
Ġgum s
Ġrec al
Ġsett ling
Ġe ip
Ġch ads
Ġ70 8
admin istered
Ġs vi
Ġmultid isciplinary
osteop orosis
og ens
Ġ7 23
Ġhypot onic
Ġsubgl ottic
abs ent
Ġperson al
obil iary
Ġguardi anship
m ir
u ched
Ġwor ried
Ġintr abdominal
Ġincub ator
b is
t et
ar rest
Ġh itting
av ist
59 5
part ic
some what
Ġeager ly
pseud omonas
6 10
Ġpan ic
Ġembol ized
Ġso f
Ġinter act
inf ormed
adv air
Ġdiap hysis
5 90
30 9
ack ing
Ġhgb a
ber g
Ġhemod y
Ġprur itis
Ġc utaneous
ens itive
Ġig a
y a
Ġre ccs
Ġ7 19
con v
oid al
Ġav oiding
Ġdiv orced
Ġac uity
Ġcat ch
sm oking
Ġligament um
injur ies
ist in
Ġun explained
cl ar
Ġac d
Ġlact ates
38 7
Ġgrand children
Ġgad avist
Ġpept amen
as ian
Ġ9 18
qu iet
num bness
34 3
ne cess
sub clavian
Ġm tr
Ġsad dle
Ġcoom bs
Ġdesign ated
Ġtrim med
und red
med icated
Ġadv ice
Ġpip s
Ġfro zen
Ġscop olamine
Ġbe am
Ġ13 50
Ġ68 9
ic a
Ġ8 96
Ġrec ess
rox en
dist ant
ibut ive
bnzodz p
. +
Ġv d
Ġwat ched
Ġjel lo
Ġsc rat
ost atin
Ġcho ice
Ġacrom ioclavicular
Ġdys plasia
Ġbreast milk
Ġ300 0
Ġ47 1
l ig
s orb
Ġh anging
Ġdo f
Ġeas ier
40 6
Ġawak en
Ġsupplement ed
Ġoss ification
Ġcalvar ium
Ġhemmorh age
flight ed
Ġdisplay s
Ġesophagogast rectomy
eas ily
at emia
so ap
Ġulcer ated
g ive
h n
h it
w o
er one
Ġl ent
cre ational
Ġmv mt
leg s
Ġch n
Ġ8 97
ach ment
sp an
Ġenzym e
lob ular
Ġbt wn
in ue
Ġconsider ably
Ġat axia
ot rig
Ġch annel
Ġob st
Ġhype renhanc
in ery
rem aining
Ġbronch ovascular
Ġ- --
ne ar
ile y
not able
Ġstenotroph omonas
Ġst a
cm v
sup erior
Ġreinfor cement
sensit ivity
ine x
Ġsub ject
omed ial
Ġven lafaxine
( ~
Ġ4 72
Ġ9 26
inter im
7 40
Ġfr ail
Ġmont elukast
otrig ine
6 90
c el
k eppra
sc ope
Ġfibro tic
Ġtrapez ius
f raction
Ġs ke
Ġnas ointestinal
Ġgra ve
Ġsubcl av
Ġfac ies
Ġnitro gen
oste al
Ġunre li
re tic
en ger
Ġj ob
Ġacalc ulous
yn in
Ġunder neath
ll l
Ġmt x
Ġcerebro spinal
utin ely
oblast oma
Ġun specified
Ġax ially
Ġdet ect
Ġvitamin s
- ).
Ġ6 49
40 8
Ġhopef ul
Ġdo or
Ġvac c
Ġasymmet rical
Ġtrans mitted
esoph ag
Ġcream y
Ġavail ability
Ġt ends
but ynin
Ġureth ral
Ġ9 15
Ġoff icer
Ġcort sol
Ġbld y
Ġplay ing
Ġcomp ressed
spl en
Ġto uched
Ġsub mandibular
med rol
agg erated
Ġglyc opyrrolate
bal ta
Ġsurve y
Ġpr une
Ġ70 7
intr acerebral
Ġtympan ic
gor ith
Ġg ing
con st
Ġuse ful
Ġimplant ation
4 15
he st
reg lan
cor ding
Ġ46 1
Ġparan oid
Ġconvers ing
bel ly
slow ly
Ġpt osis
ms k
Ġrx n
prost hesis
n u
uc asian
sut ures
se quence
Ġ5 92
Ġ7 11
draw n
ather osclerotic
Ġsp acer
pm a
Ġconserv atively
Ġfibrom yalgia
Ġhicc ups
af il
Ġintra operatively
Ġtv s
h iatal
oph asic
Ġbul ky
c ri
ot ec
do e
Ġ96 5
Ġconve yed
l in
Ġst igmata
Ġ14 40
37 7
Ġ56 9
Ġamp ulla
Ġmeth icillin
oste omyelitis
Ġcoars ened
appro ved
ac cording
Ġambul ates
Ġstabil ize
Ġindent ation
Ġa e
ck s
Ġgr andson
Ġpneumon ias
ent ional
Ġseiz ing
Ġdependent ly
Ġdisturb ances
**] ->
ancy clovir
Ġneut ra
wed nesday
ap point
ss c
Ġcorp ectomy
rem ote
Ġ90 5
37 1
Ġoste olytic
me eting
rat entorial
Ġ10 15
Ġ17 50
Ġphen er
prog ressive
f ist
ort ic
Ġop tho
Ġdimin utive
Ġlord otic
t im
successful ly
Ġspe aker
l fts
ic ulations
em ics
Ġpl mt
s ame
Ġmod el
39 2
Ġsob er
7 10
Ġob liter
Ġro suvastatin
Ġdep art
Ġsx s
Ġa j
op eric
44 6
Ġarteri osus
nour ished
Ġal gorith
40 4
Ġpac i
Ġm us
Ġ50 6
Ġwater shed
dec ision
contr act
7 80
? ,
Ġas ks
Ġvi ol
an oxic
ne os
arb y
radi ating
Ġdiap ers
Ġsevent h
Ġbe efy
Ġ# :
Ġsub j
oph osph
37 3
Ġcoup lets
Ġaortob ifem
or tho
Ġreplac ing
v re
Ġlymph angitic
Ġ400 0
ot ype
hem ovac
48 9
Ġtransf using
Ġbl urred
Ġbeg ins
Ġhypocal oric
Ġb blocker
Ġ4 42
qu adr
ra a
Ġsurround ings
Ġheter ogenous
Ġhemi arthroplasty
Ġglob es
ang ap
Ġun cle
Ġamp ullary
Ġb ull
Ġv c
ress in
Ġ96 6
luc an
Ġlister ia
Ġpleure x
s il
cl usions
Ġrel ayed
Ġhydro cele
intr ap
w c
Ġf ile
Ġread ily
tech nically
Ġbld g
d irect
e ed
u ab
normal ly
ag el
Ġpers antine
Ġgl omer
gent le
Ġparas ternal
Ġprop af
fract ures
b ale
p ig
q j
er nal
Ġam i
we b
ped i
sc ant
Ġus clip
Ġdec el
fatig ue
Ġhyponat remic
3 23
Ġcont ralateral
per iod
ild en
Ġprox im
load ed
Ġdeterm ination
Ġblunt ed
Ġpub is
Ġn ite
Ġside hole
Ġlib eral
Ġcaud a
Ġf um
Ġn ur
res ident
Ġreview ing
Ġabs orption
Ġ97 5
Ġmth done
Ġconf rontation
gr aph
Ġneurom ed
90 5
arrhythm ia
etil ide
Ġe mg
Ġtyp es
Ġb wt
sib ling
Ġ4 41
Ġ8 46
Ġdis integrating
j et
Ġm ics
all opurinol
reli eved
Ġth ing
od ensity
fontanel s
y x
Ġp ns
Ġav g
Ġdifferent iated
47 2
47 8
let on
Ġrhonch orus
Ġinstit ution
in suff
Ġl operamide
Ġeff exor
Ġdram atic
Ġreconstit ution
5 25
ad ing
ret ol
f used
re tt
Ġ10 20
check s
Ġmen is
esp ecially
iline ar
Ġsp ite
Ġdil itation
Ġhyper coagul
flu conazole
arter ies
cholecyst itis
Ġl ose
Ġlat anoprost
nr b
Ġfasc iotomies
crit ical
97 5
44 2
08 5
diures ing
Ġintest ine
Ġf ills
Ġcr amps
b ile
Ġal s
de gen
Ġhypo chrom
struct ures
aqu one
Ġcon us
Ġdys f
Ġred irect
Ġpath ogens
Ġportug uese
Ġnon calcified
Ġdep th
Ġradiograph ically
r ace
Ġh artmann
Ġex aggerated
Ġdis coloration
Ġmon ophasic
Ġpancre atectomy
Ġcross ed
Ġpolyp ectomy
al amine
Ġj ps
ct omies
Ġsh run
tw in
Ġ8 57
cor rection
Ġhg a
arr ived
Ġplat lets
t ri
Ġaccur acy
il ed
ile us
ace ous
lyc emics
crip tions
Ġshrun ken
re covery
Ġf iance
Ġh undred
Ġcol loid
Ġcontinu ation
Ġind irect
hem optysis
Ġlight en
mob ile
Ġre b
/ -[**
res ed
Ġ4 94
Ġpiv x
Ġsle eves
adj ust
6 70
it ine
Ġ4 92
Ġnon diagnostic
Ġmid brain
Ġcv ps
Ġ36 1
Ġ46 4
Ġdistr ibutive
Ġf uo
st aph
Ġsc aph
Ġpr ism
45 7
39 6
mob ility
it u
il age
ul y
Ġ17 15
Ġ33 50
form er
thromb osis
Ġphener gan
# ).
Ġ8 76
38 3
Ġmig rated
tight ness
s udden
Ġs ending
Ġbe er
de hydration
of ib
Ġhemodyn imic
Ġarrythm ia
Ġincons ist
Ġske leton
Ġl amictal
Ġcon ducted
ped al
au er
Ġemp loyed
Ġres ched
Ġsc oped
Ġ78 5
Ġpass enger
uv ant
tr an
Ġre pl
Ġ9 35
act able
Ġph asic
ip ril
sion al
Ġar gu
38 4
Ġpast e
Ġhung er
Ġnephrot oxic
il les
Ġcc b
## ##
divertic ulosis
Ġ7 98
Ġ10 46
Ġext s
Ġback up
45 4
diffe rential
Ġnorm other
Ġjer king
Ġpolic y
Ġtrans jugular
Ġcomm ens
ank le
Ġtract s
Ġretr ac
infiltr ates
Ġac om
40 9
elf oam
Ġflatt ened
Ġvit b
........ ........
Ġreluct ant
vig orous
Ġun su
Ġ18 35
Ġav ulsion
Ġpar ast
37 9
Ġoper atively
trem ors
Ġc am
Ġm cc
Ġ6 28
Ġfeed er
cop ious
pp x
requ est
Ġsepar ated
thro at
g ras
Ġb end
Ġb ra
Ġsp ep
Ġsl igh
Ġfl ut
ind icated
Ġd ccv
Ġsh iley
Ġcm s
Ġhepat oma
Ġepis odic
Ġtear y
Ġpediatric s
Ġspondyl olisthesis
in structed
40 7
Ġcon clusions
Ġassoc iation
proced ures
Ġcurv ilinear
temp or
Ġe ia
immedi ately
o unts
un eventful
ne ur
Ġ60 6
80 5
Ġ76 8
Ġreflect ive
enzym es
Ġunt reated
Ġmicro cyt
Ġinsuff icient
aspir ate
Ġbud ding
Ġextrac ranial
l adder
Ġbub bles
Ġasses ment
Ġaccel erated
Ġt ma
Ġ7 28
su v
Ġelect rophysiology
l av
Ġt tn
ro utine
Ġmin d
al ong
Ġad vent
Ġc res
Ġne x
ear s
Ġax onal
Ġ58 7
opath ies
Ġspray s
Ġanis ocyt
Ġtuberc ulosis
. ).
Ġcont i
40 3
Ġappoint ed
Ġdiscontinu ing
deg ree
s af
Ġhyper plasia
j qj
res ume
Ġ58 9
l asma
Ġap rv
Ġ70 5
38 8
Ġect atic
s vt
an xious
Ġ7 12
Ġpur sued
Ġ10 35
Ġrecomm ending
extub ate
Ġarchitect ure
Ġhas n
Ġcalc ulations
urs ym
ar ate
Ġres ent
Ġmass age
Ġequ ina
ic ing
Ġh am
Ġy ell
Ġcor ner
flu x
chol angitis
rus side
Ġat lant
ose al
Ġrhon ci
Ġproxim ity
Ġh av
li oma
Ġservice clip
Ġtest icular
Ġhypocal cemia
p pi
od er
Ġcol orectal
Ġnad ir
m p
ure teral
Ġsh ivering
Ġtf b
Ġtw elve
Ġpect oral
Ġc erv
Ġm itt
sw an
Ġtight ened
Ġ8 65
Ġag ap
fer rous
ev ac
Ġinfrequent ly
Ġflav um
Ġe ga
Ġvisc eral
ic ious
Ġcom f
oc m
Ġ7 65
Ġpul ls
Ġ75 9
ovent ricular
Ġ5 31
Ġ6 24
Ġcirc uit
Ġaut olog
ct ing
lo ok
Ġde af
Ġred ucible
38 2
i kil
Ġt bi
en ers
Ġr hy
Ġ8 35
Ġfe ces
pro tein
Ġanter o
Ġindepend ant
Ġsh ake
ph ed
ov aquone
Ġfasc iculations
Ġthink ing
b eats
Ġf w
Ġrec urred
Ġepig ast
d ominant
Ġ111 5
Ġserosang inous
Ġpriv ate
3 18
Ġy an
Ġur ination
met ronidazole
Ġhel met
Ġex text
scre en
otax ime
ong oing
opl atin
Ġinter fer
Ġocc a
9 20
Ġ9 24
Ġret inal
Ġav ascular
Ġhydro codone
Ġarrang ements
Ġcar ry
98 5
Ġstabil izes
Ġbroncho alveolar
em ie
Ġj it
Ġlymph oid
Ġpm d
Ġblock ed
hemis pheric
ple as
of en
Ġelect ed
Ġdecondition ed
ent il
Ġl vedp
Ġpr vc
nyst atin
Ġpre tracheal
Ġstrength s
Ġcur ved
hydro codone
char acter
ch art
Ġne arby
Ġlum ens
Ġgl enoid
Ġterm ination
Ġmethod s
cyan osis
**] --
Ġre expansion
Ġ6 23
Ġdis charg
m eper
port un
Ġaf p
Ġ15 50
Ġrest enosis
Ġ78 6
part ially
meper idine
Ġmean ing
long er
corne als
an ells
Ġap t
47 9
Ġloc ules
Ġprof und
Ġvalg anciclovir
Ġ5 94
Ġbr ush
45 1
48 7
Ġse cr
Ġres ed
Ġpm n
uc ial
Ġresid es
ocol itis
Ġst uff
37 8
Ġwid owed
Ġalp razolam
Ġst ood
ch lo
Ġal fa
Ġco bra
20 92
Ġjel ly
Ġbronchosp astic
dimension al
Ġhyper thyroidism
sub acute
7 60
j aj
Ġh all
Ġhem olyzed
acent esis
Ġsol u
d osed
cl opidogrel
Ġout come
Ġsurround ed
h ickman
Ġno re
ff in
Ġ13 15
Ġ57 9
Ġexhib it
3 12
g rom
Ġde pos
sin ess
opac ities
Ġn cpap
Ġ7 76
inter ventional
ox ide
prot ocol
ile o
Ġmach inery
um es
Ġ14 50
pos s
Ġ80 5
reg ulations
Ġempt ied
mg w
Ġparkinson s
m ing
Ġrep ro
Ġ50 4
Ġ45 2
Ġum bi
retro peritoneal
iop rine
Ġpneumat ized
us ually
Ġco zaar
Ġj mgw
Ġta ught
Ġunus ually
Ġclos ing
Ġtol ler
Ġcolum n
5 000
Ġp pn
ob ed
45 9
Ġhs q
Ġreinsert ed
Ġl adder
Ġ9 46
Ġbl anchable
ad o
Ġnon dilated
ox acillin
Ġdrift ed
Ġintermitt antly
20 95
Ġthromb olysis
Ġ78 3
Ġyan ke
r ange
Ġgest ures
hydro chlorothiazide
d tr
Ġocc ass
Ġfri able
Ġ(? #).
Ġpac ifer
Ġrel atives
Ġdiures es
Ġcann ulation
hypox emia
Ġc in
Ġam pho
Ġan z
duoden oscopy
Ġeosinoph ils
al is
ig ested
Ġdistress ed
Ġelectro des
igm ine
Ġnucle us
ct x
os en
Ġg elfoam
20 94
Ġbul let
angi ogram
Ġ* [**
ones e
Ġ4 91
Ġsulf ameth
lab ile
ist r
Ġcl x
Ġrec ip
ud es
Ġil le
Ġdysynchron ous
r ads
om ial
Ġ4 21
ug g
Ġradi ata
ster notomy
# [**
id ans
Ġopac ify
Ġpanc olitis
hum an
Ġnon obstructing
60 4
Ġemb olectomy
coagul opathy
Ġst ock
Ġocc urring
Ġkeep s
ofen adine
> ##
a ur
am ents
Ġsub pulmonic
---- --
Ġ70 1
Ġeyel id
Ġcontrol ling
cons ent
Ġconst ipated
diffic ile
Ġdip ping
path ic
Ġa le
Ġd sticks
as ate
Ġan alyzed
Ġen ya
Ġview ed
Ġgl ut
Ġsupp lying
Ġtran se
Ġblind ness
Ġstrept ococcus
Ġdiscer n
Ġno soc
neum onic
Ġsl ide
Ġappro aching
Ġneph ritis
ilden afil
s ys
hepat osplenomegaly
t ap
Ġl ens
Ġde position
fibro zil
6 75
f am
n el
Ġcont d
Ġarrest ed
mot ility
q d
Ġo tc
Ġtrans vaginal
do uble
Ġ16 69
arr ival
Ġsv d
ic aine
row ing
7 30
Ġh uge
op hyl
00 1
44 9
Ġheter otopic
Ġcycl ing
den ied
stent ing
Ġanesthes ioology
amm y
Ġt bb
Ġh t
Ġex udative
Ġcom or
Ġinf il
Ġcre a
Ġhi atus
g nr
p ez
sy nd
oglob ulin
Ġerr ors
g ran
Ġthor ough
junction al
re ass
Ġ95 6
mid az
Ġprotr uding
card s
contr aind
comb ivent
Ġrecording s
ir ies
45 3
44 3
Ġprompt ly
pez il
3 48
Ġtub er
aph or
Ġgen etics
Ġlocal ly
c ic
Ġ8 33
cl age
paren chymal
puff s
ag ittal
ers el
im plant
Ġanticoag ulate
Ġno ise
us sion
ut erine
Ġ10 57
Ġcatheter ize
Ġquin idine
ikil ocy
st ances
Ġmult ior
60 2
Ġaud iology
Ġatten uated
c italopram
Ġt orn
sup ersel
Ġtr uck
Ġover lap
Ġtrans udative
Ġarteriogram s
opac ified
conj ug
Ġnest led
Ġhem os
ath ioprine
Ġdox azosin
i w
th igh
Ġrect osigmoid
Ġ58 8
Ġsom ulent
Ġbenz ocaine
Ġimmob ility
Ġelim ination
an ion
Ġphot ophobia
00 3
de br
Ġlip oma
Ġang led
Ġosmol ality
otr ipsy
ad renal
Ġult ra
Ġguard ed
Ġisl and
Ġd n
am ounts
Ġcare web
Ġreg ained
37 2
Ġcalm ing
Ġante partum
Ġsn oring
varic osities
Ġsub hepatic
ynchron ous
igr is
Ġtris omy
60 1
Ġbroad en
Ġhyperint ensities
ro duodenoscopy
gen e
h l
i en
Ġpl act
Ġday care
Ġnon obstructive
Ġit chy
chol ine
Ġov oid
Ġsepar ately
Ġbehavi ors
ome g
Ġcroh ns
Ġfum arate
Ġm olding
an ate
og ue
Ġacid s
continu ing
Ġecg s
Ġup wards
Ġpre emie
attempt ing
ac cur
Ġsc v
Ġsignal s
Ġeom s
st one
Ġdis imp
Ġcyst itis
35 8
ody ne
Ġverte b
inol ones
Ġmyc obacter
Ġtake off
Ġorigin ating
Ġdext ro
sur round
stap les
Ġnosoc omial
0 55
Ġr ythm
Ġmon iot
Ġdeterior ating
t ures
ib rated
Ġun employed
yst als
Ġile oc
Ġcaut erized
k c
Ġam ong
: "
b so
f requency
Ġh ig
if ed
Ġ7 33
Ġ10 80
Ġcontin ous
rec ip
Ġach illes
Ġurin ating
Ġh oney
Ġ7 29
Ġinvestig ation
Ġs j
od opa
Ġdil aud
Ġcoron a
pol ys
Ġdis conne
Ġsh r
Ġnon bilious
Ġanis ocy
Ġplact ment
re placed
re flux
ul ing
if erative
60 3
br ing
Ġspont an
Ġmott ling
percent ile
exacerb ation
the mia
uc x
am n
Ġ10 55
min eral
Ġnon compliance
eric an
48 8
osc oliosis
Ġcompens ate
7 70
w atch
Ġph tn
inter stitial
Ġ58 4
rif ax
Ġar achnoid
meas ures
Ġnex ium
in hibitor
Ġr ail
Ġan uria
Ġ7 27
te en
her ni
Ġresection s
Ġdesatur ating
necess ary
fist ula
Ġmult iphasic
Ġov aries
p anc
Ġhyd rate
Ġcould n
Ġhar sh
Ġpleasant ly
hyd romorphone
drug s
Ġcrest or
tr iple
Ġback wards
tib ial
amps ia
ymic robial
Ġdof etilide
Ġg ives
Ġ7 36
Ġ8 39
sp ell
Ġprism asate
Ġd ps
Ġun assisted
Ġ8 16
Ġfe urea
Ġster iods
Ġclean ing
week ly
0 45
Ġ5 22
**]. .
Ġnitrop russide
Ġsubj acent
9 40
m ilestones
er l
Ġab i
Ġneob ladder
Ġcommens al
synd rome
w id
Ġhr ly
mg m
60 7
Ġep ic
Ġinj ect
Ġprem ed
awa it
Ġeros ive
Ġhypercap nia
Ġyank auer
c ular
Ġe u
Ġmg y
Ġtoday s
chem ist
8 80
Ġex ists
omet ry
Ġschist ocytes
Ġd ips
op acity
Ġman ually
Ġhy grom
Ġosm o
orig inal
ot oxic
Ġ9 19
Ġread s
rome th
Ġduoden itis
Ġch osen
io x
ise conds
Ġ66 9
Ġmeeting s
sub lingual
Ġcross ing
Ġtalk ative
c aring
p all
w ing
in sp
Ġpe j
Ġband ages
sat ile
Ġth k
Ġ8 47
hypog lycemia
Ġmyelodys plastic
Ġp cxr
Ġdef ine
Ġce phalexin
bip olar
cholecyst ectomy
Ġcl amping
Ġ38 1
bronch ial
Ġweep y
ocon cent
ib ration
Ġreg iment
sp ective
Ġtech n
Ġd uc
Ġsc ales
Ġj ek
Ġsemi ovale
: +
ol ig
Ġ**] =
ect opy
Ġop iate
Ġgrand father
Ġfus sy
Ġb ron
Ġpost ive
Ġcust ard
Ġjek h
on ase
Ġf ond
uc es
Ġp uts
Ġred ucing
Ġz etia
Ġautodiures is
ece utical
nor vasc
Ġnore pi
er ant
Ġv ts
Ġ9 27
ric ted
cl osed
Ġ98 8
Ġda h
Ġbacter mia
Ġ9 16
Ġ7 21
Ġop portun
iod ine
Ġpartic les
Ġingest ed
Ġdeline ated
Ġv ip
20 91
albumin emia
musc le
ĠĠĠĠĠĠĠĠĠĠĠĠĠĠĠĠĠĠĠĠĠĠĠĠĠĠĠĠĠĠĠĠ ĠĠĠĠĠĠĠĠĠĠĠĠĠĠĠĠĠĠĠ
Ġneuro s
Ġcritic are
Ġepo etin
Ġ5 32
44 7
Ġtum s
Ġirregular ities
Ġeth ics
Ġat ovaquone
ric a
Ġcv c
Ġz ar
44 4
Ġdevelopmental ly
on us
Ġne utr
Ġ5 41
Ġ7 22
Ġ7 26
20 93
Ġdiagn ose
show er
'' ',
Ġhyperk alemic
Ġinter acting
Ġ60 1
Ġdep loyment
nr t
Ġ78 1
lycer ine
leb rex
Ġn j
am ivir
os seous
Ġtim olol
Ġretro sternal
Ġdtr s
Ġautolog ous
p il
ing ly
Ġ> >
Ġdem inished
Ġdys kinetic
70 8
Ġthromb ocytosis
Ġarchitect ural
Ġas ess
ver sus
Ġper iv
Ġ98 5
Ġtric eps
Ġangi opathy
proble ms
Ġcul pr
insuff iciency
Ġr ated
im ine
Ġox imeter
Ġhapp en
r ically
Ġg lycerin
ay ing
Ġfl olan
degen erative
Ġpro portion
ang eal
Ġj ump
Ġatt ended
45 6
Ġcross mat
Ġtors ades
Ġa cl
Ġs ip
Ġ9 47
reg ion
respon ded
ik lo
conv ulsive
d st
Ġwe gen
Ġsy t
Ġremain es
Ġsex ual
Ġserous ang
encour aged
cann ula
Ġb ay
Ġcol ic
Ġunder penet
Ġcav itation
Ġteg retol
ig ram
mult ifocal
Ġhaz e
Ġdst ik
Ġc ag
Ġab uts
Ġsystolic s
brady cardias
Ġbab inski
Ġprofund a
s ac
Ġ8 56
Ġ12 90
68 5
Ġhand ed
220 7
dys phagia
Ġsequent ially
Ġcer clage
Ġsoft sorb
Ġ70 9
Ġpres acral
Ġabx s
Ġhemangi omas
diffe rent
al tern
Ġv ault
Ġ6 59
Ġkangaroo ed
Ġez etimibe
Ġg n
Ġca ucasian
Ġop th
int ed
sed iment
Ġangi ographically
Ġdistur bed
s n
ax illary
Ġcm r
Ġprotein uria
Ġnutr am
5 15
p rick
all ium
Ġhyperv olemic
3 17
o renal
encephal itis
embol ism
l avicular
tr act
rit ic
Ġexhib ited
sle pt
Ġaj y
Ġm uddy
Ġper inatal
ne ver
50 1
assess ed
Ġcow orker
Ġyanke ur
ac d
ain flu
Ġbp g
Ġ11 10
adm ill
Ġflex or
my el
ben ef
z ofran
Ġm j
ef ul
be gan
inv ested
suggest s
Ġgranul ating
Ġsuff ering
Ġthrombocyt openic
Ġdif lucan
l cx
ith rom
Ġg pr
un cle
Ġne onat
78 5
Ġperi osteal
Ġprofound ly
nyst agmus
lu des
Ġar icept
48 2
sl p
Ġrisper dal
Ġradiopharm eceutical
Ġf na
Ġr ssi
comple tely
Ġdisc s
Ġrotation al
m ixed
ct ab
Ġant ig
ore ctomy
ophyl line
n ph
Ġdem yel
commun ication
b up
h osp
Ġno cs
Ġint ial
Ġdil ute
Ġemotional ly
addition ally
Ġb d
Ġ( ^
ol one
and em
Ġ80 8
Ġery thro
Ġro utinely
Ġadd it
sig moid
Ġdemineral ized
Ġtrans m
48 6
46 2
reg ard
rup ted
Ġmill iseconds
thir d
Ġch ond
Ġ88 5
Ġcephal ad
Ġhop ing
Ġcart ilage
Ġbnzodz pn
3 21
Ġf ob
Ġal endronate
b romide
Ġr w
ult ram
Ġclip ped
Ġpseudocyst s
8 60
Ġn st
Ġtr ibut
Ġaddic tions
s ix
Ġp asp
ph erine
ost igmine
Ġfl akes
line zolid
continu ous
11 00
tr ig
3 27
Ġbound ries
Ġpeel ing
jo jqj
s cler
act ically
Ġhepat omegaly
bul king
Ġnitrop aste
ainflu enza
Ġ1 120
99 5
g pc
Ġve g
ds g
Ġmae e
Ġcompar able
Ġp ir
ic ans
Ġg y
lev odopa
Ġ70 6
Ġmal function
Ġstrip ping
clon idine
Ġcranioc aud
Ġx igris
ca utions
ste in
Ġvir idans
o idectomy
Ġst uck
Ġinter lobular
Ġstr ate
Ġangi oseal
def in
Ġeosinoph ilic
ion e
ar coma
Ġband ed
Ġpen rose
Ġspecial ist
Ġhypere ch
l ittle
Ġ- ?
ript yline
Ġgastrogra ffin
8 40
Ġg lobe
Ġtachy cardiac
ec es
Ġthough ts
Ġsv v
Ġcontract ures
Ġn y
Ġ8 14
Ġcort ic
ser o
Ġrecons clip
gast ritis
Ġreple tions
Ġpsych osocial
concer ned
antib ody
ro th
Ġhe aves
cal ories
interest ed
a ic
Ġ6 38
Ġ# '
Ġcv as
Ġdem anding
48 1
itus sin
hypo kinetic
Ġtrans lum
Ġheart burn
Ġlig aments
nu ero
Ġatlant o
k angaroo
bott les
Ġmultior gan
3 31
ang ement
cl ampsia
Ġcomp et
Ġ% (
infer oseptal
minimal ly
mch c
Ġinqu iries
Ġslough ing
Ġ6 34
46 3
Ġsound ly
Ġwe en
Ġhypo chr
Ġintr actable
aller gy
Ġvom itted
Ġrecom b
! "
Ġdt v
p k
s aphenous
end oscopy
Ġrepresent ative
Ġure mic
ns vt
Ġpit ressin
Ġcant onese
ĠĠĠĠĠĠĠĠĠĠĠĠĠĠĠĠĠĠĠĠĠĠĠĠĠĠĠĠĠĠĠĠ ĠĠĠĠĠĠĠĠĠĠĠĠĠĠĠĠĠĠĠĠ
ac ic
Ġam d
Ġ15 39
Ġhep c
Ġamiod erone
Ġ56 6
Ġp up
Ġp iece
is ial
Ġcl ergy
az ithro
96 5
Ġhydro bromide
wor ks
Ġafos f
w ake
dis cussion
cv vh
unt ary
sl oping
oph orectomy
Ġarteri ography
Ġun ivers
Ġaort ogram
Ġind ucible
view s
infant s
Ġ8 17
Ġind iv
thorac entesis
yp ical
per ic
Ġbas os
Ġfem or
iv udine
Ġund et
Ġevac uated
Ġparap neumonic
oca val
graph ic
Ġh ost
Ġnon labored
Ġocc up
del ay
9 10
50 2
Ġleg ally
Ġgastro duodenal
depression s
e cc
s ph
Ġprob ability
Ġred irected
48 4
% '
e e
if ies
Ġad c
Ġcour t
Ġ68 3
Ġbreak s
Ġkyph otic
7 25
os et
ep ing
Ġ15 40
Ġund igested
46 8
di uril
refer ring
t ongue
Ġs gl
oc arditis
Ġ76 3
dec ided
drop ped
ac ill
ren ic
con ts
Ġflu ro
Ġ18 45
pre bypass
m ca
ep inephrine
hydr onephrosis
Ġex clusion
Ġtx p
Ġtravel ed
Ġglomer ul
Ġc ush
ol ith
Ġv its
Ġab n
Ġen facare
Ġunivers al
h cv
Ġint ens
Ġany more
opac ification
Ġ6 21
Ġ8 37
50 3
Ġent rance
Ġ75 6
Ġpol ymicrobial
em otional
Ġch rom
Ġ8 18
orm one
ef ully
emp hys
Ġagree able
Ġchor io
Ġboard er
Ġo ment
Ġh arm
Ġvis eral
oph il
Ġger iatric
= >
50 9
Ġinc or
chrom atosis
rocyt oma
ul anate
Ġfasc ial
Ġluc id
Ġlith otripsy
Ġperiv ascular
c ig
Ġst ory
Ġpost pyloric
Ġdl rc
Ġmul it
re con
Ġmechan ics
Ġaerosol ized
a ion
50 8
20 90
cy themia
Ġcap s
Ġcoord inate
Ġisch ial
Ġw ar
as ing
-- ?
Ġ? ??
Ġ110 4
Ġspan ning
Ġdilaud ed
Ġr d
Ġwas n
ck d
ile t
trans verse
Ġkne w
7 90
9 60
Ġcon itn
igh th
Ġpt bd
Ġmyocl onic
Ġ7 16
Ġpre operatively
Ġrel apsed
46 4
Ġfew er
Ġdors um
Ġavoid ed
ovag al
Ġ6 36
Ġcl ammy
Ġdil ators
Ġb ow
Ġresp s
support ing
Ġpoly cystic
Ġtri ang
Ġnim v
Ġhot n
f ive
am azepine
Ġvaric ies
Ġmac u
rid ge
appreci ated
Ġsing ulair
3 24
Ġres end
Ġ9 37
Ġinter space
Ġj k
Ġant bx
ophthal mology
Ġboun cy
in structions
Ġtr ump
Ġbus iness
Ġcomor bidities
x an
Ġe bm
48 3
Ġsuperv ening
impro ve
som nol
Ġres cus
Ġsubc ut
Ġmat urity
Ġstre et
pleas ant
i ates
q sr
v ement
surround ing
8 10
Ġh md
block ade
Ġextr acted
Ġprem edicated
Ġincom preh
Ġdir ty
Ġparaph asic
Ġt andem
al in
en il
Ġd well
hemod ynamic
Ġcautious ly
t akes
lo ver
Ġ9 43
Ġ8 22
Ġk ind
9 90
Ġc ym
un likely
oper ation
pur ple
Ġimplant s
Ġpm r
Ġ18 40
45 8
Ġtc db
Ġmed flighted
Ġdefin ition
ram us
+ =.
p end
Ġ9 33
ardi um
Ġag lc
ox if
fib rin
oun ce
zol pidem
w rist
Ġst arter
Ġcomp ound
ral es
Ġinter lobar
Ġj t
ynam ics
Ġs ildenafil
ot osis
og ogue
Ġlower ing
off ered
Ġfoll icular
rot ide
0 65
Ġd ac
ol used
Ġup coming
Ġrhythm ic
cin ate
Ġ66 6
Ġather omatous
Ġtal us
Ġcircum stances
prem aturity
cardiover sion
Ġpharm ac
Ġreli ably
re nd
Ġf ire
ov es
%. .
pro ex
kin esia
Ġdocument ing
Ġhypog lycemics
l ift
Ġdl p
Ġthym oma
9 80
Ġth allium
Ġper ia
Ġinter ventricular
Ġcere br
Ġlength y
Ġsharp ly
Ġcarcin oid
Ġob ey
Ġcym balta
k lebsiella
Ġi atro
Ġtake back
dil atation
Ġaccept ing
r uddy
ing les
Ġradi o
Ġven ography
Ġsyst ol
do x
Ġ16 45
Ġav ms
ines e
Ġverbal izes
8 20
o oz
Ġde bulking
Ġup stroke
Ġ14 81
prom ote
Ġperm acath
drink s
Ġkink ed
Ġfid ucial
epig astric
Ġsubject ively
n y
Ġp ust
Ġc ostal
Ġs du
Ġhem oconcent
47 6
Ġivp b
Ġprecip itating
Ġescal ating
dri ft
hypercarb ic
en um
Ġflo uro
Ġnecess itating
crep itus
re a
Ġc ine
Ġ8 53
Ġac v
ts h
Ġdup l
Ġdin itrate
conver ted
b ifem
Ġabs or
Ġ67 9
Ġobvious ly
d ors
i ectomy
Ġed c
Ġz y
46 7
Ġinterpre ting
Ġtre itz
Ġconvers ations
xx xx
gro up
divertic ulitis
Ġgastrogra fin
proble m
contraind ications
Ġbar rett
Ġhodgkin s
Ġcarcin omatosis
Ġhand le
Ġconsent s
teric in
lock ing
Ġapprop iate
Ġbull ae
Ġpir iform
le ast
ac al
Ġcon sequent
Ġacc omm
Ġinvestig ate
Ġcal hco
Ġpara aortic
Ġconne ction
traz odone
Ġnormal izing
Ġaddic tion
Ġneighb or
isial ogogue
Ġd ime
de ferred
ane urys
Ġ56 2
Ġelect rical
Ġfiber optic
mil rinone
or opharynx
Ġsh ared
ting ling
Ġbolus ing
Ġradial s
Ġbutt on
Ġre eval
gastro esophageal
transf usions
Ġamyloid osis
at ropine
Ġen ergy
Ġenter ocolitis
Ġanaer obes
Ġregard less
Ġnu ero
f c
h oliday
re ferred
it ent
Ġb k
Ġ11 32
Ġsin emet
Ġswallow ed
bm t
Ġclav ulanate
organ omegaly
i osis
n ts
Ġcol istin
Ġthough out
gl aucoma
Ġtherap ies
Ġres ited
49 1
Ġhel iox
Ġmott les
ĠĠĠĠĠĠĠĠĠĠĠĠĠĠĠĠĠĠĠĠĠĠĠĠĠĠĠĠĠĠĠĠ ĠĠĠĠĠĠĠĠĠĠĠĠĠĠĠĠĠĠĠĠĠĠĠĠĠĠĠ
Ġex hal
pl ed
Ġsup plied
Ġdone pezil
49 2
88 5
car vedilol
8 30
n us
Ġd ub
yp nea
Ġdis orientation
ph ase
Ġmor o
Ġcapt uring
Ġspot s
Ġalle vi
re pe
Ġsign fic
Ġassist ant
Ġhe span
Ġnon purposeful
Ġcx wc
45 2
56 4
hal operidol
Ġtal ar
Ġmill igram
coc ci
Ġgli oblastoma
9 70
Ġ9 12
Ġfe x
Ġmult ise
hemat emesis
Ġfinish ing
Ġvaso active
Ġc ot
Ġswe ating
Ġarrythm ias
Ġt ng
Ġre creational
Ġ6 44
Ġimpression s
Ġvis itation
8 70
d elt
Ġto le
ud e
Ġextub ating
inf ected
gr im
47 7
Ġenter ococcal
Ġbioprost hesis
y lo
re positioned
ir one
Ġaw oken
Ġintra aortic
Ġsil ver
Ġwed ging
res ectable
60 9
Ġjx rl
Ġoup ut
Ġdepart mental
d ark
Ġ17 45
cle ared
Ġlac s
Ġlabet elol
Ġhil us
Ġpool ing
exert ion
Ġiatro genic
Ġpat ernal
Ġblo ating
Ġhyper oxia
Ġblock age
Ġanest hetic
Ġ18 15
bal loon
Ġinfl ation
Ġvig ileo
correct ed
y f
und ant
cin olone
Ġdim ished
Ġoffer ing
Ġsund own
aparin ux
Ġaqu aphor
Ġlam otrigine
Ġbetablock er
fasc icular
c endo
ud id
Ġj ks
Ġmet ap
Ġster istr
47 3
Ġpy el
Ġaut omated
Ġsof ter
Ġjks d
p d
ul monary
Ġr ide
Ġrol lover
Ġtrump et
Ġaccomm od
Ġp or
Ġex halation
cop lasma
Ġdeline ating
intervent ions
resusc itation
Ġconcom itant
gene ic
bs k
Ġaz athioprine
Ġtag s
Ġhig hest
3 13
su ch
Ġect asia
Ġcart ridge
nitro furantoin
5 35
it i
ion itis
Ġside port
aud ible
Ġ57 2
Ġchor oid
Ġhyperech oic
Ġcan als
Ġss cp
Ġvasod il
Ġdes igned
pre vent
Ġmagn a
Ġpol yt
cop ing
dec isions
spl enic
Ġgener ator
Ġ15 43
Ġ16 15
9 30
49 6
vas opressin
Ġloud est
Ġ100 5
Ġane ursym
88 8
aden oma
f use
u vc
Ġpre g
ameter s
Ġcef otaxime
Ġbb b
3 11
az y
59 1
lact ation
Ġvalpro ic
Ġs ga
Ġ8 23
Ġhr t
comp ress
Ġst ably
Ġle uc
og eal
Ġimp ressive
Ġeval ute
Ġtim i
visual ization
pyl ori
ithrom ax
Ġ7 42
Ġ6 31
Ġ8 24
49 4
3 28
Ġg yr
Ġ11 45
60 8
Ġpin prick
transf ered
l ot
Ġr sp
Ġat ri
Ġass y
ev ol
gras p
b ibas
re ll
Ġhe s
Ġper ist
oth oracic
Ġempir ical
Ġwash ings
Ġhypoint ense
Ġsider ails
Ġp x
Ġ6 41
Ġtrans cath
log raft
Ġ95 9
f vc
Ġh z
se gmental
Ġme per
Ġ80 7
Ġcar bid
par acentesis
sy ringe
Ġbur k
Ġresed ated
Ġre breather
50 4
mm ol
ec chym
Ġent rap
Ġvig il
exc lude
p ow
t am
pl s
Ġar ises
ss ri
Ġimprovement s
pediatric ian
Ġneonat ologist
Ġmeper idine
tt p
len gth
Ġintram uscular
c is
Ġweek er
Ġbiops ied
meas uring
ipsy ch
Ġdeb ility
Ġsciatic a
Ġcarbid opa
Ġd og
cont ain
Ġ15 45
de ve
section al
amn ionitis
6 15
: ;
en atal
80 7
Ġthromb in
Ġevening s
Ġdesatur ate
anast om
Ġun arousable
Ġaf rin
par otid
Ġcarb oplatin
malign ancy
Ġa k
Ġsup ratentorial
47 1
att ention
Ġcann ulated
7 75
urg ery
Ġ58 1
Ġsyn ch
Ġbac ill
mac ro
s vo
en ly
ac c
Ġ5 42
ened ryl
Ġitch iness
c ose
Ġ10 36
Ġsm iling
Ġlay ers
Ġretri eval
Ġ5 93
Ġno v
Ġex ha
Ġcat hed
Ġ15 15
Ġblock ing
Ġpred is
Ġdst ix
Ġgem fibrozil
Ġreticul ocyte
Ġbent all
Ġto w
Ġextrem ties
58 8
Ġbum per
Ġpain less
sh ields
Ġgro ove
ipl ane
Ġparad oxic
bis acodyl
c itabine
56 7
serv ices
Ġamb ient
f req
im on
Ġimp ulsive
Ġwhen ever
oral ly
sero quel
bro ken
Ġendor se
Ġhallucin ating
er n
Ġn apping
est ration
Ġstress ed
Ġstap led
Ġvag ina
Ġmyocl onus
Ġduc ol
Ġa usc
ic ulopathy
ren ess
Ġradi ates
Ġmd r
plan ning
Ġfaint ly
hydro cephalus
operic ardium
Ġtribut aries
3 99
Ġth read
Ġrec ulture
20 87
rim azole
Ġapp lying
Ġinter locking
itro bacter
marg inal
5 45
Ġt ias
Ġ9 98
rop rium
Ġundet ectable
Ġcon gl
70 2
Ġ78 8
Ġcon struction
et om
Ġ25 58
to o
Ġmass ively
onat ate
Ġsx tn
umin um
init iation
emphys ema
Ġ8 11
Ġhepat obiliary
Ġexternal ly
Ġc ou
Ġpro crit
Ġpre gn
Ġfont anells
Ġreass ure
dys uria
al dactone
Ġtub al
Ġcr its
app etite
el en
Ġ8 29
md i
compl aints
dex amethasone
cholest erol
b bs
Ġs np
ment hol
com es
cy cl
inclu ded
labor atories
p ron
Ġt it
se x
Ġ10 22
Ġins itu
rel in
oder ma
id ep
Ġad herent
bc x
Ġeng aged
uc itation
Ġprot on
Ġmax ed
68 2
Ġtele ph
vo cet
3 97
Ġh ormone
Ġmet op
hyper dynamic
Ġrever ted
f inding
Ġst v
Ġhem orr
50 7
Ġax es
Ġfron to
neutrop enia
f irm
Ġm ip
sim v
+ =
Ġtot prot
b all
Ġh h
Ġfor th
Ġlymph ocytic
Ġdys motility
fe rences
leuk ocytes
bru its
n ers
Ġ8 26
uro x
Ġnon hemorrhagic
Ġ99 7
Ġdul oxetine
pol yp
Ġdise ases
Ġvertebro basilar
in ction
Ġ110 6
sc ro
Ġspl ints
0 95
Ġs f
Ġ10 25
Ġfh pa
immun ization
Ġfrustr ation
labet alol
Ġadvent itious
3 19
u ent
Ġbe eper
Ġco oler
Ġhype rex
Ġseed y
clind a
Ġdefec its
Ġculpr it
Ġw ise
Ġh mf
Ġ10 17
Ġabs ol
part icular
nip ple
h ugger
Ġc fa
Ġ? #
met ric
Ġoper ate
cell aneous
Ġren agel
Ġd or
Ġmicro calcifications
upd ates
Ġdefer ves
Ġaspergill osis
ad id
Ġ9 28
ement ed
ode oxy
Ġmo ans
Ġverteb rectomy
an asar
Ġ9 17
Ġdis plac
Ġcons ol
Ġhypo albuminemia
Ġbi ke
Ġthro b
Ġconsist ing
Ġkick ing
Ġ8 28
Ġrh c
met oclopramide
Ġ(? )
Ġloop ed
mem branes
Ġjit tery
Ġpolyt rauma
) {
is osorbide
Ġelev ates
Ġ66 4
Ġhur ts
m so
ren ox
uro logy
Ġ16 50
Ġeffect iveness
diaph oresis
3 16
Ġch inese
Ġind ep
Ġhemat ologic
Ġfocal ly
Ġconsist ant
Ġobli qu
c jojqj
it rop
he it
Ġst yloid
Ġ18 50
Ġey ed
Ġlm w
adequ ately
Ġb ing
Ġ9 29
Ġcardi omy
Ġvas ovagal
angi oplasty
sten otic
co up
arr ative
Ġcell ul
Ġprec ise
Ġeffac ed
Ġb ib
Ġper idex
ore mentioned
int ensity
46 1
trend ed
orth oped
3 26
Ġh ocm
Ġflowsheet s
h anded
Ġn chct
il is
Ġvis cus
Ġreple at
invol ving
quadr ant
z ar
on el
Ġp ound
em nt
Ġgluc ophage
Ġ75 4
Ġtib c
Ġbifur c
Ġcut ting
Ġsal iv
Ġendomet rium
bicarb onate
Ġl amin
lo ves
Ġ9 13
Ġcontraind icated
Ġnur sed
20 89
onch orous
im etry
ce phalexin
Ġshort ening
Ġanasar cic
Ġcompress es
show ing
bro ad
8 25
Ġb os
Ġst ops
dis h
Ġgr ab
col ostomy
Ġfoc using
* [
7 45
a ova
b reat
s k
mening itis
Ġnormother mic
Ġimp le
co re
Ġstab bing
h bsag
Ġcar vue
clear ance
Ġpoly cythemia
Ġund ert
Ġll tc
meth adone
Ġad vis
Ġso aked
kg c
Ġho oked
alb ital
intrap arenchymal
8 90
d uod
i u
Ġt ns
Ġe ighth
am io
Ġk kgc
red uced
iz an
Ġpar arenal
Ġwa ist
Ġdischarg es
Ġun ch
ile ostomy
flo vent
Ġpans ensitive
bibas ilar
at ics
Ġo z
ult imately
Ġdis card
Ġrec ived
Ġlay er
Ġsustain ing
Ġscaph oid
Ġglomerul onephritis
Ġg ancyclovir
Ġ8 12
Ġalk alemia
Ġclar ified
Ġconcent rate
Ġnit ric
neur ontin
Ġqu iac
Ġph le
Ġneur or
Ġexhib its
Ġcon sequence
ne ph
Ġun cinate
Ġsw ish
Ġbl ed
47 4
Ġhyperv entilation
Ġrsr c
Ġkil ogram
quick ly
urox ime
3 29
of ovir
exp iratory
cat aract
narc otic
w ant
Ġt un
op recip
bi oprost
ran itidine
pr im
Ġlist ens
3 14
s aline
Ġf f
Ġe us
ear lier
ob s
ob acill
urg ent
sig nal
Ġafso f
3 22
Ġp op
ub erant
Ġ8 94
pl atin
Ġvi ability
Ġ75 8
h ist
Ġn in
Ġint ention
Ġ10 96
70 1
Ġtr ile
are as
qu ant
Ġ12 33
Ġcop ius
Ġpoly chr
syn throid
Ġjx kc
______ _
Ġlear n
Ġhyper sensitivity
levof lox
Ġspan ned
Ġcyclospor in
Ġp vr
Ġre in
Ġbas ically
ic in
Ġ10 88
Ġmouth care
odeoxy glucose
Ġp int
Ġ6 43
Ġcr ampy
Ġ13 45
anasar ca
h or
Ġ7 31
Ġhous ing
ab ec
Ġcolon scopy
Ġos elt
rd w
lymph oma
Ġbronchod ilator
Ġnort riptyline
Ġfex ofenadine
m ssa
Ġdis ection
ect opic
az treonam
Ġnas otracheal
cent esis
Ġvir t
Ġven odyne
crit eria
al ready
ad vised
em t
cort ical
dext rose
Ġpropaf ol
Ġm tp
Ġme atus
Ġdescrib e
Ġincompreh ensible
Ġd ates
46 6
Ġretro pharyngeal
Ġfluor odeoxyglucose
Ġvo iced
Ġtight en
Ġpara valvular
Ġfift een
tempor ary
Ġinterfer on
parotid s
ur a
Ġex iting
66 2
pneum o
Ġdiverticul i
psychiat ric
stabil ized
p ression
Ġp ins
ol ytics
Ġsp astic
Ġche mor
Ġinter sp
Ġmes alamine
Ġexact ly
Ġtns f
h i
m ts
t ow
Ġ9 32
iz able
co ffee
Ġdil u
Ġintrac ran
Ġmarginal ly
Ġconcent ric
Ġdir bili
Ġepigast rium
Ġc ure
Ġafter ward
ogene ity
inde x
Ġdysarth ric
acal cet
m aps
Ġsen ior
Ġdecomp ressive
prolong ation
letharg y
rend ered
g ib
er i
Ġw ma
Ġhep b
Ġce lebrex
Ġspe ach
comm and
Ġ5 21
Ġ6 51
dis continue
Ġ? [**
Ġdry ing
(- ).
Ġirrit ated
g lu
Ġv q
Ġhem or
Ġoc ular
Ġcareg iver
Ġb enedryl
am ate
Ġ9 34
Ġrob itussin
Ġcomp art
tt y
Ġhead ed
spontaneous ly
Ġglobal ly
Ġintro d
Ġdon ation
Ġnephrost ogram
Ġat ria
th r
Ġle x
uro sepsis
cont d
Ġ? '
dist ension
sc ar
Ġnt d
Ġlid oderm
Ġmelan a
init ely
Ġhypercap nea
compens ated
idep ress
: //
v ated
cin osis
Ġ120 5
Ġrol led
cereb ellar
he av
Ġtrans lation
60 6
ta a
diures e
Ġhemo chromatosis
~~ ~~
w wp
Ġg am
Ġ80 9
Ġw il
ig estion
Ġneuro pathic
56 2
Ġjer ks
6 45
Ġg ass
Ġpo ison
Ġ97 7
Ġalzheim ers
Ġrecc om
Ġvacc ination
le ase
pre p
Ġtrache otomy
lim bs
par ameters
Ġpts d
Ġunsuccessful ly
ĠĠĠĠĠĠĠĠĠĠĠĠĠĠĠĠĠĠĠĠĠĠĠĠĠĠĠĠĠĠĠĠĠĠĠĠĠĠĠĠĠĠĠĠĠĠĠĠ ĠĠĠĠĠĠĠĠ
olip id
c diff
Ġl opress
ang ements
Ġq hr
su ic
Ġradi ated
98 9
Ġorient ations
muc osal
Ġesc italopram
Ġ !!
Ġap lastic
addl ing
Ġsom n
Ġlift ed
Ġteleph oned
p ic
Ġ10 11
Ġ12 75
Ġ13 23
Ġmy ocarditis
Ġ96 8
Ġsplint ed
6 65
Ġr iding
ig eminal
Ġcis platin
Ġmultil umen
ult aneous
Ġsa uce
liquid s
stre am
ital in
Ġ13 40
Ġpe ac
57 1
68 8
lap ar
Ġexplan ations
cl amp
Ġlab ility
Ġbl ade
Ġpap illa
Ġburk itt
Ġh bs
Ġcigare tte
g lyburide
n ine
Ġ ence
Ġb iplane
Ġim balance
Ġdist raction
Ġant ipsych
ore g
Ġem t
Ġelectro de
murm urs
Ġfle ets
Ġblast s
oprecip itate
m wf
Ġc oded
46 9
oxy contin
Ġhypop ot
tet racycline
imon idine
ob lastic
90 6
fl ank
tachy pneic
Ġerr atic
represent s
Ġemp loyment
Ġphasic ity
poss ibility
debr idement
Ġhypopot assemia
Ġt fts
Ġs br
iv ated
Ġcare t
Ġconsult ant
Ġnap roxen
izan idine
l dl
um ps
ber ry
Ġdemonstr ation
Ġloc ate
Ġ88 2
Ġmonth ly
opl ication
Ġparas agittal
am t
Ġ10 40
-- [**
Ġocc ational
Ġps up
na ud
66 9
Ġmat ched
Ġvic ryl
etom idine
h p
t arget
ĠĠĠĠĠĠĠĠĠĠĠĠĠĠĠĠĠĠĠĠĠĠĠĠĠĠĠĠĠĠĠĠĠĠĠĠĠĠĠĠĠĠĠĠĠĠĠĠĠĠĠĠĠĠĠĠĠĠĠĠĠĠĠĠ ĠĠĠĠĠĠĠĠĠĠĠĠĠ
ase ptal
uff p
Ġstabil izing
mid dle
Ġformer ly
Ġtherap utic
conj unctiv
Ġchn age
Ġp arest
Ġsh o
Ġ14 45
Ġly rica
Ġ90 8
Ġther modilution
Ġeat en
Ġ12 40
Ġgent a
Ġsk illed
zol amide
Ġreason ably
Ġstat ements
Ġanalges ic
repe ated
Ġnormal ize
Ġcardi ophrenic
Ġlact ose
Ġdiv er
ynchron y
Ġmix ture
inver sions
Ġbat hed
Ġh ds
Ġinter position
Ġcephal ization
Ġgd c
t ips
is per
Ġe agg
Ġ70 4
Ġexp lo
68 3
Ġtran ferred
Ġhyperenhanc ement
z antac
Ġqu inolones
cy geal
Ġideal ly
Ġ77 1
Ġinfl amed
elev ations
] .
Ġt vi
Ġwith d
st ep
Ġpt l
toler ate
Ġmobil ization
Ġdistr ibuted
Ġureth ra
t aper
Ġb on
res ia
Ġ6 94
Ġ8 59
Ġ10 83
Ġsh ingles
Ġnon responsive
Ġbs x
Ġamphet mn
d stick
Ġf tt
st aff
em iny
Ġse es
Ġun iv
Ġsc al
Ġneuro checks
Ġpar ainfluenza
rifax imin
Ġl h
Ġst eat
Ġad am
col onic
Ġdrink er
Ġhemic ran
Ġeccym osis
Ġbupiv icaine
Ġq achs
Ġag it
u ing
an ed
ell ation
Ġendor sed
Ġsteristr ips
6 55
Ġp vi
Ġo le
Ġacc ust
Ġreact s
Ġirrit ability
Ġ _
Ġ13 80
Ġcap ut
lox acillin
Ġtran fer
circum scribed
Ġstri king
ab led
Ġclin ician
gr uent
68 4
Ġil iop
pull ed
7 35
7 65
9 25
Ġf vc
Ġre attempt
Ġch iar
of lu
55 1
sub c
Ġmamm ography
Ġhot el
4 13
al ter
Ġr ation
ph or
trans amin
Ġenter itis
yr amine
Ġprophyl actically
slu ggish
Ġt ick
em oral
Ġtr av
Ġaf orementioned
per iods
med etomidine
reg istered
che w
Ġscler osing
Ġreq uring
Ġ224 5
contact s
Ġweigh ed
ophthal mic
appoint ments
Ġal uminum
Ġup s
Ġalb icans
Ġmy coplasma
Ġvac uo
gastro enter
Ġentrap ment
in cr
Ġpic tures
Ġ78 2
Ġrepair s
sleep y
at tered
Ġsp fc
Ġun resectable
Ġlos ing
dist ribution
Ġembol is
Ġembol ize
organ ized
Ġldl calc
p opliteal
z ocor
Ġto ast
ac aine
end a
Ġdef lection
Ġeng age
Ġdn ge
Ġ86 1
Ġherni ated
inyl choline
d ul
w oman
Ġ10 58
Ġind ef
Ġpan nus
sa o
Ġinconsist antly
h azy
Ġ5 52
Ġ8 44
pn s
Ġosteop enic
yph ene
satur ations
Ġacknowled ges
90 8
Ġamput ations
Ġpan orex
Ġment ion
Ġal lograft
vis its
56 3
igg er
ol in
iv ation
Ġ10 70
Ġ17 11
Ġthorac ocentesis
di ure
Ġven otomy
Ġsb na
wor king
cran on
t ons
the less
Ġcorrect ing
Ġlex apro
e le
h ren
al i
Ġfor t
arin ii
Ġpar aseptal
Ġarthro scopy
independent ly
@@@@ @@@@
opos terior
at adine
Ġst ar
ap enem
Ġgav aging
Ġserosangu ineous
Ġfond aparinux
Ġt u
Ġ8 34
ex amin
Ġ90 4
Ġcolle ge
Ġintr ad
Ġremember s
Ġbink ie
Ġthrombo embolic
hren heit
as leep
oplasm osis
Ġquant ify
oscop ies
s q
Ġv ial
Ġgu iding
Ġoxy butynin
Ġbur ping
contain ment
7 55
Ġk ids
Ġflu dro
Ġdys kinesis
ext ending
requ ires
alcoh olic
Ġindepend ence
h uo
Ġt iter
os urgery
ff ered
68 9
Ġmitt s
**] =
Ġ9 44
57 7
Ġdm i
occ luded
Ġm ct
ri ate
Ġ12 41
Ġplac es
Ġsplen ule
Ġcerv ic
Ġchorio amnionitis
st ability
Ġper spective
cardi omegaly
Ġlam ivudine
brach ial
4 24
8 75
c ame
Ġcre ation
dt pa
Ġredraw n
ip r
Ġ8 13
Ġrespon ce
su les
Ġpal pat
Ġhemodyn mics
Ġa head
at on
Ġm vt
Ġdil ution
Ġany where
e clampsia
Ġn alox
te eth
Ġspec iated
Ġclo th
Ġtouch ing
Ġparamed ian
i ations
Ġsub s
Ġadrenal ectomy
Ġsuboptimal ly
Ġla id
flu ct
Ġdesatur ates
nif edipine
4 16
6 35
Ġn ss
os f
-- ->
Ġus g
Ġrad iculopathy
itch en
ab lation
Ġ90 1
67 9
Ġtum ors
Ġdecl ines
Ġyiel ded
comp onent
Ġperi renal
Ġchrom os
o ctreotide
Ġst ained
op nea
Ġpl enty
pf o
er il
Ġrece ptive
aph os
na res
59 2
Ġstrength ening
mass ive
Ġhypercoagul able
duod erm
Ġ( "
Ġcar ried
acer ation
Ġtr ail
Ġpneum otosis
oprol iferative
Ġvo ices
Ġlamine ctomies
Ġdu one
g lip
Ġanti emetics
Ġritux an
Ġstabl ized
it ous
Ġ10 23
Ġout p
ben eprotein
Ġhumid ification
Ġpasse y
0 14
op ening
Ġfurther more
om es
ab use
Ġpro meth
Ġpo iklo
Ġ20 45
tr amadol
Ġ99 5
== =
Ġip rat
Ġfund oplication
Ġvalpro ate
Ġcouns eling
Ġtriang ular
ce ph
Ġ7 43
Ġsh op
lik es
Ġat resia
Ġpo ba
ole ak
Ġav nrt
Ġpy uria
Ġcrypt ococcal
ople ural
cover age
mes enteric
Ġwegen er
Ġnalox one
de creasing
Ġu ip
Ġaw akes
Ġ86 4
Ġpc w
Ġ ia
al at
Ġ8 49
Ġ10 14
rol led
Ġsu c
90 3
Ġconsist s
Ġcompens atory
Ġallo geneic
h ap
l actam
in hal
ot tal
Ġext ras
Ġen cro
Ġ16 20
hem i
mid azolam
Ġreorient s
path ologically
Ġobtund ation
nr sg
Ġel ic
Ġobliter ans
ul ary
os sible
Ġres ite
Ġsp ill
ri ers
Ġexclu ding
Ġheter ogeneity
Ġbenzodiaz epine
Ġresc ue
Ġtuber osity
Ġper if
Ġast rocytoma
Ġbenz onatate
Ġball on
Ġjk pe
c old
Ġt i
Ġb a
Ġtr uly
per l
55 4
Ġrel ating
Ġopt ed
Ġtest icle
Ġmono hydrate
rig ors
Ġmort ality
Ġlent iform
m aze
re place
am idine
ra id
55 2
80 2
56 1
Ġvar ix
Ġstreak s
Ġhur t
Ġaccust ick
Ġprometh azine
c ogn
Ġc usp
ast ia
ard ia
sp ont
Ġt ask
Ġc as
it ches
Ġins ular
cent er
Ġhydro chloride
Ġcoagul opathic
circum ference
glip izide
Ġ8 36
Ġover sedation
20 84
59 6
Ġ68 7
off er
88 1
Ġvertebro plasty
f ex
Ġe i
ium bilical
med iastinum
57 8
Ġtrend elen
6 95
Ġr c
met ria
a is
__ _
Ġmouth wash
bolus es
Ġsignfic ant
in ch
red o
ding er
Ġant isialogogue
Ġdys morphic
Ġmy ositis
56 8
Ġ56 1
Ġvari ability
Ġanap hyl
Ġmeaning ful
in ability
Ġap ml
Ġocc luding
Ġprotect ing
Ġventricul ography
Ġoverwhel med
id ality
Ġso aks
Ġnight ly
Ġmal aria
Ġtv r
sec utive
adj usted
================ ================
ies ty
cl amped
cal cinosis
ster oid
omed ullary
/= ;
Ġsel dinger
Ġoptimal ly
Ġeuv olemia
Ġt ca
all us
Ġus age
59 3
adj acent
arry thm
iro ve
rell in
i ography
p ov
le tte
ay s
pl ts
com astia
aps ing
Ġn es
im dur
Ġdecomp ress
carb azepine
var ices
psychiat ry
Ġfior icet
Ġrel apse
Ġdeep er
Ġreli able
sh adow
att entive
irove ci
g ol
ro te
im azole
70 3
Ġ97 9
Ġcrack ers
enter ococcus
Ġquant itative
Ġm x
Ġe ag
Ġres ources
Ġca val
Ġcap sules
Ġbro ch
Ġalgorith m
Ġducol ax
obacill us
chew able
7 95
Ġc pm
ver ses
desat ur
list ed
b ands
f ood
Ġn av
Ġcon gruent
Ġ7 92
Ġ6 92
Ġj bre
Ġsoon er
Ġactiv ation
Ġperia ortic
o ured
Ġ15 19
90 7
57 3
titr ation
Ġseed ing
Ġdar vocet
thurs day
neos ure
the m
Ġend oleak
Ġcry oprecipitate
Ġasbest osis
id emia
Ġcont ine
58 3
Ġinteg relin
treat ments
Ġresus itation
oc ate
Ġint ral
ov orin
Ġpre tty
Ġ60 3
Ġrhon cor
Ġbreast feeds
Ġ57 3
wor se
Ġcooper ation
i ing
ac ae
Ġ2 215
st atic
ia xin
ib lock
Ġpost ion
vel oc
Ġsmear s
Ġkil o
Ġexpress es
Ġmacrocy tic
c chr
se ems
Ġch ron
ang ina
98 3
56 6
whe ther
ud ed
Ġ76 2
Ġhydroxy zine
d osing
re ferences
Ġw rit
Ġ76 7
Ġrt a
work up
Ġtend ons
Ġnutram igen
Ġp he
Ġrep ost
55 9
Ġdeterior ate
Ġseason al
d if
Ġt uck
ter ase
Ġpre ferred
Ġpol ym
swe ats
wors ened
seg ments
cover ing
Ġparamed iastinal
( ?
Ġ ert
Ġ10 10
Ġfasc itis
Ġphleb itis
Ġlaryng oscopy
Ġextras ystole
Ġa ching
Ġp com
Ġat tain
Ġ16 80
Ġ97 8
Ġped uncle
Ġpn gt
Ġhom ograft
Ġdefib rillation
Ġphle gm
Ġp cm
Ġn aming
Ġ( =
cl izine
Ġ150 4
Ġanx i
Ġpnd g
Ġpenet rating
ophil us
as ol
ent a
Ġ9 49
iz ers
Ġsl ipped
pre cautions
Ġhyper chlo
90 4
Ġvar ies
Ġcomb at
Ġcandid iasis
Ġbacill i
Ġre warming
Ġg wp
Ġ5 91
Ġimp ossible
Ġport ably
angi ography
ambul atory
orth opnea
Ġk itchen
Ġ10 28
tt ing
Ġj iroveci
Ġbl s
adin ess
a ug
f j
l ul
Ġc ab
Ġ80 4
function al
Ġretro spect
paren tal
support ive
Ġpleur x
oster one
od a
ot yp
Ġlab ia
Ġpres ident
Ġreferral s
r bbb
el vis
st ents
Ġli ws
iot ic
hg b
Ġabs orb
lob ulin
Ġextr ap
Ġtet ro
Ġexhib iting
Ġker lex
particular ly
od ol
ov ed
70 7
Ġbase xs
Ġcontact ing
Ġfix ator
Ġinotrop es
Ġileo ce
Ġcongl omer
Ġb ental
us ual
Ġsp end
not ified
oph ilia
rs r
Ġfibrin oge
present ing
Ġsi rolimus
Ġdex medetomidine
Ġclim bed
fing ers
supple mental
m er
v inyl
Ġc itrobacter
am bien
20 63
Ġpres criptions
duoden um
Ġteach er
Ġphleb olith
advanc ing
Ġconitn ue
c olectomy
z ema
Ġs angu
55 3
Ġrele ased
66 6
compl ication
ser os
Ġeng ine
Ġocca isional
Ġdemyel inating
encephal ic
Ġtons ils
drop s
pil low
iv ist
Ġ6 42
Ġ10 44
hem othorax
spec imen
Ġcompart ments
es es
Ġl ga
Ġcon currently
un stable
Ġml hh
Ġmet rop
Ġtrap ped
accur ate
Ġcardiomy opathies
in contin
Ġant idepress
90 2
par kinson
enlarg ement
Ġole cranon
Ġiliop soas
, -
m ott
ou ching
fl att
lb ack
66 3
Ġpoly morphic
sur face
[ [**
Ġmed ullary
Ġmonitor s
anc ial
68 7
pin atus
pov idone
os ition
Ġpul lback
rheum at
Ġw ider
Ġhand les
Ġmuc inex
pseud o
Ġp am
at ypical
al ar
Ġb io
se lect
Ġpoly cose
Ġincor rect
Ġax ox
fe rential
man aged
Ġcore valve
Ġanastam otic
Ġtext ural
Ġepid id
bring ing
Ġa ft
Ġbar riers
======== ====
ampy lob
Ġ150 1
Ġsim ultaneous
pe a
Ġ68 4
Ġcholest atic
Ġopi oids
Ġplay tex
meas ure
Ġcaud al
hard ware
Ġmoniot r
ul s
Ġexam iner
ci wa
sug ars
Ġectop i
Ġwand ering
Ġdisconne cted
Ġoment um
Ġnin th
Ġtrans abdominal
Ġlab ial
lev etiracetam
Ġexp and
Ġcool ed
Ġsch f
lit azone
Ġrac emic
8 55
d d
se ctomy
te rene
Ġtriple ts
marked ly
l vh
it ve
Ġb ne
Ġinfiltr ating
Ġhemip elvis
Ġcranioc ervical
ecc entric
Ġextrasystole s
Ġsc abs
bas es
Ġrevers als
dob ut
f o
x ray
st at
Ġ10 97
Ġsh ins
Ġso reness
Ġlab at
Ġextrem it
ocal c
Ġ88 4
Ġuro stomy
Ġdic loxacillin
Ġaut oreg
Ġattend ance
scre ening
, (
she ath
80 1
80 6
**]) -
59 4
Ġquadr igeminal
empir ic
Ġvasodil atory
pl ates
Ġ90 7
Ġdem ands
Ġ67 4
Ġbes ylate
c osis
l ge
ed ematous
Ġtr ain
Ġsp ider
app rop
Ġ77 2
Ġips ilateral
Ġindiv idual
Ġad em
Ġtrans dermal
Ġ14 44
rece ive
attempt s
Ġdisloc ated
residual s
inver sion
Ġgyne comastia
orne y
o cephalic
Ġm ute
Ġ2 145
op an
Ġperf using
Ġz ithromax
Ġpred nisolone
Ġagg renox
Ġflank s
Ġeyel ids
Ġtext ure
tues day
im et
ap ime
Ġext rim
20 79
respon ding
flu c
Ġchew ing
Ġheav iness
Ġrid ge
Ġsta us
herni ation
ampylob acter
Ġclot rimazole
ipl ate
Ġmacro cyt
Ġmediastin oscopy
s ure
Ġd bili
os amine
ur inal
rom atosis
ect omies
57 2
57 6
comp rom
Ġ86 7
Ġfight ing
Ġpx db
Ġ10 60
ph eny
Ġfl onase
Ġ90 6
lim b
concl usive
nas ogastric
Ġc ep
Ġm ant
Ġre intubate
Ġ10 19
20 85
ery sm
70 6
Ġox za
Ġcommunic ative
Ġrhin itis
super ficial
a ureus
Ġin appropriately
Ġres istent
Ġqu inine
Ġshort ened
Ġsick le
experi ence
Ġmediastin itis
e ither
t osis
Ġre occ
ooz ing
Ġ ).
in complete
Ġm ism
Ġ1 215
oc ulated
ung als
Ġsl umped
Ġro omm
Ġlymph edema
Ġpur ulence
Ġcur led
Ġpuff y
Ġanat om
grad ually
Ġburs itis
p ps
Ġ $
Ġk ep
Ġpre existing
sign ed
cere br
Ġinteg rellin
Ġperm ission
ophy te
Ġritux imab
Ġintracran ially
Ġc os
Ġap r
Ġimp ella
Ġsc vo
pe re
Ġmic ron
Ġcyst ogram
Ġspec s
Ġclo thing
j oint
Ġt n
ob oots
Ġob j
Ġ13 72
Ġpress ers
58 1
Ġlong term
Ġthin ner
Ġsagittal ly
Ġpheny to
Ġbound ing
meth yl
Ġmultise quence
Ġdilu adid
t i
t in
Ġin ad
Ġl ately
Ġ9 36
Ġsh oot
Ġpul satile
ys ed
af b
Ġmet ic
ke pt
Ġexacerb ations
Ġdur a
rif ampin
void ed
evac uation
Ġpul s
vi x
70 9
cp c
Ġcard ia
Ġ217 7
retro cardiac
Ġmex il
k d
Ġin g
ine f
Ġbil oma
Ġen f
58 4
Ġpf sf
Ġendocrin ology
Ġdepos its
Ġsundown ing
h m
s omet
Ġg da
Ġ70 2
Ġfunction s
Ġclo acae
Ġexpos ures
Ġsn x
stim uli
Ġgam ma
od uoden
ob structed
Ġ13 24
Ġhep bsag
55 7
58 2
Ġmucos itis
Ġprotr udes
epile ptic
Ġmicrocy tic
Ġpnuem onia
c ut
o qu
Ġ100 8
Ġpe aking
Ġds ats
Ġmark ing
append ectomy
Ġf k
Ġ11 31
Ġinsp ect
post op
Ġnever theless
Ġlet ter
Ġkil ograms
Ġwak eful
Ġbne ign
p alate
in between
Ġt all
Ġcon ce
ast in
Ġ10 13
Ġnormal ization
Ġcm p
Ġ17 60
Ġwake up
Ġhemi arch
Ġstock ings
Ġthrob bing
Ġhyp opharynx
Ġsw eat
Ġns ip
90 1
Ġ110 7
Ġmes othe
Ġib s
Ġcalcit onin
cig are
n urs
Ġam erican
Ġper ph
Ġ78 9
Ġosm olar
Ġopi oid
Ġost ium
Ġfus iform
opos ide
st ix
Ġat rio
80 8
// -
69 1
aps one
Ġproceed ure
Ġoselt amivir
Ġut ility
Ġonc ologic
Ġmen str
Ġshel ter
3 98
e ating
y cle
Ġb iaxin
Ġy gd
Ġmid nite
Ġanticoagul ant
4 37
b row
y d
in odular
cc al
Ġorth ostasis
Ġmus ic
Ġchond ro
Ġaccommod ation
Ġpeac efully
l ott
m igr
t ox
or a
ic ar
Ġph allus
gest ational
Ġfem urs
Ġ75 2
Ġprocess ed
fe v
uprbc s
Ġhall way
Ġcin acalcet
Ġhemos ider
Ġb usp
Ġe ats
Ġun k
Ġsup press
Ġ24 37
55 6
Ġrad s
78 4
Ġcircum scribed
lv ot
Ġmyx omatous
4 12
Ġbil ous
Ġbr imonidine
Ġqu al
Ġvar ied
Ġbing e
Ġn idus
ar is
Ġr ises
Ġ7 93
Ġtoler ation
Ġsurg ic
Ġdys p
Ġalb ut
cro ss
Ġuro logist
Ġsound ed
Ġgroup s
Ġray naud
cann ulation
Ġdiscard ed
el lo
em bo
ov arian
Ġant ral
oma ir
Ġtric or
Ġconst ellation
Ġpy rid
Ġallo genic
Ġrecall s
ref used
Ġc f
Ġthe ophylline
Ġinf und
Ġbs a
Ġsit ters
insert ion
Ġfistul as
Ġconglomer ate
Ġg iv
Ġesoph ogeal
doppler able
Ġel vated
Ġnebul ization
Ġgastroenter ologist
8 65
Ġt apping
Ġab il
Ġne arest
70 4
Ġextra v
form ations
Ġfacil ities
Ġmicroangi opathic
Ġw ane
ic p
un ate
Ġaut oset
corne al
sch iz
Ġpregn ant
7 15
bl anket
(> =
ne u
sup r
Ġpoly vinyl
Ġisol ates
Ġolig o
Ġdefib rotide
Ġanz emet
[ ]
ct ive
Ġ7 41
usp ension
Ġcoc cygeal
Ġhom ogenous
Ġtriam cinolone
shadow ing
g ment
al n
or ow
Ġosteophy tosis
Ġamin o
Ġin struct
um bs
Ġso le
Ġidentifi able
Ġcross es
Ġta a
Ġgutter s
n ap
Ġp ter
Ġh hh
pt ively
ud in
Ġ97 6
57 9
need ing
Ġsi ez
Ġmanip ulated
Ġectop ics
Ġaortobifem oral
c and
Ġs its
im port
Ġev ar
Ġaf raid
Ġind bili
Ġstress ors
56 9
Ġscler oderma
Ġresident s
leg ic
Ġattr ib
Ġtachyp enic
pow der
c il
Ġl cpc
ot omies
Ġper iumbilical
Ġrec ipro
Ġ18 34
Ġcompl icating
Ġlr ge
Ġcharacter istic
Ġretain er
y nal
ac cept
Ġlm wh
Ġreconsult ed
chemist ry
Ġgall op
Ġcyt ometry
Ġmilligram s
ce lexa
ure th
Ġpo ikilocy
ren stein
Ġco inc
iss en
Ġ77 9
Ġredd ness
avid ity
Ġincre ments
Ġrebleed s
i ud
at ide
ab alin
ob st
ach ol
99 2
Ġnitro g
Ġpoly chrom
Ġbenef icial
ingu inal
Ġo ct
Ġb other
Ġper ipro
Ġtf e
Ġvis ibly
97 3
Ġagg res
Ġstren ght
Ġnam es
Ġd ress
ab ras
Ġ7 94
elect ronically
98 2
Ġw b
ur bed
ac oustic
el b
Ġ**] /[**
Ġmult is
90 9
58 6
Ġconst riction
Ġtrial ing
Ġmat ch
Ġsam pling
Ġsucc inylcholine
Ġosm otic
pap illary
gua ifenesin
alter ation
80 3
Ġ75 3
Ġvas otec
pack ed
o ys
Ġw rote
Ġres ear
Ġ10 77
Ġdown wards
Ġauscult ate
i ence
t ab
on a
an ly
un successful
Ġbe renstein
Ġco v
20 88
cont usion
Ġ19 24
mor bid
Ġtra verses
Ġ87 2
Ġencephal omal
Ġprogram s
Ġgyr us
Ġwithd rew
Ġration ale
Ġmicro grams
Ġanti ob
Ġprec ludes
)( <
otrop ic
itrop an
ad dle
Ġreg ain
Ġ15 70
99 7
inf usion
Ġstimul ator
Ġcoronal ly
Ġmucous y
drink ing
tam sulosin
Ġy mf
Ġox imetry
76 4
Ġoste omy
Ġaut ope
Ġlt ac
def iciency
wor ked
Ġsediment ation
ambul ate
sensit ivities
Ġtrile ptal
Ġhep lock
Ġappropri atly
Ġinfl am
Ġcardioth ymic
Ġnitr ates
Ġmultil oculated
Ġdelt oid
Ġhbs ab
e ight
Ġax ill
05 00
Ġtoxic it
Ġib d
Ġcalvar ial
ige cycline
original ly
pl ish
58 7
Ġdeg loving
Ġpremature ly
tim olol
g ocalc
Ġr italin
Ġab l
vis ited
Ġphos lo
Ġ88 8
Ġeye brow
Ġpol io
Ġnbp s
Ġsn iff
illo ver
0 13
r ising
Ġ100 7
Ġps c
Ġentire ty
Ġreassess ed
en alapril
mon os
Ġpar athyroid
Ġdrow siness
d iphenhydramine
Ġst itches
Ġsemi upright
red uction
Ġbact e
Ġ110 5
be h
pers ist
Ġp hy
le ural
Ġpre procedural
Ġ95 7
76 3
Ġincis ors
under standing
accum ulation
reli ef
anastom osis
Ġs izable
ic at
if ib
Ġco op
Ġref ormation
Ġ95 2
Ġintrap ulmonary
pend ymal
Ġcaret aker
4 17
y et
Ġf ired
os arcoma
Ġ10 16
Ġsy ring
Ġop thal
97 8
Ġcanc ers
sc oliosis
Ġput amen
ocl onal
Ġpoison ing
4 14
4 38
h ter
Ġt eds
Ġp ft
Ġl arynx
Ġcl en
af e
98 7
Ġod d
Ġtet anus
Ġstuff iness
am ines
Ġ2 115
Ġle aning
Ġ10 31
fer rit
.. ...
80 4
04 00
car cinoma
requ ested
Ġe cmo
Ġdis regard
Ġrec ultured
Ġreg ulation
Ġpa id
fl ush
Ġprominent ly
Ġlock out
Ġretain ing
u ac
Ġre evaluated
Ġan s
20 75
di ovan
Ġelectro graphic
non reactive
Ġsynchron ous
Ġs ort
st aphylococcus
ad here
Ġns icu
98 4
Ġ= ,
Ġpartic ipation
Ġproct itis
gocalc iferol
Ġf itted
vis iting
06 00
Ġseptic emia
Ġfist ulous
Ġeg g
Ġbov ine
Ġmetic ulous
f ut
ap g
Ġdis cour
vi i
Ġneed les
Ġ18 27
Ġstr ugg
Ġ99 6
Ġ97 1
Ġthorac ostomy
Ġped ial
Ġconver ting
Ġoph tho
Ġkyph oscoliosis
Ġobe ying
Ġt at
Ġw i
Ġl op
ab ond
Ġsl t
97 6
Ġgas ping
Ġel icit
Ġatypical s
Ġchiar i
examin ed
Ġinad vert
ig ible
Ġ8 43
Ġflow ing
su cralfate
Ġcar ries
Ġpres e
Ġnephro ureteral
bran ous
Ġuneventful ly
prote ction
urinal ysis
p lu
ic ative
Ġh ub
ip in
ens es
cv vhd
Ġvol ar
Ġpancre at
fe els
Ġom fs
Ġbroad ening
ament ous
Ġway s
Ġcholest yramine
Ġmetatars als
Ġrecanal ized
hosp ice
f d
Ġn vs
Ġb und
Ġg own
st iff
pers antine
obs erved
m nt
Ġm bi
Ġreg ression
57 4
Ġ86 6
syst ems
Ġqid achs
h ob
m ec
or phic
ic ort
Ġ13 91
.. ??
Ġchol y
pneum onitis
Ġsuic idality
Ġres orption
80 9
toler ates
Ġpent amidine
pall iative
Ġwrit er
ad ione
ist a
Ġbil ater
Ġpre vi
Ġreg imine
Ġ18 25
Ġatt orney
Ġradi osurgery
98 1
66 7
Ġooz y
Ġobsc ure
Ġ `
Ġc ampylobacter
Ġun int
ob bing
20 77
Ġma ex
cal m
Ġchem ically
Ġirrig ate
Ġelic ited
u f
Ġw th
ur an
Ġun expected
Ġasp en
Ġtrache ob
Ġcho y
l ush
Ġre ve
ul op
ne c
Ġpre formed
Ġ90 2
imes encephalic
Ġstraight ening
ou les
Ġinf nat
Ġ80 2
Ġgu age
Ġsept ations
Ġbetablock ers
`` ``
Ġundert aken
Ġparest hesias
Ġchoy ke
Ġf un
ul fate
if lex
ap rine
Ġ10 33
anc ies
Ġ80 3
Ġfent ynal
Ġpromin ences
Ġhal lux
Ġdial udid
expl oratory
pol ym
Ġhypercap nic
document ed
Ġs ight
Ġ6 52
Ġ68 2
Ġrecur ring
Ġsumm er
Ġsaliv ary
Ġo me
ad ime
Ġper sever
osp adi
Ġtrans catheter
20 86
Ġi o
Ġwor ry
fib rosis
Ġcarb amazepine
special ty
Ġtechn ologist
t u
Ġs iph
Ġs outh
Ġexp ression
Ġretr act
trac hea
0 11
0 16
t ouch
Ġp apy
at tr
Ġsp illover
20 70
ateral ly
Ġbronch opleural
58 9
Ġevol ved
Ġamb ued
Ġintras p
apparent ly
Ġrecipro cal
a icd
Ġdis crep
Ġup ep
Ġmet a
amox ifen
Ġrhoncor ous
s ess
if ur
Ġstr ang
Ġmorph ologies
Ġ87 9
respir ations
ipr amine
Ġtr ali
Ġsh sf
Ġ11 74
Ġpossib l
form ula
Ġdol l
wheez e
Ġyank aur
ulcer s
bioprost hetic
or ily
il ial
od ing
Ġrec urs
Ġnon compliant
Ġqu arter
Ġdys metria
ism us
Ġn i
Ġl an
ch b
Ġne ice
pt osis
hem o
med ial
97 7
Ġneb h
Ġperibronch ovascular
Ġresched ule
f ield
Ġp av
Ġg le
Ġ60 4
Ġser ially
Ġsupr ag
Ġintens ivist
Ġperist al
Ġinf u
rel atively
Ġcolon ies
Ġnephro tic
Ġdro ve
Ġanomal ous
Ġdiver sion
t ac
z v
Ġd ia
ri j
Ġq week
20 80
Ġpolyp oid
Ġsuscept ible
mar row
Ġargu es
flatt ening
20 71
Ġpar v
99 9
96 8
Ġ76 4
Ġsur pr
Ġfiss ural
Ġretr x
i quot
l ft
at um
Ġch arge
ne b
Ġ8 21
Ġrem od
Ġcons ole
Ġpost ural
de cad
Ġ96 7
Ġparacent ral
Ġcontribut or
Ġexperien ces
invol vement
s und
z ole
Ġw ore
ent ire
Ġto el
cy te
Ġasc ertain
sol umedrol
Ġhyperv entil
y er
in ical
Ġy ield
Ġte en
Ġgest uring
Ġnit inol
nif lush
Ġging er
sh aking
ste adiness
er ts
Ġrep s
Ġ16 40
?? ?
trans port
Ġmanif ested
Ġrecogn ized
Ġorthopaed ics
Ġal a
Ġun opacified
Ġdown sloping
Ġhemat em
Ġremov es
mor l
Ġcolon ized
Ġbic ycle
Ġ112 5
ben adryl
clos ure
Ġbill roth
Ġdub hoff
0 12
Ġfor ced
ad ial
99 4
clo benz
Ġ225 5
cran iotomy
veloc ity
Ġst orm
ag ment
Ġex ch
Ġsub epend
af eb
Ġro omair
hem oglobin
Ġpa resis
97 4
Ġom niflush
ann uloplasty
Ġfle cks
Ġlax atives
o ia
Ġc ate
Ġre v
ad ed
Ġass ure
Ġplac enta
Ġimm odium
Ġfing ert
mot rin
Ġstrict ly
Ġrpr nr
fos min
gentle man
8 35
Ġat ra
Ġpos ey
Ġtox o
Ġtympan itic
experi enced
Ġcam phor
Ġphlebolith s
8 45
d ressed
um ab
20 78
Ġ20 10
Ġrep on
Ġread j
Ġsit uated
high er
Ġfin ancial
Ġrend ered
Ġcraniocaud al
Ġtetro fosmin
Ġn ms
ack s
Ġbr anching
Ġend plates
Ġ99 4
Ġent hes
Ġ96 9
Ġdm fj
Ġpn em
mir tazapine
Ġhemorr age
ifib atide
Ġt el
Ġv io
Ġsymptom atically
aer obic
Ġsupra hilar
Ġsyt ems
Ġ6 39
Ġcalc ulate
77 2
re vent
ar abine
Ġint entional
Ġmult inodular
Ġinsuff ic
Ġdeterior ates
run ning
defin ite
Ġencephalomal acic
Ġheart beat
plast ics
Ġautodiures e
insert ed
pheny lephrine
w ord
Ġcon secutive
oph agia
98 8
br uit
Ġvallecula e
Ġextrim ities
Ġ1 210
us s
Ġar hb
Ġmax illa
68 6
ars eness
[...]
