{"!":0,"\"":1,"#":2,"$":3,"%":4,"&":5,"'":6,"(":7,")":8,"*":9,"+":10,",":11,"-":12,".":13,"/":14,"0":15,"1":16,"2":17,"3":18,"4":19,"5":20,"6":21,"7":22,"8":23,"9":24,":":25,";":26,"<":27,"=":28,">":29,"?":30,"@":31,"A":32,"B":33,"C":34,"D":35,"E":36,"F":37,"G":38,"H":39,"I":40,"J":41,"K":42,"L":43,"M":44,"N":45,"O":46,"P":47,"Q":48,"R":49,"S":50,"T":51,"U":52,"V":53,"W":54,"X":55,"Y":56,"Z":57,"[":58,"\\":59,"]":60,"^":61,"_":62,"`":63,"a":64,"b":65,"c":66,"d":67,"e":68,"f":69,"g":70,"h":71,"i":72,"j":73,"k":74,"l":75,"m":76,"n":77,"o":78,"p":79,"q":80,"r":81,"s":82,"t":83,"u":84,"v":85,"w":86,"x":87,"y":88,"z":89,"{":90,"|":91,"}":92,"~":93,"¡":94,"¢":95,"£":96,"¤":97,"¥":98,"¦":99,"§":100,"¨":101,"©":102,"ª":103,"«":104,"¬":105,"®":106,"¯":107,"°":108,"±":109,"²":110,"³":111,"´":112,"µ":113,"¶":114,"·":115,"¸":116,"¹":117,"º":118,"»":119,"¼":120,"½":121,"¾":122,"¿":123,"À":124,"Á":125,"Â":126,"Ã":127,"Ä":128,"Å":129,"Æ":130,"Ç":131,"È":132,"É":133,"Ê":134,"Ë":135,"Ì":136,"Í":137,"Î":138,"Ï":139,"Ð":140,"Ñ":141,"Ò":142,"Ó":143,"Ô":144,"Õ":145,"Ö":146,"×":147,"Ø":148,"Ù":149,"Ú":150,"Û":151,"Ü":152,"Ý":153,"Þ":154,"ß":155,"à":156,"á":157,"â":158,"ã":159,"ä":160,"å":161,"æ":162,"ç":163,"è":164,"é":165,"ê":166,"ë":167,"ì":168,"í":169,"î":170,"ï":171,"ð":172,"ñ":173,"ò":174,"ó":175,"ô":176,"õ":177,"ö":178,"÷":179,"ø":180,"ù":181,"ú":182,"û":183,"ü":184,"ý":185,"þ":186,"ÿ":187,"Ā":188,"ā":189,"Ă":190,"ă":191,"Ą":192,"ą":193,"Ć":194,"ć":195,"Ĉ":196,"ĉ":197,"Ċ":198,"ċ":199,"Č":200,"č":201,"Ď":202,"ď":203,"Đ":204,"đ":205,"Ē":206,"ē":207,"Ĕ":208,"ĕ":209,"Ė":210,"ė":211,"Ę":212,"ę":213,"Ě":214,"ě":215,"Ĝ":216,"ĝ":217,"Ğ":218,"ğ":219,"Ġ":220,"ġ":221,"Ģ":222,"ģ":223,"Ĥ":224,"ĥ":225,"Ħ":226,"ħ":227,"Ĩ":228,"ĩ":229,"Ī":230,"ī":231,"Ĭ":232,"ĭ":233,"Į":234,"į":235,"İ":236,"ı":237,"Ĳ":238,"ĳ":239,"Ĵ":240,"ĵ":241,"Ķ":242,"ķ":243,"ĸ":244,"Ĺ":245,"ĺ":246,"Ļ":247,"ļ":248,"Ľ":249,"ľ":250,"Ŀ":251,"ŀ":252,"Ł":253,"ł":254,"Ń":255,"ĠĠ":256,"ĠĠĠĠ":257,"__":258,"Ġa":259,"in":260,"ĠĠĠĠĠĠĠĠ":261,"____":262,"on":263,"Ġt":264,"re":265,"Ġp":266,"Ġc":267,"Ġs":268,"**":269,"at":270,"al":271,"er":272,"en":273,"ed":274,"or":275,"it":276,"________":277,"Ġw":278,"he":279,"Ġm":280,"Ġf":281,"is":282,"Ġn":283,"ĠĠĠĠĠĠĠĠĠĠĠĠĠĠĠĠ":284,"Ġd":285,"le":286,"as":287,"ion":288,"ic":289,"Ġo":290,"Ġb":291,"ar":292,"nd":293,"Ġin":294,"ent":295,"[**":296,"**]":297,"Ġre":298,"an":299,"es":300,"ing":301,"Ġto":302,"Ġh":303,"Ġthe":304,"Ġl":305,"ro":306,"Ġ[**":307,"Ġand":308,"Ġ1":309,"________________":310,"Ġ(":311,"Ġe":312,"Ġof":313,"Ġno":314,"il":315,"ith":316,"ct":317,"Ġwith":318,"us":319,"am":320,"ol":321,"ul":322,"os":323,"om":324,"ur":325,"id":326,"Ġr":327,"ĠĠĠĠĠĠĠĠĠĠĠĠĠĠĠĠĠĠĠĠĠĠĠĠĠĠĠĠĠĠĠĠ":328,"Ġv":329,"iv":330,"ation":331,"ac":332,"Ġ2":333,"Ġst":334,"Ġg":335,"Ġcon":336,"el":337,"ig":338,"21":339,"st":340,"ut":341,"Ġfor":342,"Ġon":343,"ow":344,"res":345,"Ġth":346,"im":347,"Ġis":348,"ter":349,"ab":350,"ad":351,"un":352,"Ġ-":353,"ain":354,"Ġas":355,"um":356,"em":357,"Ġhe":358,"ly":359,"Ġat":360,"od":361,"th":362,"ast":363,"ir":364,"ame":365,"igh":366,"Ġle":367,"Ġcont":368,"ft":369,"________________________________":370,"ort":371,"ight":372,"Ġ3":373,"ce":374,"ch":375,"op":376,"Ġam":377,"ag":378,"Ġ0":379,"ip":380,"et":381,"ate":382,"ay":383,"Ġpt":384,"ine":385,"00":386,"Ġex":387,"Ġwas":388,"Ġab":389,"Ġnot":390,"able":391,"ated":392,"ess":393,"Ġpl":394,"Ġne":395,"up":396,"ial":397,"ist":398,"Ġcom":399,"if":400,"ub":401,"Ġse":402,"ot":403,"Ġres":404,"ve":405,"Ġor":406,"Ġal":407,"Ġpro":408,"Ġan":409,"ction":410,"Ġ4":411,"ap":412,"ive":413,"se":414,"mal":415,"ure":416,"lo":417,"ver":418,"Ġch":419,"Ġ5":420,"ress":421,"hy":422,"Ġad":423,"Ġtr":424,"ical":425,"ient":426,"ia":427,"ment":428,"Ġbe":429,"og":430,"low":431,"ue":432,"ou":433,"end":434,"Ġpat":435,"Ġthis":436,"ang":437,"Ġmg":438,"Ġper":439,"ard":440,"oc":441,"ib":442,"ory":443,"Ġleft":444,"Ġap":445,"ne":446,"ill":447,"Ġname":448,"Ġ9":449,"Ġwe":450,"Ġsp":451,"ous":452,"Ġml":453,"ital":454,"are":455,"Ġmed":456,"Ġass":457,"Ġare":458,"Ġun":459,"rom":460,"cre":461,"Ġy":462,"lu":463,"Ġ7":464,"ition":465,"Ġ**]":466,"Ġde":467,"Ġright":468,"Ġresp":469,"ult":470,"Ġinf":471,"port":472,"our":473,"qu":474,"act":475,"Ġ6":476,"Ġev":477,"Ġdr":478,"one":479,"10":480,"Ġ/":481,"yp":482,"Ġim":483,"name":484,"Ġche":485,"ĠĠĠ":486,"ant":487,"Ġpm":488,"osp":489,"ĠĠĠĠĠĠĠĠĠĠĠĠĠĠĠĠĠĠĠĠĠĠĠĠĠĠĠĠĠĠĠĠĠĠĠĠĠĠĠĠĠĠĠĠĠĠĠĠĠĠĠĠĠĠĠĠĠĠĠĠĠĠĠĠ":490,"Ġassess":491,"ormal":492,"Ġint":493,"ear":494,"ri":495,"art":496,"ase":497,"Ġthere":498,"Ġ8":499,"Ġpos":500,"ĠĠĠĠĠĠĠĠĠĠĠĠ":501,"Ġpatient":502,"inal":503,"ospital":504,"Ġk":505,"sion":506,"ther":507,"Ġ10":508,"ication":509,"ary":510,"ell":511,"ail":512,"cc":513,"pl":514,"Ġpo":515,"Ġ#":516,"Ġwh":517,"12":518,"Ġdi":519,"Ġdis":520,"Ġcontin":521,"red":522,"ular":523,"pt":524,"ies":525,"****":526,"Ġcl":527,"Ġar":528,"ff":529,"olog":530,"Ġfrom":531,"Ġsh":532,"ity":533,"Ġhyp":534,"Ġvent":535,"ren":536,"con":537,"11":538,"eral":539,"ug":540,"hospital":541,"Ġfe":542,"Ġct":543,"est":544,"te":545,"ph":546,"'s":547,"Ġreas":548,"Ġchest":549,"Ġnormal":550,"Ġabd":551,"Ġup":552,"Ġapp":553,"Ġadm":554,"Ġmon":555,"Ġexam":556,"Ġplan":557,"ax":558,"Ġreason":559,"iz":560,"usion":561,"______":562,"Ġ________________________________":563,"Ġ________________________________________________________________":564,"______________":565,"Ġ______________________________________________________________________________":566,"ology":567,"Ġpul":568,"ak":569,"ement":570,"Ġchang":571,"Ġrem":572,"ric":573,"age":574,"Ġiv":575,"osis":576,"day":577,"pat":578,"dl":579,"Ġblo":580,"ely":581,"cl":582,"ound":583,"Ġ12":584,"Ġme":585,"Ġpain":586,"all":587,"arg":588,"Ġplac":589,"Ġhem":590,"30":591,"Ġsig":592,"adi":593,"Ġext":594,"Ġac":595,"vi":596,"ep":597,"out":598,"ans":599,"Ġco":600,"and":601,"Ġaf":602,"Ġimp":603,"Ġhas":604,"50":605,"itor":606,"Ġblood":607,"resent":608,"reat":609,"Ġstat":610,"ollow":611,"ob":612,"Ġcomp":613,"mon":614,"ĠĠĠĠĠĠĠĠĠĠĠĠĠĠĠĠĠĠĠĠĠĠĠĠĠĠĠĠ":615,"Ġshe":616,"own":617,"per":618,"last":619,"Ġassessment":620,"ose":621,"tern":622,"ung":623,"Ġsy":624,"Ġsup":625,"Ġq":626,"--":627,"creas":628,"Ġx":629,"icu":630,"Ġbil":631,"ra":632,"Ġby":633,"Ġtub":634,"rent":635,"Ġbut":636,"ild":637,"itt":638,"rem":639,"Ġmonitor":640,"ardi":641,"Ġfollow":642,"istory":643,"**].":644,"Ġlast":645,"Ġple":646,"atory":647,"Ġday":648,"Ġeff":649,"Ġstatus":650,"Ġcontinue":651,"rast":652,"Ġflu":653,"Ġover":654,"ance":655,"iven":656,"Ġrec":657,"Ġnoted":658,"Ġtrans":659,"Ġstable":660,"Ġcons":661,"uro":662,"ination":663,"20":664,"Ġremain":665,"ld":666,"ron":667,"lear":668,"Ġreport":669,"ide":670,"Ġwell":671,"ov":672,"Ġpresent":673,"Ġlung":674,"ber":675,"Ġlow":676,"Ġother":677,"Ġgiven":678,"Ġso":679,"Ġpre":680,"Ġcare":681,"Ġhistory":682,"Ġtube":683,"ler":684,"ding":685,"ect":686,"Ġmild":687,"ral":688,"ateral":689,"Ġbp":690,"ck":691,"hr":692,"ave":693,"dition":694,"),":695,"Ġexamination":696,"ome":697,"ute":698,"iratory":699,"Ġrespon":700,"ures":701,"Ġmedical":702,"Ġca":703,").":704,"ications":705,"Ġfluid":706,"rop":707,"und":708,"adiology":709,"Ġwill":710,"Ġ11":711,"Ġabdom":712,"Ġ.":713,"ts":714,"Ġag":715,"Ġ24":716,"Ġeval":717,"anc":718,"urrent":719,"Ġtim":720,"arge":721,"ert":722,"Ġval":723,"ni":724,"ole":725,"creased":726,"ery":727,"Ġclear":728,"ass":729,"ud":730,"Ġnum":731,"Ġher":732,"Ġreg":733,"Ġed":734,"omy":735,"tal":736,"Ġout":737,"min":738,"ium":739,"agn":740,"Ġhr":741,"irst":742,"ression":743,"Ġneed":744,"urg":745,"Ġsin":746,"Ġcontrast":747,"Ġnumber":748,"Ġob":749,"Ġcm":750,"Ġinter":751,"Ġli":752,"ural":753,"ick":754,"25":755,"ys":756,"Ġsign":757,"cont":758,"ĠĠĠĠĠĠĠĠĠĠĠĠĠĠĠĠĠĠĠĠĠĠĠĠĠĠĠĠĠĠĠĠĠĠĠĠĠĠĠĠĠĠĠĠĠĠĠĠĠĠĠĠĠĠĠĠĠĠĠĠĠĠĠĠĠĠĠ":759,"Ġhour":760,"Ġ100":761,"ence":762,"14":763,"Ġgo":764,"********":765,"Ġ20":766,"Ġrep":767,"Ġtrac":768,"Ġeffusion":769,"ions":770,"Ġcol":771,"iff":772,"Ġseen":773,"Ġwere":774,"Ġyear":775,"mall":776,"neum":777,"Ġcardi":778,"15":779,"ĠĠĠĠĠĠĠĠĠĠĠĠĠĠĠĠĠĠĠĠĠĠĠĠĠĠĠĠĠĠĠĠĠĠĠĠĠĠĠĠĠĠĠĠĠĠĠĠĠĠĠĠĠĠĠĠĠĠĠĠĠĠĠĠĠ":780,"ens":781,"ative":782,"Ġ14":783,"Ġlab":784,"Ġold":785,"Ġrr":786,"Ġarter":787,"ounds":788,"13":789,"Ġrespiratory":790,"bc":791,"Ġfeed":792,"Ġtable":793,"Ġdrain":794,"Ġfinal":795,"Ġhad":796,"Ġsoft":797,"ily":798,"Ġhis":799,"Ġsmall":800,"Ġi":801,"Ġnow":802,"):":803,"Ġman":804,"rol":805,"Ġnon":806,"Ġacute":807,"ool":808,"Ġvalve":809,"Ġdist":810,"Ġte":811,"ior":812,"**],":813,"Ġmeq":814,"Ġresponse":815,"clip":816,"Ġur":817,"fer":818,"Ġpneum":819,"Ġadmitt":820,"use":821,"Ġdiagn":822,"Ġventric":823,"so":824,"nown":825,"ew":826,"monary":827,"Ġsc":828,"Ġcondition":829,"radiology":830,"der":831,"ema":832,"aily":833,"Ġcr":834,"orm":835,"its":836,"Ġclip":837,"Ġaort":838,"Ġline":839,"ode":840,"rior":841,"kg":842,"tain":843,"str":844,"ice":845,"Ġtoday":846,"kin":847,"Ġpost":848,"nal":849,"ending":850,"Ġtablet":851,"Ġhct":852,"Ġsupport":853,"Ġfail":854,"Ġins":855,"vel":856,"ost":857,"Ġsat":858,"Ġremains":859,"mg":860,"ich":861,"24":862,"Ġprior":863,"gh":864,"uction":865,"Ġstool":866,"Ġappear":867,"ugh":868,"Ġsub":869,"ission":870,"tt":871,"ough":872,"ved":873,"Ġstart":874,"Ġdiff":875,"Ġsounds":876,"Ġ%":877,"Ġop":878,"thm":879,"ities":880,"ite":881,"Ġsyst":882,"16":883,"Ġhave":884,"Ġpr":885,"Ġcat":886,"Ġthat":887,"Ġcontinu":888,"amily":889,"yl":890,"Ġafter":891,"214":892,"oth":893,"resp":894,"uct":895,"Ġfailure":896,"18":897,"216":898,"pattern":899,"ix":900,"namepattern":901,"hythm":902,"ack":903,"Ġurine":904,"Ġlik":905,"22":906,"Ġtoler":907,"reath":908,"oid":909,"Ġicu":910,"Ġbilateral":911,"17":912,"Ġ&":913,"Ġdiagnosis":914,"chang":915,"Ġnote":916,"itis":917,"inding":918,"Ġbr":919,"Ġpulmonary":920,"Ġair":921,"Ġind":922,"19":923,"Ġwhich":924,"Ġaction":925,"itle":926,"po":927,"ments":928,"ifi":929,"Ġthick":930,"Ġchanges":931,"Ġneuro":932,"Ġ13":933,"Ġtotal":934,"olic":935,"co":936,"Ġcurrent":937,"Ġmin":938,"218":939,"cer":940,"ale":941,"Ġbas":942,"ness":943,"26":944,"217":945,"hys":946,"dis":947,"Ġ40":948,"ension":949,"Ġ30":950,"Ġrenal":951,"yn":952,"Ġhead":953,"Ġone":954,"Ġcomm":955,"Ġtime":956,"ree":957,"Ġpe":958,"indings":959,"ced":960,"Ġj":961,"Ġant":962,"Ġmod":963,"28":964,"Ġmm":965,"ize":966,"ore":967,"asc":968,"Ġalso":969,"ef":970,"Ġ15":971,"ile":972,"tr":973,"ident":974,"ple":975,"Ġevalu":976,"Ġdaily":977,"Ġrhythm":978,"Ġmult":979,"Ġheart":980,"changed":981,"Ġlikely":982,"charge":983,"23":984,"Ġincreased":985,"Ġchange":986,"af":987,"vious":988,"ift":989,"idence":990,"Ġhours":991,"215":992,"rough":993,"Ġfamily":994,"219":995,"Ġly":996,"Ġimpro":997,"Ġintub":998,"Ġlabs":999,"ics":1000,"29":1001,"27":1002,"Ġ+":1003,"Ġedema":1004,"213":1005,"Ġwithout":1006,"ating":1007,"Ġqu":1008,"Ġen":1009,"Ġbeen":1010,"Ġmedications":1011,"Ġevidence":1012,"Ġ18":1013,"first":1014,"Ġoff":1015,"ting":1016,"Ġpleural":1017,"Ġsl":1018,"Ġsince":1019,"arin":1020,"Ġunchanged":1021,"bp":1022,"ening":1023,"Ġ50":1024,"Ġport":1025,"Ġdil":1026,"Ġro":1027,"Ġ25":1028,"Ġlower":1029,"Ġinfant":1030,"lect":1031,"Ġwean":1032,"de":1033,"owel":1034,"do":1035,"emp":1036,"Ġimpression":1037,"210":1038,"Ġu":1039,"Ġabdomen":1040,"Ġplacement":1041,"Ġwor":1042,"Ġstud":1043,"ual":1044,"ific":1045,"Ġextrem":1046,"Ġmid":1047,"erv":1048,"Ġbreath":1049,"uld":1050,"Ġph":1051,"Ġfindings":1052,"io":1053,"Ġ16":1054,"ull":1055,"Ġflow":1056,"Ġaortic":1057,"int":1058,"Ġinc":1059,"Ġcal":1060,"Ġcompl":1061,"Ġif":1062,"Ġprevious":1063,"Ġneg":1064,"Ġrece":1065,"Ġartery":1066,"Ġsize":1067,"Ġ?":1068,"mm":1069,"ĠĠĠĠĠĠĠĠĠ":1070,"Ġbowel":1071,"ctor":1072,"Ġatt":1073,"ex":1074,"Ġnew":1075,"ove":1076,"Ġshift":1077,"Ġcomments":1078,"Ġtransfer":1079,"Ġcor":1080,"Ġventricular":1081,"Ġdo":1082,"Ġact":1083,"imal":1084,"Ġdose":1085,"Ġadmission":1086,"Ġmet":1087,"leed":1088,"known":1089,"Ġcx":1090,"unction":1091,"old":1092,"terior":1093,"Ġgtt":1094,"com":1095,"hed":1096,"ogr":1097,"val":1098,"ection":1099,"ake":1100,"Ġpress":1101,"Ġhep":1102,"Ġadmitting":1103,"ease":1104,"ox":1105,"Ġasp":1106,"Ġ@":1107,"itial":1108,"Ġcontrol":1109,"Ġrequ":1110,"Ġdue":1111,"Ġabg":1112,"les":1113,"az":1114,"the":1115,"Ġsurg":1116,"Ġtemp":1117,"doctor":1118,"ison":1119,"Ġall":1120,"Ġplease":1121,"Ġperf":1122,"Ġthrough":1123,"Ġsw":1124,"Ġng":1125,"ascular":1126,"Ġtf":1127,"heter":1128,"Ġreceiv":1129,"Ġcode":1130,"Ġmoder":1131,"Ġwhen":1132,"Ġdisease":1133,"Ġbleed":1134,"arison":1135,"rh":1136,"Ġ04":1137,"Ġfl":1138,"ared":1139,"Ġve":1140,"Ġfr":1141,"Ġplaced":1142,"Ġbal":1143,"av":1144,"Ġstudy":1145,"Ġvis":1146,"ds":1147,"Ġcomparison":1148,"Ġstarted":1149,"istent":1150,"pm":1151,"Ġwbc":1152,"Ġshow":1153,"tained":1154,"row":1155,"Ġwithin":1156,"Ġimag":1157,"ible":1158,"Ġdel":1159,"stitle":1160,"Ġcatheter":1161,"lev":1162,"Ġem":1163,"ended":1164,"Ġaw":1165,"ning":1166,"Ġcult":1167,"Ġend":1168,"Ġglu":1169,"Ġcv":1170,"Ġassessed":1171,"view":1172,"normal":1173,"Ġsed":1174,"itation":1175,"Ġventil":1176,"Ġset":1177,"Ġspo":1178,"not":1179,"rial":1180,"ade":1181,"itral":1182,"ach":1183,"Ġret":1184,"sp":1185,"60":1186,"cg":1187,"Ġ>":1188,"Ġlob":1189,"Ġupper":1190,"Ġliv":1191,"Ġdate":1192,"Ġbed":1193,"ps":1194,"Ġcan":1195,"cv":1196,"ca":1197,"ek":1198,"40":1199,"Ġrest":1200,"utr":1201,"Ġbs":1202,"uring":1203,"cy":1204,"Ġheparin":1205,"emia":1206,"Ġlevel":1207,"Ġfever":1208,"gest":1209,"Ġphys":1210,"iot":1211,"ark":1212,"gi":1213,"Ġfull":1214,"ands":1215,"Ġabdominal":1216,"Ġident":1217,"pos":1218,"aph":1219,"Ġproced":1220,"Ġ02":1221,"utrition":1222,"Ġ03":1223,"Ġ%,":1224,"Ġgr":1225,"bs":1226,"Ġ17":1227,"asix":1228,"oma":1229,"Ġskin":1230,"Ġposs":1231,"Ġabove":1232,"Ġ80":1233,"cret":1234,"Ġgood":1235,"Ġref":1236,"Ġwall":1237,"gen":1238,"Ġbalance":1239,"Ġhome":1240,"sin":1241,"Ġ60":1242,"achy":1243,"Ġidentifi":1244,"ynam":1245,"Ġ90":1246,"ious":1247,"Ġvol":1248,"Ġvanc":1249,"ane":1250,"Ġdes":1251,"Ġ19":1252,"cess":1253,"Ġmov":1254,"Ġhemod":1255,"Ġep":1256,"we":1257,"right":1258,"Ġfeeds":1259,"unt":1260,"Ġcc":1261,"Ġantib":1262,"card":1263,"Ġrate":1264,"ronic":1265,"gies":1266,"Ġgluc":1267,"Ġsecret":1268,"to":1269,"Ġmoderate":1270,"Ġaspir":1271,"Ġsats":1272,"Ġmass":1273,"fort":1274,"Ġreview":1275,"patient":1276,"%.":1277,"ificant":1278,"Ġfract":1279,"ss":1280,"Ġfio":1281,"Ġback":1282,"Ġelev":1283,"vent":1284,"Ġcp":1285,"Ġnutrition":1286,"Ġweek":1287,"iple":1288,"Ġtachy":1289,"Ġcheck":1290,"Ġund":1291,"ided":1292,"Ġmain":1293,"Ġprn":1294,"air":1295,"ically":1296,"Ġtw":1297,"asis":1298,"Ġreceived":1299,"ional":1300,"urther":1301,"Ġsecretions":1302,"ever":1303,"Ġfem":1304,"ired":1305,"ong":1306,"Ġintubated":1307,"ulin":1308,"Ġprog":1309,"Ġnegative":1310,"Ġocc":1311,"onia":1312,"su":1313,"left":1314,"of":1315,"****************":1316,"31":1317,"ates":1318,"Ġsome":1319,"vis":1320,"Ġinterval":1321,"Ġ26":1322,"----":1323,"Ġdown":1324,"Ġplace":1325,"Ġglucose":1326,"Ġfurther":1327,"Ġlasix":1328,"Ġ05":1329,"orax":1330,"axis":1331,"Ġliver":1332,"Ġmore":1333,"Ġsignificant":1334,"pn":1335,"100":1336,"ately":1337,"Ġsystolic":1338,"orrh":1339,"oph":1340,"Ġhemodynam":1341,"Ġcough":1342,"sed":1343,"aneous":1344,"mph":1345,"Ġchronic":1346,"Ġver":1347,"oman":1348,"Ġinr":1349,"Ġrecent":1350,"hyl":1351,"Ġantibiot":1352,"afle":1353,"ized":1354,"Ġns":1355,"she":1356,"Ġcardiac":1357,"Ġhypert":1358,"ace":1359,"Ġunder":1360,"cin":1361,"Ġaller":1362,"ardial":1363,"Ġmay":1364,"Ġwoman":1365,"Ġcalc":1366,"Ġps":1367,"Ġhemat":1368,"Ġfib":1369,"Ġinsulin":1370,"Ġsigns":1371,"Ġpulse":1372,"Ġsbp":1373,"Ġlymph":1374,"oley":1375,"used":1376,"Ġsystem":1377,"ĠĠĠĠĠĠĠĠĠĠĠ":1378,"Ġinitial":1379,"Ġevaluate":1380,"hem":1381,"hylaxis":1382,"Ġradi":1383,"Ġslight":1384,"Ġindication":1385,"Ġpic":1386,"Ġlobe":1387,"Ġintact":1388,"Ġmitral":1389,"Ġ28":1390,"Ġpneumonia":1391,"ont":1392,"Ġcall":1393,"Ġsetting":1394,"med":1395,"pre":1396,"Ġneeded":1397,"Ġhyper":1398,"Ġhypot":1399,"Ġthen":1400,"ould":1401,"Ġposition":1402,"utum":1403,"ormed":1404,"Ġpac":1405,"vt":1406,"Ġmor":1407,"Ġ23":1408,"sinus":1409,"Ġlarge":1410,"aren":1411,"Ġclin":1412,"Ġcompared":1413,"Ġsug":1414,"Ġtolerated":1415,"phone":1416,"chi":1417,"Ġhemorrh":1418,"Ġprocedure":1419,"Ġsputum":1420,"Ġfoley":1421,"Ġsuction":1422,"Ġlim":1423,"Ġextremities":1424,"ata":1425,"gu":1426,"Ġ70":1427,"Ġna":1428,"ign":1429,"Ġ08":1430,"discharge":1431,"ellow":1432,"crease":1433,"Ġmultiple":1434,"other":1435,"Ġleafle":1436,"Ġgoal":1437,"ocal":1438,"othorax":1439,"Ġtimes":1440,"year":1441,"rac":1442,"ened":1443,"neuro":1444,"Ġ[":1445,"cus":1446,"Ġcontinues":1447,"Ġallergies":1448,"contin":1449,"log":1450,"Ġdop":1451,"sh":1452,"Ġantibiotics":1453,"Ġra":1454,"45":1455,"Ġinv":1456,"Ġobtained":1457,"Ġfeeding":1458,"Ġcxr":1459,"cardia":1460,"..":1461,"ograph":1462,"urs":1463,"Ġdem":1464,"Ġactive":1465,"ms":1466,"Ġtip":1467,"Ġav":1468,"Ġopac":1469,"Ġlo":1470,"Ġ06":1471,"Ġfree":1472,"Ġvi":1473,"Ġany":1474,"Ġmildly":1475,"??":1476,"Ġlungs":1477,"Ġhy":1478,"Ġcour":1479,"Ġfollowing":1480,"Ġextub":1481,"ilar":1482,"Ġivf":1483,"ted":1484,"Ġcmh":1485,"Ġdata":1486,"Ġ27":1487,"Ġcomplain":1488,"Ġpicc":1489,"Ġ150":1490,"Ġsinus":1491,"enous":1492,"ime":1493,"Ġpar":1494,"date":1495,"Ġpressure":1496,"Ġalert":1497,"Ġfirst":1498,"Ġvolum":1499,"Ġremov":1500,"ĠĠĠĠĠ":1501,"oral":1502,"pler":1503,"Ġ36":1504,"elect":1505,"Ġvein":1506,"Ġmost":1507,"35":1508,"ensive":1509,"Ġpel":1510,"ire":1511,"Ġteam":1512,"atic":1513,"Ġlev":1514,"Ġmonitoring":1515,"ines":1516,"Ġhospital":1517,"vere":1518,"Ġtre":1519,"Ġwhe":1520,"Ġdays":1521,"Ġdim":1522,"usp":1523,"arm":1524,"55":1525,"Ġabnormal":1526,"Ġul":1527,"Ġcourse":1528,"Ġit":1529,"Ġduring":1530,"Ġhigh":1531,"Ġpossible":1532,"Ġresult":1533,"Ġamo":1534,"bri":1535,"Ġcar":1536,"Ġpneumothorax":1537,"Ġplt":1538,"na":1539,"hg":1540,"pro":1541,"Ġtransferred":1542,"Ġgen":1543,"Ġmr":1544,"struction":1545,"Ġsee":1546,"no":1547,"Ġimproved":1548,"Ġdys":1549,"Ġlastname":1550,"ocial":1551,"Ġck":1552,"Ġacc":1553,"Ġprop":1554,"tele":1555,"Ġ37":1556,"Ġfunction":1557,"Ġvery":1558,"ished":1559,"Ġcurrently":1560,"Ġdecreased":1561,"Ġatelect":1562,"duct":1563,"Ġview":1564,"Ġsent":1565,"cond":1566,"Ġsystems":1567,"Ġhemorrhage":1568,"Ġulcer":1569,"Ġevent":1570,"Ġ29":1571,"ĠĠĠĠĠĠĠĠĠĠĠĠĠĠĠĠĠĠĠĠĠĠĠĠĠĠĠĠĠĠĠĠĠĠĠĠĠĠĠĠĠĠĠĠĠĠĠĠĠĠĠĠĠĠĠĠĠĠĠĠ":1572,"Ġfracture":1573,"position":1574,"aking":1575,"ath":1576,"Ġptt":1577,"ec":1578,"Ġlact":1579,"80":1580,"Ġappears":1581,"Ġleaflets":1582,"tes":1583,"ĠĠĠĠĠĠĠĠĠĠĠĠĠĠĠĠĠĠ":1584,"ded":1585,"odium":1586,"Ġrel":1587,"Ġ,":1588,"Ġdvt":1589,"Ġcommands":1590,"usions":1591,"Ġden":1592,"Ġfent":1593,"Ġey":1594,"Ġdev":1595,"Ġadmitted":1596,"ĠĠĠĠĠĠĠĠĠĠĠĠĠĠĠĠĠĠĠĠĠĠĠĠĠĠĠĠĠĠĠĠĠĠĠĠĠĠĠĠĠĠĠĠ":1597,"sheet":1598,"Ġ07":1599,"Ġbet":1600,"Ġvia":1601,"Ġbili":1602,"ations":1603,"Ġagain":1604,"way":1605,"urm":1606,"Ġconsistent":1607,"Ġconsult":1608,"line":1609,"opy":1610,"night":1611,"Ġlesion":1612,"Ġcpap":1613,"Ġ35":1614,":*":1615,"ses":1616,"Ġatrial":1617,"Ġsurgery":1618,"Ġmd":1619,"Ġsodium":1620,"Ġflowsheet":1621,"que":1622,"Ġcomfort":1623,"Ġminimal":1624,"Ġelevated":1625,"Ġdone":1626,"Ġinfection":1627,"ise":1628,"Ġdischarge":1629,"iting":1630,"Ġsim":1631,"iast":1632,"Ġsevere":1633,"fax":1634,"Ġatelectasis":1635,"ke":1636,"telephone":1637,"Ġbreathing":1638,"Ġ22":1639,"Ġhyd":1640,"Ġcommun":1641,"Ġcreat":1642,"Ġstr":1643,"Ġable":1644,"ility":1645,"eat":1646,"Ġinclu":1647,"Ġknown":1648,"Ġpan":1649,"Ġpeep":1650,"leep":1651,"Ġdistress":1652,"Ġamt":1653,"Ġgu":1654,"lyc":1655,"ature":1656,"onstr":1657,"Ġperformed":1658,"yst":1659,"ped":1660,"Ġlines":1661,"rium":1662,"Ġthroughout":1663,"70":1664,"Ġprogress":1665,"Ġshowed":1666,"Ġabs":1667,"ĠĠĠĠĠĠĠ":1668,"Ġhow":1669,"dered":1670,"olus":1671,"Ġbel":1672,"Ġdef":1673,"Ġintra":1674,"Ġmade":1675,"Ġculture":1676,"Ġalb":1677,"psis":1678,"Ġneurolog":1679,"Ġpers":1680,"current":1681,"Ġprophylaxis":1682,"ĠĠĠĠĠĠĠĠĠĠĠĠĠĠĠĠĠĠĠĠĠĠĠĠĠĠĠ":1683,"Ġweight":1684,"Ġvital":1685,"Ġtwo":1686,"Ġthan":1687,"Ġanterior":1688,"ider":1689,"Ġwho":1690,"Ġsu":1691,"Ġconcer":1692,"Ġes":1693,"ater":1694,"cation":1695,"Ġear":1696,"hes":1697,"cept":1698,"Ġpa":1699,"Ġnone":1700,"Ġsuggest":1701,"Ġus":1702,"Ġbl":1703,"Ġresol":1704,"quent":1705,"Ġvascular":1706,"ender":1707,"Ġmot":1708,"Ġyellow":1709,"Ġbm":1710,"erative":1711,"ink":1712,"Ġproduct":1713,"Ġsecond":1714,"Ġce":1715,"nea":1716,"Ġacid":1717,"ops":1718,"led":1719,"90":1720,"Ġconf":1721,"iss":1722,"ors":1723,"anyl":1724,"orac":1725,"Ġhypotension":1726,"max":1727,"Ġimprov":1728,"Ġatrium":1729,"pi":1730,"Ġment":1731,"eric":1732,"Ġordered":1733,"Ġdiffic":1734,"Ġcap":1735,"Ġimages":1736,"Ġdisposition":1737,"ropri":1738,"inished":1739,"Ġyes":1740,"Ġnas":1741,"round":1742,"Ġphysical":1743,"Ġax":1744,"urgitation":1745,"Ġmurm":1746,"Ġke":1747,"ysis":1748,"Ġorder":1749,"Ġprob":1750,"Ġtracing":1751,"Ġdemonstr":1752,"Ġpending":1753,"++":1754,"98":1755,"Ġoral":1756,"Ġyour":1757,"Ġeffect":1758,"Ġster":1759,"urn":1760,"iph":1761,"itive":1762,"Ġech":1763,"erior":1764,"vc":1765,"velop":1766,"pul":1767,"empt":1768,"Ġserv":1769,"Ġnpo":1770,"contrast":1771,"adm":1772,"ontaneous":1773,"Ġcares":1774,"Ġdiscus":1775,"Ġfentanyl":1776,"Ġdrains":1777,"Ġdrainage":1778,"Ġser":1779,"Ġhowever":1780,"Ġchanged":1781,"Ġbolus":1782,"Ġventilation":1783,"Ġcomplaint":1784,"Ġdep":1785,"Ġ98":1786,"cp":1787,"ady":1788,"Ġ09":1789,"33":1790,"icardial":1791,"brile":1792,"++:":1793,"Ġlateral":1794,"cr":1795,"Ġdid":1796,"Ġcontinued":1797,"bi":1798,"Ġinto":1799,"Ġslightly":1800,"Ġwarm":1801,"Ġdoppler":1802,"Ġred":1803,"lf":1804,"Ġpelvis":1805,"Ġresults":1806,"Ġma":1807,"athy":1808,"Ġhepat":1809,"Ġtrach":1810,"Ġ21":1811,"esis":1812,"rox":1813,"Ġben":1814,"Ġwork":1815,"Ġyou":1816,"Ġ*":1817,"48":1818,"Ġcomple":1819,"Ġdilated":1820,"Ġovernight":1821,"with":1822,"36":1823,"Ġdoes":1824,"Ġcav":1825,"omm":1826,"Ġtech":1827,"Ġ:":1828,"Ġappearance":1829,"Ġmmhg":1830,"Ġdifficult":1831,"ills":1832,"Ġrad":1833,"Ġvolume":1834,"portable":1835,"Ġ500":1836,"Ġfibr":1837,"Ġregular":1838,"Ġeffusions":1839,"ok":1840,"Ġtmax":1841,"emic":1842,"eline":1843,"opathy":1844,":[**":1845,"put":1846,"Ġmental":1847,"Ġpulses":1848,"Ġ<":1849,"oiding":1850,"equ":1851,"location":1852,"Ġrepeat":1853,"Ġsite":1854,"Ġdiminished":1855,"ization":1856,"ronch":1857,"Ġattempt":1858,"Ġairway":1859,"Ġrecomm":1860,"plan":1861,"Ġbleeding":1862,"enosis":1863,"Ġflo":1864,"iented":1865,"Ġcoron":1866,"Ġunit":1867,"Ġnod":1868,"hour":1869,"abd":1870,"olid":1871,"Ġinsp":1872,"ursing":1873,"Ġcent":1874,"ells":1875,"Ġwave":1876,"active":1877,"terday":1878,"uff":1879,"Ġadv":1880,"Ġboth":1881,"aw":1882,"Ġir":1883,"Ġbilaterally":1884,"Ġquest":1885,"arkable":1886,"ml":1887,"Ġ01":1888,"Ġinfar":1889,"ful":1890,"Ġclinical":1891,"otid":1892,"Ġonly":1893,"Ġhemodynamic":1894,"Ġappropri":1895,"Ġgi":1896,"Ġfound":1897,"Ġbelow":1898,"32":1899,"Ġasc":1900,"Ġsepsis":1901,"Ġmeas":1902,"icated":1903,"tn":1904,"plac":1905,"Ġradiograph":1906,"side":1907,"Ġwors":1908,"Ġevents":1909,"Ġyesterday":1910,"Ġstress":1911,"adder":1912,"num":1913,"Ġ99":1914,"Ġvs":1915,"Ġradiology":1916,"34":1917,"Ġox":1918,"Ġkg":1919,"Ġgast":1920,"Ġidentified":1921,"Ġwhile":1922,"Ġopen":1923,"Ġent":1924,"Ġhypertension":1925,"Ġcath":1926,"oot":1927,"ivery":1928,"Ġdevelop":1929,"iet":1930,"Ġunits":1931,"ma":1932,"Ġet":1933,"Ġdenies":1934,"phal":1935,"Ġtolerating":1936,"Ġmovement":1937,"bral":1938,"remarkable":1939,"Ġfloor":1940,"over":1941,"Ġgeneral":1942,"itr":1943,"ula":1944,"Ġhd":1945,"usc":1946,"pg":1947,"Ġdelivery":1948,"abg":1949,"Ġsr":1950,"Ġtyp":1951,"Ġfre":1952,"romb":1953,"month":1954,"Ġdevice":1955,"uc":1956,"Ġcommunication":1957,"amin":1958,"99":1959,"Ġstenosis":1960,"li":1961,"Ġmanag":1962,"Ġpericardial":1963,"inf":1964,"Ġga":1965,"Ġsleep":1966,"opress":1967,"ras":1968,"Ġinj":1969,"ci":1970,"Ġ97":1971,"37":1972,"Ġbases":1973,"Ġmom":1974,"Ġarea":1975,"cm":1976,"Ġnight":1977,"Ġpatent":1978,"heal":1979,"Ġmurmur":1980,"Ġaorta":1981,"Ġsept":1982,"admission":1983,"Ġunremarkable":1984,"Ġepis":1985,"Ġonce":1986,"Ġcolor":1987,"Ġtachycardia":1988,"Ġvap":1989,"Ġdiffe":1990,"apy":1991,"Ġvisual":1992,"omycin":1993,"Ġradial":1994,"Ġast":1995,"Ġz":1996,"isk":1997,"Ġbpm":1998,"Ġproducts":1999,"Ġincrease":2000,"Ġregurgitation":2001,"Ġaddition":2002,"ran":2003,"97":2004,"Ġprov":2005,"Ġ~":2006,"Ġperiph":2007,"Ġadequ":2008,"Ġunable":2009,"Ġsedation":2010,"Ġchf":2011,"38":2012,"Ġneeds":2013,"Ġmcg":2014,"iastinal":2015,"Ġ--":2016,"Ġmy":2017,"iltr":2018,"nique":2019,"ody":2020,"Ġett":2021,"Ġposterior":2022,"phys":2023,"Ġgro":2024,"skin":2025,"Ġtype":2026,"Ġthorac":2027,"ife":2028,"Ġsedated":2029,"fol":2030,"chem":2031,"**]:":2032,"ctions":2033,"Ġmaintain":2034,"Ġdp":2035,"Ġlum":2036,"image":2037,"Ġ**].":2038,"Ġsecondary":2039,"Ġportable":2040,"social":2041,"ers":2042,"Ġstill":2043,"Ġreple":2044,"Ġ96":2045,"Ġtechnique":2046,"Ġevaluation":2047,"Ġdistal":2048,"cal":2049,"Ġoriented":2050,"Ġmale":2051,"idne":2052,"xt":2053,"Ġcontr":2054,"ied":2055,"ited":2056,"Ġpart":2057,"ez":2058,"Ġwould":2059,"Ġoutput":2060,"Ġexcept":2061,"Ġweeks":2062,"Ġventricle":2063,"**])":2064,"larg":2065,"Ġdrop":2066,"Ġaspiration":2067,"Ġ95":2068,"Ġ120":2069,"Ġ**],":2070,"ock":2071,"Ġperipheral":2072,"Ġ75":2073,"Ġpoor":2074,"Ġconsider":2075,"Ġpast":2076,"Ġls":2077,"ian":2078,"Ġmeds":2079,"Ġeyes":2080,"mmet":2081,"Ġcould":2082,"arse":2083,"Ġdrug":2084,"Ġamount":2085,"ash":2086,"ebrile":2087,"Ġoxy":2088,"Ġsm":2089,"Ġadequate":2090,"ator":2091,"Ġintubation":2092,"Ġbaseline":2093,"Ġpropo":2094,"tered":2095,"Ġkidne":2096,"Ġarr":2097,"Ġweaned":2098,"Ġcta":2099,"onat":2100,"Ġtreat":2101,"Ġpal":2102,"Ġapprox":2103,"Ġdifferent":2104,"Ġpropofol":2105,"Ġshort":2106,"Ġbronch":2107,"Ġdiet":2108,"Ġmotion":2109,"cardi":2110,"Ġdiures":2111,"lycemic":2112,"Ġhg":2113,"Ġvoiding":2114,"Ġnc":2115,"bal":2116,"/[**":2117,"Ġside":2118,"Ġhtn":2119,"osc":2120,"set":2121,"Ġthromb":2122,"59":2123,"bil":2124,"Ġaware":2125,"Ġparen":2126,"iod":2127,"ind":2128,"Ġinfiltr":2129,"Ġpositive":2130,"ision":2131,"Ġcop":2132,"Ġfocal":2133,"md":2134,"Ġpna":2135,"44":2136,"Ġidentifier":2137,"numeric":2138,"Ġill":2139,"Ġ([**":2140,"Ġclos":2141,"tic":2142,"Ġthickened":2143,"Ġsuctioned":2144,"Ġcultures":2145,"ivity":2146,"Ġ38":2147,"Ġremoved":2148,"Ġstruct":2149,"Ġpmh":2150,"Ġimaging":2151,"Ġmicu":2152,"aort":2153,"Ġneurologic":2154,"Ġtransf":2155,"07":2156,"002":2157,"Ġtid":2158,"Ġalk":2159,"gr":2160,"Ġther":2161,"Ġdry":2162,"39":2163,"Ġexc":2164,"'d":2165,"Ġalt":2166,"avi":2167,"47":2168,"illation":2169,"Ġosh":2170,"Ġhold":2171,"Ġ{":2172,"Ġvancomycin":2173,"ered":2174,"Ġleg":2175,"asive":2176,"Ġlv":2177,"Ġstim":2178,"Ġsurgical":2179,"nl":2180,"46":2181,"ternal":2182,"Ġult":2183,"Ġinfusions":2184,"Ġvt":2185,"operative":2186,"jpg":2187,"ovascular":2188,"Ġhypo":2189,"creasing":2190,"Ġdet":2191,"Ġwhite":2192,"outh":2193,"Ġcentral":2194,"Ġmap":2195,"Ġprocess":2196,"Ġaccess":2197,"Ġpres":2198,"chy":2199,"ostomy":2200,"Ġkeep":2201,"Ġarterial":2202,"Ġ32":2203,"Ġlytes":2204,"Ġrepresent":2205,"ency":2206,"Ġunknown":2207,"Ġglycemic":2208,"iring":2209,"Ġmanagement":2210,"wh":2211,")}":2212,"ulation":2213,"Ġuse":2214,"Ġunt":2215,"Ġworsening":2216,"Ġter":2217,"Ġthough":2218,"Ġrs":2219,"gt":2220,"Ġhypox":2221,"Ġ130":2222,"oprol":2223,"illin":2224,"Ġhematoma":2225,"Ġcoarse":2226,"Ġischem":2227,"Ġmri":2228,"Ġfar":2229,"Ġscale":2230,"Ġcavity":2231,"Ġafebrile":2232,"Ġneck":2233,"gan":2234,"Ġseiz":2235,"npn":2236,"Ġcalled":2237,"hrs":2238,"Ġinitially":2239,"mor":2240,"Ġstent":2241,"Ġ45":2242,"lor":2243,"Ġbeing":2244,"ricular":2245,"Ġbre":2246,"usea":2247,"Ġ140":2248,"Ġuntil":2249,"Ġless":2250,"Ġsob":2251,"mpt":2252,"Ġblock":2253,"Ġroom":2254,"Ġexp":2255,"Ġbody":2256,"oprolol":2257,"Ġnasal":2258,"Ġfibrillation":2259,"enic":2260,"Ġecho":2261,"Ġmouth":2262,"Ġadmin":2263,"Ġ31":2264,"uspid":2265,"ll":2266,"uge":2267,"respiratory":2268,"ites":2269,"continue":2270,"Ġsever":2271,"Ġopt":2272,"lex":2273,"opressor":2274,"ry":2275,"49":2276,"rect":2277,"Ġlead":2278,"Ġconcern":2279,"ution":2280,"iding":2281,"Ġwnl":2282,"iated":2283,"Ġcabg":2284,"atrial":2285,"Ġenlarg":2286,"enol":2287,"Ġdrip":2288,"ott":2289,"Ġbase":2290,"racheal":2291,"Ġdraining":2292,"Ġcir":2293,"ĠĠĠĠĠĠ":2294,"58":2295,"Ġvenous":2296,"Ġpot":2297,"ule":2298,"Ġmorning":2299,"Ġspine":2300,"Ġsymmet":2301,"Ġsx":2302,"Ġupd":2303,"ats":2304,"Ġcoronary":2305,"ext":2306,"Ġattending":2307,"title":2308,"56":2309,"Ġdistended":2310,"yt":2311,"Ġweak":2312,"Ġloc":2313,"umin":2314,"Ġfall":2315,"Ġrestart":2316,"Ġyo":2317,"Ġread":2318,"Ġtra":2319,"Ġwheez":2320,"plant":2321,"Ġnausea":2322,"sues":2323,"Ġinvol":2324,"Ġscan":2325,"Ġic":2326,"renal":2327,"Ġfron":2328,"inine":2329,"chief":2330,"ingle":2331,"42":2332,"adin":2333,"inter":2334,"hab":2335,"aby":2336,"reg":2337,"57":2338,"Ġappropriate":2339,"Ġprote":2340,"Ġcardiovascular":2341,"wise":2342,"pnea":2343,"Ġrequiring":2344,"43":2345,"Ġmorph":2346,"Ġfemoral":2347,"umadin":2348,"41":2349,"erol":2350,"mptom":2351,"Ġtrop":2352,"Ġcad":2353,"rl":2354,"otracheal":2355,"mcg":2356,"rel":2357,"Ġmetoprolol":2358,"daily":2359,"veal":2360,"rine":2361,"Ġultras":2362,"Ġgauge":2363,"Ġlopressor":2364,"ched":2365,"time":2366,"ource":2367,"Ġconsolid":2368,"Ġtone":2369,"Ġsul":2370,"Ġngt":2371,"lying":2372,"Ġmediastinal":2373,"Ġrsbi":2374,"Ġequ":2375,"Ġabx":2376,"Ġmae":2377,"Ġcontact":2378,"Ġpalp":2379,"Ġect":2380,"Ġalbumin":2381,"ified":2382,"Ġresid":2383,"Ġinferior":2384,"Ġresolved":2385,"though":2386,"Ġtrend":2387,"Ġpattern":2388,"pe":2389,"Ġlip":2390,"Ġcolon":2391,"Ġang":2392,"Ġget":2393,"Ġfemale":2394,"sule":2395,"Ġprot":2396,"Ġfrequent":2397,"Ġbrain":2398,"51":2399,"Ġendotracheal":2400,"aly":2401,"Ġcarotid":2402,"ressing":2403,"Ġafib":2404,"ivan":2405,"att":2406,"Ġwound":2407,"Ġincluding":2408,"Ġheld":2409,"ively":2410,"ably":2411,"Ġadditional":2412,"02":2413,"Ġbenign":2414,"Ġvanco":2415,"Ġphos":2416,"ialysis":2417,"Ġrh":2418,"Ġpink":2419,"96":2420,"ust":2421,"Ġstop":2422,"ving":2423,"Ġcolle":2424,"opr":2425,"cour":2426,"Ġnext":2427,"Ġmch":2428,"iac":2429,"Ġhx":2430,"rest":2431,"ification":2432,"otic":2433,"Ġfil":2434,"Ġremained":2435,"Ġbact":2436,"Ġbedside":2437,"Ġgall":2438,"Ġtreated":2439,"95":2440,"Ġultrasound":2441,"ge":2442,"dh":2443,"//":2444,"Ġheight":2445,"Ġcreatinine":2446,"Ġdec":2447,"cet":2448,"oon":2449,"Ġperrl":2450,"Ġmorphine":2451,"Ġoccas":2452,"hyper":2453,"inary":2454,"iel":2455,"Ġstand":2456,"neg":2457,"Ġpersistent":2458,"Ġpancre":2459,"Ġspe":2460,"ameter":2461,"fore":2462,"Ġadd":2463,"Ġarriv":2464,"Ġfollows":2465,"Ġdiffuse":2466,"onin":2467,"Ġpip":2468,"Ġextubated":2469,"Ġgra":2470,"tender":2471,"Ġotherwise":2472,"Ġtrache":2473,"Ġcoll":2474,"urys":2475,"Ġdiscussed":2476,"Ġsymmetric":2477,"aind":2478,"Ġupdated":2479,"Ġthese":2480,"Ġfrontal":2481,"Ġcvp":2482,"ices":2483,"Ġcoumadin":2484,"Ġanx":2485,"Ġabout":2486,"spontaneous":2487,"Ġanemia":2488,"Ġresidual":2489,"utes":2490,"Ġcontraind":2491,"%,":2492,"open":2493,"Ġvisualized":2494,"clear":2495,"Ġ33":2496,"Ġrefills":2497,"cons":2498,"go":2499,"Ġchlor":2500,"Ġ200":2501,"Ġekg":2502,"Ġ110":2503,"Ġnsr":2504,"oint":2505,"ration":2506,"Ġextremity":2507,"Ġsettings":2508,"Ġtraum":2509,"Ġassist":2510,"Ġped":2511,"54":2512,"pr":2513,"Ġcalcium":2514,"using":2515,"please":2516,"Ġimprovement":2517,"odes":2518,"Ġseveral":2519,"Ġinjur":2520,"arr":2521,"Ġfen":2522,"Ġsingle":2523,"bl":2524,"Ġcapsule":2525,"issue":2526,"Ġrehab":2527,"order":2528,"imately":2529,"Ġcontraindications":2530,"Ġsliding":2531,"Ġquestions":2532,"acing":2533,"Ġdetail":2534,"53":2535,"Ġreplac":2536,"Ġreveal":2537,"52":2538,"Ġspells":2539,"ected":2540,"Ġ34":2541,"Ġactivity":2542,"Ġequal":2543,"ality":2544,"ternoon":2545,"Ġlesions":2546,"mitt":2547,"Ġdressing":2548,"Ġarm":2549,"Ġinvasive":2550,"Ġrv":2551,"ĠĠĠĠĠĠĠĠĠĠĠĠĠĠĠĠĠĠĠĠĠĠĠĠĠĠĠĠĠĠĠĠĠĠĠĠĠĠĠĠĠĠĠĠĠĠĠĠĠĠĠĠĠĠĠĠĠĠĠĠĠĠ":2552,"osyn":2553,"Ġcanc":2554,"Ġincreasing":2555,"Ġrang":2556,"Ġectopy":2557,"structions":2558,"Ġbott":2559,"Ġmic":2560,"Ġds":2561,"Ġrele":2562,"Ġloops":2563,"ially":2564,"Ġtcurrent":2565,"Ġhepatic":2566,"rit":2567,"raw":2568,"Ġtitr":2569,"Ġlos":2570,"Ġlimited":2571,"Ġlat":2572,"Ġdelay":2573,"Ġtroponin":2574,"Ġsource":2575,"disp":2576,"Ġards":2577,"cardiac":2578,"Ġadj":2579,"di":2580,"Ġtransplant":2581,"Ġlong":2582,"Ġmark":2583,"mental":2584,"01":2585,"aired":2586,"Ġmax":2587,"+)":2588,"Ġbrady":2589,"ween":2590,"Ġrelated":2591,"Ġcuff":2592,"Ġprox":2593,"Ġkidney":2594,"ask":2595,"Ġshould":2596,"Ġadvanc":2597,"Ġslow":2598,"Ġ48":2599,"Ġafternoon":2600,"Ġadminist":2601,"********************************":2602,"Ġthoracic":2603,"Ġgastro":2604,"Ġcannot":2605,"abet":2606,"amine":2607,"da":2608,"Ġrelease":2609,"ylenol":2610,"arb":2611,"Ġbid":2612,"Ġtissue":2613,"for":2614,"breath":2615,"ormation":2616,"Ġservice":2617,"Ġtomor":2618,"ĠĠĠĠĠĠĠĠĠĠĠĠĠĠĠĠĠĠĠĠĠĠĠĠĠĠĠĠĠĠĠĠĠĠ":2619,"75":2620,"lox":2621,"Ġminutes":2622,"Ġtomorrow":2623,"comp":2624,"Ġdos":2625,"Ġareas":2626,"remia":2627,"assium":2628,"ensity":2629,"ech":2630,"function":2631,"acute":2632,"onatology":2633,"irth":2634,"Ġativan":2635,"uch":2636,"cler":2637,"Ġcancer":2638,"Ġfluids":2639,"Ġvisit":2640,"Ġthree":2641,"Ġdifferential":2642,"uts":2643,"sided":2644,"Ġgram":2645,"ractions":2646,"respon":2647,"omach":2648,"ĠĠĠĠĠĠĠĠĠĠĠĠĠĠĠĠĠĠĠĠĠĠĠĠĠĠĠĠĠĠĠĠĠĠĠĠĠĠĠĠĠĠĠĠĠĠĠĠĠĠĠĠĠĠĠĠĠĠĠĠĠĠĠĠĠĠĠĠ":2649,"Ġventilator":2650,"Ġtaking":2651,"Ġopacity":2652,"fe":2653,"Ġreturn":2654,"ored":2655,"test":2656,"Ġinfarction":2657,"was":2658,"65":2659,"Ġlactic":2660,"Ġmode":2661,"Ġcere":2662,"ogram":2663,"Ġure":2664,"Ġelect":2665,"Ġinternal":2666,"Ġcell":2667,"allow":2668,"Ġrhon":2669,"Ġtol":2670,"Ġshock":2671,"uration":2672,"ling":2673,"Ġprbc":2674,"quid":2675,"Ġtest":2676,"Ġappl":2677,"Ġbilat":2678,"Ġoxygen":2679,"Ġmmol":2680,"acin":2681,"Ġaltered":2682,"Ġane":2683,"Ġconsolidation":2684,"follow":2685,"Ġmeet":2686,"Ġobstruction":2687,"Ġrash":2688,"urysm":2689,"ecific":2690,"Ġwt":2691,"Ġalthough":2692,"Ġamts":2693,"Ġos":2694,"imen":2695,"ventricular":2696,"continu":2697,"ste":2698,"Ġpresented":2699,"dist":2700,"Ġstomach":2701,"Ġgreat":2702,"Ġsimple":2703,"Ġeos":2704,"Ġsusp":2705,"Ġstructures":2706,"atus":2707,"Ġcongest":2708,"cor":2709,"Ġer":2710,"Ġpass":2711,"Ġimpaired":2712,"elling":2713,"->":2714,"Ġencour":2715,"ush":2716,"raz":2717,"mb":2718,"Ġround":2719,"oscopy":2720,"Ġtak":2721,"aving":2722,"ray":2723,"unts":2724,"Ġclosely":2725,"ervical":2726,"abdom":2727,"Ġ\"":2728,"ughter":2729,"Ġplate":2730,"Ġlumen":2731,"Ġgl":2732,"Ġtylenol":2733,"Ġabnormalities":2734,"oots":2735,"mod":2736,"Ġemb":2737,"Ġrisk":2738,"Ġfiel":2739,"Ġpreviously":2740,"sc":2741,"Ġrn":2742,"ĠĠĠĠĠĠĠĠĠĠĠĠĠĠĠĠĠĠĠĠĠĠĠĠĠĠĠĠĠĠĠĠĠ":2743,"Ġinch":2744,"neonatology":2745,"Ġgrow":2746,"ined":2747,"Ġawake":2748,"Ġwife":2749,"????":2750,"tation":2751,"Ġtherapy":2752,")*":2753,"Ġ=":2754,"Ġcervical":2755,"coh":2756,"Ġ101":2757,"Ġsymptom":2758,"Ġcrack":2759,"Ġextubation":2760,"tebral":2761,"vef":2762,"Ġmidline":2763,"draw":2764,"Ġquality":2765,"essel":2766,"aortic":2767,"roid":2768,"Ġthus":2769,"Ġcomfortable":2770,"Ġabsent":2771,"her":2772,"Ġoverall":2773,"Ġaround":2774,"Ġupdate":2775,"upil":2776,"Ġsubc":2777,"Ġcover":2778,"Ġmal":2779,"Ġspits":2780,"77":2781,"Ġhrs":2782,"ectomy":2783,"Ġapproximately":2784,"emper":2785,"ffe":2786,"weight":2787,"Ġfevers":2788,"Ġ94":2789,"acent":2790,"Ġcle":2791,"Ġdm":2792,"Ġchloride":2793,"Ġtrauma":2794,"Ġgas":2795,"Ġremoval":2796,"Ġmech":2797,"iray":2798,"Ġcopd":2799,"load":2800,"Ġrecommended":2801,"Ġcrit":2802,"Ġoptiray":2803,"Ġ76":2804,"Ġtco":2805,"elf":2806,"05":2807,"king":2808,"mittent":2809,"ocyt":2810,"razole":2811,"Ġinjury":2812,"aud":2813,"Ġcollection":2814,"Ġretro":2815,"Ġdiuresis":2816,"Ġesoph":2817,"loxacin":2818,"Ġneo":2819,"Ġinstructions":2820,"ief":2821,"unct":2822,"nursing":2823,"Ġbaby":2824,"ism":2825,"sive":2826,"cephal":2827,"ailable":2828,"Ġexclu":2829,"Ġhip":2830,"76":2831,"tte":2832,"venous":2833,"very":2834,"Ġpiv":2835,"Ġrequired":2836,"nr":2837,"Ġsur":2838,"Ġevening":2839,"only":2840,"galy":2841,"Ġinformation":2842,"che":2843,"Ġfx":2844,"atin":2845,"Ġrequire":2846,"iology":2847,"Ġago":2848,"emperature":2849,"Ġintrac":2850,"gth":2851,"Ġaspirin":2852,"Ġregion":2853,"Ġbetween":2854,"Ġabscess":2855,"ressed":2856,"Ġseizure":2857,"Ġ65":2858,"Ġoccasional":2859,"Ġppi":2860,"Ġmetast":2861,"08":2862,"Ġseg":2863,"Ġbec":2864,"Ġfac":2865,"br":2866,"ranial":2867,"Ġwet":2868,"endent":2869,"Ġda":2870,"Ġpupil":2871,"Ġdiabet":2872,"Ġopacities":2873,"Ġcrackles":2874,"Ġface":2875,".)":2876,"utaneous":2877,"Ġcann":2878,"Ġmask":2879,"Ġlight":2880,"Ġsulf":2881,"ward":2882,"Ġchole":2883,"hanc":2884,"ocardial":2885,"Ġliquid":2886,"tracing":2887,"Ġwhere":2888,"Ġheal":2889,"Ġ55":2890,"Ġissues":2891,"Ġid":2892,"Ġstimul":2893,"Ġrecs":2894,"Ġsubcl":2895,"opt":2896,"ophed":2897,"Ġdialysis":2898,"Ġtubes":2899,"ie":2900,"uk":2901,"Ġtake":2902,"Ġalcoh":2903,"Ġproximal":2904,"150":2905,"ician":2906,"Ġnt":2907,")-":2908,"ocus":2909,"Ġbun":2910,"Ġpotassium":2911,"Ġgraft":2912,"pan":2913,"Ġ88":2914,"titles":2915,"Ġwithdraw":2916,"Ġhaving":2917,"Ġmother":2918,"Ġton":2919,"avian":2920,"phro":2921,"uation":2922,"Ġrbc":2923,"ipro":2924,"ns":2925,"fen":2926,"Ġpromin":2927,"Ġascites":2928,"omiting":2929,"Ġillness":2930,"Ġthey":2931,"Ġoob":2932,"Ġrect":2933,"Ġbladder":2934,"Ġtreatment":2935,"Ġscre":2936,"ocol":2937,"Ġbi":2938,"tion":2939,"Ġ68":2940,"Ġnursing":2941,"Ġdaughter":2942,"ectious":2943,"Ġiu":2944,"Ġamounts":2945,"omegaly":2946,"Ġtender":2947,"Ġregimen":2948,"Ġtric":2949,"ins":2950,"Ġinfiltrate":2951,"amber":2952,"imary":2953,"Ġintracranial":2954,"serv":2955,"opril":2956,"specific":2957,"Ġeto":2958,"Ġtrace":2959,"Ġetoh":2960,"Ġaxial":2961,"Ġviews":2962,"Ġbreast":2963,"Ġcyst":2964,"Ġintermittent":2965,"Ġlevophed":2966,"Ġsubclavian":2967,"Ġhpi":2968,"Ġpossib":2969,"rong":2970,"ires":2971,"Ġrecommend":2972,"bladder":2973,"Ġvessel":2974,"Ġcannula":2975,"imp":2976,"hea":2977,"Ġpulm":2978,"Ġ81":2979,"struct":2980,"estinal":2981,"Ġii":2982,"app":2983,"Ġtee":2984,"Ġwr":2985,"comfort":2986,"comple":2987,"Ġaneurysm":2988,"Ġdelayed":2989,"Ġlimits":2990,"rome":2991,"stable":2992,"Ġson":2993,"Ġassoc":2994,"Ġsymptoms":2995,"Ġmusc":2996,"Ġms":2997,"Ġ400":2998,"Ġclot":2999,"olette":3000,"Ġepisodes":3001,"Ġobes":3002,"itone":3003,"Ġbefore":3004,"Ġdiameter":3005,"Ġsame":3006,"ject":3007,"Ġantic":3008,"Ġbone":3009,"Ġfeel":3010,"uterol":3011,"Ġdig":3012,"audid":3013,"Ġadvanced":3014,"Ġmonth":3015,"icular":3016,"Ġhgb":3017,"trans":3018,"Ġ66":3019,"Ġdecrease":3020,"Ġintr":3021,"will":3022,"Ġalong":3023,"crib":3024,"Ġchair":3025,"-----":3026,"Ġswallow":3027,"family":3028,"Ġretractions":3029,"Ġprotocol":3030,"Ġloss":3031,"rhosis":3032,"Ġbetter":3033,"Ġavailable":3034,"rophy":3035,"Ġthickening":3036,"Ġawa":3037,"Ġmechan":3038,"distended":3039,"Ġfractures":3040,"Ġapplied":3041,"ypass":3042,"Ġspontaneous":3043,"Ġarrival":3044,"Ġcount":3045,"Ġconst":3046,"ister":3047,"Ġsens":3048,"itated":3049,"Ġusing":3050,"illary":3051,"Ġij":3052,"Ġsubse":3053,"Ġconfir":3054,"Ġut":3055,");":3056,"met":3057,"Ġpath":3058,"mia":3059,"Ġendoc":3060,"edema":3061,"jor":3062,"Ġmeeting":3063,"sa":3064,"04":3065,"roke":3066,"Ġimproving":3067,"Ġcommon":3068,"Ġfew":3069,"120":3070,"Ġhal":3071,"Ġabnormality":3072,"Ġage":3073,"Ġuop":3074,"==":3075,"Ġinte":3076,"Ġmyocardial":3077,"Ġturn":3078,"Ġdetails":3079,"atitis":3080,"Ġepisode":3081,"Ġinfectious":3082,"Ġmarked":3083,"Ġsvc":3084,"mitral":3085,"endo":3086,"Ġldh":3087,"amp":3088,"aged":3089,"Ġextensive":3090,"Ġphysician":3091,"iety":3092,"off":3093,"ish":3094,"diff":3095,"Ġ78":3096,"dol":3097,"78":3098,"Ġrt":3099,"Ġsb":3100,"ogen":3101,"Ġdemonstrated":3102,"infant":3103,"Ġmono":3104,"Ġarf":3105,"Ġgallbladder":3106,"Ġrecor":3107,"Ġcomplete":3108,"azole":3109,"intestinal":3110,"Ġassociated":3111,"94":3112,"Ġtemps":3113,"this":3114,"Ġenlarged":3115,"Ġrange":3116,"Ġnar":3117,"Ġdyspnea":3118,"Ġsupple":3119,"Ġelectro":3120,"Ġdraw":3121,"ested":3122,"arrhea":3123,"neuts":3124,"ffeine":3125,"Ġtricuspid":3126,"Ġtx":3127,"Ġintake":3128,"06":3129,"ym":3130,"Ġevery":3131,"agyl":3132,"Ġcirrhosis":3133,"Ġoverload":3134,"Ġrevealed":3135,"continued":3136,"Ġrepair":3137,"Ġresponds":3138,"Ġdeveloped":3139,"surg":3140,"see":3141,"every":3142,"03":3143,"Ġcorrel":3144,"Ġshortness":3145,"Ġtaken":3146,"enopathy":3147,"Ġlater":3148,"68":3149,"Ġrestarted":3150,"Ġtte":3151,"sis":3152,"dr":3153,"ccess":3154,"Ġhere":3155,"Ġduct":3156,"Ġstimuli":3157,"Ġproble":3158,"2153":3159,"Ġischemia":3160,"Ġcontour":3161,"Ġpred":3162,"Ġprovided":3163,"Ġ93":3164,"Ġreceiving":3165,"Ġprol":3166,"reci":3167,"Ġchamber":3168,"Ġaer":3169,"Ġintravenous":3170,"Ġcef":3171,"Ġconcerning":3172,"Ġvit":3173,"yroid":3174,"Ġgent":3175,"itus":3176,"Ġreviewed":3177,"Ġpsv":3178,"ured":3179,"Ġ67":3180,"arding":3181,"Ġcrib":3182,"Ġisolette":3183,"Ġhypoxia":3184,"Ġpresents":3185,"less":3186,"pa":3187,"Ġbirth":3188,"Ġveins":3189,"emi":3190,"history":3191,"Ġhel":3192,"Ġunclear":3193,"Ġunderlying":3194,"Ġcontrolled":3195,"Ġtermin":3196,"Ġalcohol":3197,"Ġvertebral":3198,"Ġcy":3199,"oids":3200,"Ġleuk":3201,"astric":3202,"Ġascending":3203,"Ġweakness":3204,"oprazole":3205,"140":3206,"Ġetiology":3207,"ferred":3208,"Ġinfarct":3209,"Ġreplacement":3210,"cx":3211,"rd":3212,"Ġappreci":3213,"Ġlevels":3214,"monic":3215,"Ġmulti":3216,"ones":3217,"Ġsocial":3218,"Ġ58":3219,"Ġalbuterol":3220,"ars":3221,"Ġbecame":3222,"nia":3223,"acer":3224,"elt":3225,"Ġearly":3226,"92":3227,"addl":3228,"Ġlactate":3229,"Ġfat":3230,"Ġmicro":3231,"Ġenhanc":3232,"Ġhand":3233,"Ġmoves":3234,"Ġgrowth":3235,"Ġbro":3236,"Ġdysfunction":3237,"Ġspec":3238,"Ġhim":3239,"Ġvar":3240,"Ġportal":3241,"Ġacet":3242,"ings":3243,"Ġmeasures":3244,"Ġide":3245,"cyst":3246,"Ġdifficulty":3247,"Ġrrr":3248,"feed":3249,"ape":3250,"Ġsuperior":3251,"apse":3252,"Ġgreater":3253,"Ġprem":3254,"Ġhs":3255,"Ġ///":3256,"Ġcipro":3257,"Ġspl":3258,"cribed":3259,"Ġupon":3260,"Ġtpn":3261,"Ġangi":3262,"vue":3263,"Ġ86":3264,"Ġextra":3265,"Ġwgt":3266,"Ġembol":3267,"addled":3268,"illing":3269,"Ġgross":3270,"Ġ85":3271,"Ġcaffeine":3272,"aper":3273,"rown":3274,"igg":3275,"Ġelevation":3276,"bul":3277,"Ġbradycardia":3278,"Ġsynd":3279,"Ġversed":3280,"Ġpod":3281,"Ġmuc":3282,"oler":3283,"lier":3284,"Ġleads":3285,"blo":3286,"Ġdiarrhea":3287,"Ġoste":3288,"Ġ------":3289,"pretation":3290,"Ġleak":3291,"azine":3292,"ĠĠĠĠĠĠĠĠĠĠĠĠĠĠĠĠĠĠĠĠĠĠĠĠĠĠĠĠĠĠĠĠĠĠĠĠĠĠĠĠĠĠĠĠĠĠĠĠĠĠĠĠĠĠĠĠĠĠĠĠĠĠĠĠĠĠ":3293,"hal":3294,"Ġstooling":3295,"lip":3296,"Ġpupils":3297,"let":3298,"inent":3299,"charg":3300,"initial":3301,"azol":3302,"ĠĠĠĠĠĠĠĠĠĠĠĠĠĠĠĠĠĠĠĠĠĠĠĠĠĠĠĠĠĠĠĠĠĠĠĠ":3303,"Ġthro":3304,"Ġsa":3305,"Ġstools":3306,"Ġccu":3307,"Ġsulfate":3308,"ibas":3309,"Ġdiv":3310,"Ġgroin":3311,"fi":3312,"Ġsched":3313,"cent":3314,"Ġdeep":3315,"Ġ69":3316,"Ġcarevue":3317,"Ġef":3318,"Ġmechanical":3319,"Ġ102":3320,"arone":3321,"Ġreports":3322,"ache":3323,"ologist":3324,"Ġearlier":3325,"Ġeye":3326,"Ġart":3327,"Ġscler":3328,"itoneal":3329,"Ġsided":3330,"undle":3331,"Ġbiliary":3332,"physical":3333,"status":3334,"Ġsyndrome":3335,"dw":3336,"Ġtracheostomy":3337,"Ġpvc":3338,"Ġwire":3339,"Ġchecks":3340,"prop":3341,"Ġamiod":3342,"Ġmoderately":3343,"Ġpao":3344,"ressive":3345,"Ġarteries":3346,"Ġlit":3347,"Ġfollowed":3348,"Ġpeg":3349,"Ġswelling":3350,"Ġorgan":3351,"--------":3352,"Ġbibas":3353,"Ġdiabetes":3354,"Ġmuch":3355,"Ġorig":3356,"Ġboots":3357,"Ġ39":3358,"Ġsil":3359,"Ġreplete":3360,"Ġelectroly":3361,"umed":3362,"Ġ72":3363,"adr":3364,"Ġtonight":3365,"Ġkne":3366,"hypert":3367,"ability":3368,"Ġ56":3369,"Ġincision":3370,"Ġgastrointestinal":3371,"Ġ#.":3372,"endum":3373,"charged":3374,"ather":3375,"Ġspent":3376,"Ġsq":3377,"%).":3378,"Ġdc":3379,"Ġideal":3380,"Ġfs":3381,"Ġstopped":3382,"Ġreported":3383,"nical":3384,"Ġquestion":3385,"findings":3386,"Ġmagn":3387,"ank":3388,"service":3389,"ipl":3390,"Ġasa":3391,"ccessful":3392,"medications":3393,"Ġbypass":3394,"dural":3395,"ĠĠĠĠĠĠĠĠĠĠ":3396,"ĠĠĠĠĠĠĠĠĠĠĠĠĠĠĠĠĠĠĠĠĠĠĠĠĠĠĠĠĠĠĠĠĠĠĠĠĠĠĠĠĠĠĠĠĠĠĠĠĠĠĠĠĠĠĠĠĠĠĠĠĠĠĠĠĠĠĠĠĠ":3397,"Ġfield":3398,"Ġintervent":3399,"Ġuo":3400,"Ġdeg":3401,"Ġdiast":3402,"Ġ250":3403,"Ġheent":3404,"bili":3405,"ivial":3406,"utic":3407,"Ġrhonchi":3408,"Ġmeasuring":3409,"09":3410,"Ġcoc":3411,"Ġpressors":3412,"lobal":3413,"ising":3414,"ifier":3415,"Ġmv":3416,"Ġthroat":3417,"Ġexcluded":3418,"ains":3419,"ycin":3420,"ention":3421,"Ġperiod":3422,"2124":3423,"went":3424,"rep":3425,"220":3426,"Ġhemodynamically":3427,"2125":3428,"0700":3429,"uled":3430,"Ġimm":3431,"Ġanxiety":3432,"2141":3433,"Ġresident":3434,"74":3435,"Ġvas":3436,"Ġ46":3437,"Ġbundle":3438,"ologic":3439,"Ġsol":3440,"fl":3441,"ophen":3442,"Ġstroke":3443,"Ġpp":3444,"-[**":3445,"Ġ64":3446,"Ġpancreatitis":3447,"Ġconsulted":3448,"2167":3449,"Ġcoverage":3450,"pir":3451,"general":3452,"Ġfelt":3453,"Ġbasal":3454,"tinent":3455,"Ġwater":3456,"Ġgrad":3457,"Ġprimary":3458,"2130":3459,"Ġhypotensive":3460,"Ġagg":3461,"Ġrdw":3462,"Ġfoot":3463,"ocrit":3464,"Ġcmv":3465,"lb":3466,"Ġits":3467,"Ġ92":3468,"vh":3469,"iaz":3470,"ifications":3471,"sw":3472,"Ġpreca":3473,"ering":3474,"col":3475,"oag":3476,"Ġmasses":3477,"Ġbip":3478,"Ġregional":3479,"Ġtan":3480,"88":3481,"me":3482,"utions":3483,"Ġthin":3484,"Ġrib":3485,"aminophen":3486,"sup":3487,"Ġrecently":3488,"Ġ300":3489,"Ġboluses":3490,"Ġbibasilar":3491,"Ġmetastatic":3492,"Ġthickness":3493,"Ġprotect":3494,"Ġ77":3495,"Ġdelir":3496,"uod":3497,"Ġtib":3498,"Ġsv":3499,"lim":3500,"onix":3501,"ageal":3502,"Ġdiastolic":3503,"Ġbrown":3504,"Ġshows":3505,"aund":3506,"seous":3507,"Ġmchc":3508,"ĠĠĠĠĠĠĠĠĠĠĠĠĠĠĠĠĠ":3509,"Ġdesat":3510,"ipation":3511,"Ġsubdural":3512,"isone":3513,"Ġ********************************":3514,"Ġoper":3515,"Ġamp":3516,"Ġ54":3517,"Ġacidosis":3518,"93":3519,"aphr":3520,"Ġ57":3521,"astatin":3522,"Ġdegen":3523,"Ġprominent":3524,"2132":3525,"Ġsubsequent":3526,"agm":3527,"ĠĠĠĠĠĠĠĠĠĠĠĠĠ":3528,"Ġverbal":3529,"kinesis":3530,"Ġpol":3531,"lvef":3532,"Ġoutpatient":3533,"Ġdoses":3534,"orn":3535,"Ġamiodarone":3536,"Ġemer":3537,"Ġsheath":3538,"phrine":3539,"Ġward":3540,"Ġischemic":3541,"Ġhydro":3542,"Ġwheezes":3543,"Ġdepression":3544,"odone":3545,"chest":3546,"2145":3547,"pite":3548,"Ġresection":3549,"Ġswaddled":3550,"Ġ**]:":3551,"pulmonary":3552,"Ġriss":3553,"2169":3554,"syst":3555,"Ġdefect":3556,"Ġdilaudid":3557,"Ġdilt":3558,"aine":3559,"Ġlft":3560,"Ġtrivial":3561,"rate":3562,"Ġ63":3563,"past":3564,"Ġeas":3565,"isin":3566,"2131":3567,"Ġzosyn":3568,"Ġosseous":3569,"Ġrepos":3570,"Ġobese":3571,"vastatin":3572,"bar":3573,"rs":3574,"ostic":3575,"Ġprost":3576,"Ġcomplicated":3577,"Ġchem":3578,"Ġrun":3579,"Ġlll":3580,"aryn":3581,"Ġsegment":3582,"Ġagitation":3583,"Ġagitated":3584,"optimal":3585,"Ġfour":3586,"Ġmoving":3587,"vic":3588,"66":3589,"emide":3590,"Ġprecautions":3591,"Ġhus":3592,"Ġsupine":3593,"ually":3594,"Ġstay":3595,"Ġcoag":3596,"Ġvomiting":3597,"isinopril":3598,"Ġguid":3599,"Ġdischarged":3600,"Ġhernia":3601,"ips":3602,"dop":3603,"Ġflat":3604,"antoprazole":3605,"Ġband":3606,"pulse":3607,"inc":3608,"encephal":3609,"Ġlad":3610,"ives":3611,"85":3612,"Ġ62":3613,"Ġcerebral":3614,"bas":3615,"Ġstates":3616,"oper":3617,"prophylaxis":3618,"arent":3619,"Ġptx":3620,"otherapy":3621,"ifact":3622,"Ġ103":3623,"ained":3624,"2129":3625,"Ġawaiting":3626,"Ġreposition":3627,"Ġ325":3628,"Ġperfused":3629,"Ġspeech":3630,"Ġcomplications":3631,"Ġgrade":3632,"Ġanticoag":3633,"ouet":3634,"Ġ87":3635,"Ġseptum":3636,"Ġ79":3637,"houet":3638,"Ġlocation":3639,"sicu":3640,"Ġvolumes":3641,"69":3642,"Ġinsert":3643,"160":3644,"ylase":3645,"Ġknee":3646,"Ġresting":3647,"2113":3648,"section":3649,"Ġdnr":3650,"Ġprovide":3651,"aller":3652,"rt":3653,"hepat":3654,"Ġheme":3655,"Ġconj":3656,"Ġmaintained":3657,"Ġsyn":3658,"Ġdespite":3659,"Ġsuctioning":3660,"130":3661,"ria":3662,"Ġdegenerative":3663,"Ġnose":3664,"Ġchief":3665,"Ġdob":3666,"Ġlipase":3667,"Ġmedic":3668,"Ġsilhouet":3669,"rous":3670,"chymal":3671,"Ġmi":3672,"Ġarrest":3673,"2120":3674,"Ġappoint":3675,"2111":3676,"Ġceft":3677,"adenopathy":3678,"Ġagree":3679,"idine":3680,"2154":3681,"Ġflagyl":3682,"ump":3683,"2180":3684,"opsy":3685,"wt":3686,"rength":3687,"110":3688,"72":3689,"Ġfing":3690,"Ġhematocrit":3691,"Ġrll":3692,"Ġadrenal":3693,"2165":3694,"Ġhydral":3695,"ugular":3696,"Ġ73":3697,"Ġadministration":3698,"Ġapnea":3699,"Ġunderwent":3700,"Ġsimilar":3701,"Ġckmb":3702,"2178":3703,"cause":3704,"impression":3705,"Ġpantoprazole":3706,"monitor":3707,"Ġinfusing":3708,"ici":3709,"Ġ1900":3710,"medi":3711,"Ġnorm":3712,"91":3713,"ogastric":3714,"Ġ160":3715,"Ġinpatient":3716,"Ġile":3717,"Ġflush":3718,"Ġsuboptimal":3719,"ked":3720,"2168":3721,"dle":3722,"Ġdelirium":3723,"Ġarch":3724,"Ġjunction":3725,"aphragm":3726,"Ġnp":3727,"tharg":3728,"arina":3729,"Ġform":3730,"Ġ84":3731,"Ġdsg":3732,"Ġspinal":3733,"64":3734,"Ġcalcifications":3735,"quired":3736,"Ġimage":3737,"2161":3738,"np":3739,"ĠĠĠĠĠĠĠĠĠĠĠĠĠĠĠĠĠĠĠĠĠĠĠĠĠĠĠĠĠĠĠĠĠĠĠĠĠĠĠĠĠĠĠĠĠĠĠ":3740,"Ġdefin":3741,"apid":3742,"uros":3743,"67":3744,"Ġborder":3745,"Ġintegr":3746,"Ġcarina":3747,"ube":3748,"62":3749,"Ġconsent":3750,"Ġjaund":3751,"Ġ1000":3752,"Ġhco":3753,"urosemide":3754,"Ġdesc":3755,"allergies":3756,"Ġil":3757,"doppler":3758,"ulitis":3759,"2144":3760,"au":3761,"Ġcontours":3762,"Ġfeedings":3763,"tech":3764,"Ġcompression":3765,"Ġss":3766,"imated":3767,"Ġfilm":3768,"Ġ83":3769,"Ġmagnes":3770,"2146":3771,"2193":3772,"amm":3773,"lipid":3774,"2126":3775,"Ġprobably":3776,"Ġprogression":3777,"2139":3778,"2185":3779,"2117":3780,"Ġpressures":3781,"icardi":3782,"Ġstudies":3783,"Ġcorrelation":3784,"pansion":3785,"erved":3786,"Ġamylase":3787,"ibut":3788,"Ġhypertrophy":3789,"Ġfluor":3790,"Ġlymphadenopathy":3791,"Ġcran":3792,"Ġ44":3793,"Ġorth":3794,"ocytosis":3795,"Ġ74":3796,"cardic":3797,"Ġspi":3798,"2150":3799,"itting":3800,"Ġvo":3801,"cop":3802,"Ġbipap":3803,"Ġ600":3804,"Ġsilhouette":3805,"eg":3806,"Ġpcp":3807,"Ġsex":3808,"attending":3809,"Ġrepleted":3810,"Ġnebs":3811,"Ġcholecyst":3812,"Ġduod":3813,"Ġstrength":3814,"tric":3815,"olding":3816,"Ġ47":3817,"Ġather":3818,".,":3819,"Ġ89":3820,"expansion":3821,"Ġquadr":3822,"2151":3823,"you":3824,"vd":3825,"Ġadjacent":3826,"Ġabuse":3827,"Ġadmit":3828,"non":3829,"Ġjugular":3830,"2188":3831,"Ġgav":3832,"Ġsut":3833,"abs":3834,"Ġadded":3835,"Ġpsy":3836,"Ġvac":3837,"Ġ105":3838,"oul":3839,"Ġsuck":3840,"Ġtele":3841,"Ġcool":3842,"there":3843,"2142":3844,"Ġbeg":3845,"indication":3846,"des":3847,"Ġstandard":3848,"2187":3849,"Ġportions":3850,"Ġpacifier":3851,"Ġlevof":3852,"2172":3853,"Ġmonit":3854,"Ġclean":3855,"intub":3856,"2160":3857,"seud":3858,"irub":3859,"Ġanest":3860,"000":3861,"2156":3862,"2114":3863,"Ġhum":3864,"Ġwires":3865,"Ġwant":3866,"Ġpur":3867,"prn":3868,"Ġtwice":3869,"Ġdemonstrates":3870,"2162":3871,"Ġsleeping":3872,"Ġparents":3873,"jection":3874,"uced":3875,"Ġadvance":3876,"Ġcells":3877,"63":3878,"Ġsit":3879,"Ġletharg":3880,"Ġdivert":3881,"Ġrule":3882,"ena":3883,"Ġhilar":3884,"Ġsuggested":3885,"fib":3886,"uria":3887,"Ġstage":3888,"Ġwal":3889,"Ġgrossly":3890,"Ġencourage":3891,"2112":3892,"codone":3893,"Ġqd":3894,"84":3895,"Ġencephal":3896,"61":3897,"2147":3898,"Ġogt":3899,"Ġcontinuous":3900,"Ġbiopsy":3901,"tricuspid":3902,"get":3903,"Ġ125":3904,"Ġwent":3905,"now":3906,"Ġaga":3907,"87":3908,"unctiv":3909,"Ġ)":3910,"itro":3911,"Ġ104":3912,"2122":3913,"2173":3914,"ulated":3915,"Ġci":3916,"Ġfurosemide":3917,"Ġpalpable":3918,"Ġhelp":3919,"Ġtum":3920,"concl":3921,"par":3922,".[**":3923,"Ġyears":3924,"abdominal":3925,"2121":3926,"Ġpancreas":3927,"2189":3928,"termin":3929,"2123":3930,"Ġassistance":3931,"2138":3932,"Ġneb":3933,"Ġmedication":3934,"ocardi":3935,"opic":3936,"Ġthrombus":3937,"2102":3938,"Ġmater":3939,"2176":3940,"Ġery":3941,"Ġtoile":3942,"Ġjust":3943,"2179":3944,"eropen":3945,"complete":3946,"Ġeasily":3947,"atation":3948,"Ġobtain":3949,"Ġgive":3950,"lycemia":3951,"atively":3952,"Ġheadache":3953,"opl":3954,"2106":3955,"Ġself":3956,"Ġtrigg":3957,"eremia":3958,"Ġgain":3959,"cephalic":3960,"Ġpossibly":3961,"Ġconjunctiv":3962,"Ġ^":3963,"2118":3964,"aphy":3965,"nisone":3966,"band":3967,"sf":3968,"2140":3969,"lipidemia":3970,"81":3971,"Ġseptal":3972,"going":3973,"pain":3974,"fact":3975,"Ġpelvic":3976,"Ġbecause":3977,"2143":3978,"den":3979,"2181":3980,"hesia":3981,"what":3982,"Ġsubcutaneous":3983,"Ġnl":3984,"Ġportion":3985,"Ġvoice":3986,"Ġnodes":3987,"Ġservices":3988,"Ġtransition":3989,"Ġphen":3990,"2148":3991,"apeutic":3992,"83":3993,"Ġprolong":3994,"Ġseptic":3995,"Ġsteroids":3996,"Ġcvvh":3997,"be":3998,"2177":3999,"Ġsag":4000,"Ġinit":4001,"2108":4002,"iciency":4003,"Ġpersist":4004,"Ġsple":4005,"Ġaxis":4006,"mcv":4007,"Ġgre":4008,"ng":4009,"Ġtitrated":4010,"Ġlobes":4011,"86":4012,"Ġspleen":4013,"aorta":4014,"Ġrapid":4015,"Ġlisinopril":4016,"Ġ59":4017,"mic":4018,"Ġrefer":4019,"Ġquadrant":4020,"xone":4021,"conclusions":4022,"tube":4023,"89":4024,"ependent":4025,"aker":4026,"2119":4027,"Ġdemonstrate":4028,"icardium":4029,"regular":4030,"ittal":4031,"Ġtrial":4032,"2190":4033,"2192":4034,"71":4035,"Ġexamined":4036,"Ġsuspic":4037,"Ġlevo":4038,"since":4039,"Ġseem":4040,"ctomy":4041,"Ġperi":4042,"technical":4043,"Ġdrawn":4044,"press":4045,"2159":4046,"2107":4047,"73":4048,"Ġnasogastric":4049,"Ġbic":4050,"sub":4051,"'t":4052,"noid":4053,"Ġphot":4054,"Ġphone":4055,"Ġlov":4056,"2149":4057,"Ġstrong":4058,"imes":4059,"Ġmiddle":4060,"Ġurean":4061,"Ġdescending":4062,"Ġwed":4063,"Ġ71":4064,"Ġecg":4065,"Ġlook":4066,"Ġapex":4067,"Ġmat":4068,"1900":4069,"Ġhands":4070,"Ġregarding":4071,"Ġdors":4072,"82":4073,"achnoid":4074,"2109":4075,"responsive":4076,"rr":4077,"Ġcre":4078,"hepatic":4079,"Ġpoint":4080,"irubin":4081,"abolic":4082,"riaxone":4083,"olar":4084,"Ġattempted":4085,"Ġmes":4086,"2191":4087,"79":4088,"down":4089,"Ġopacification":4090,"Ġdropped":4091,"Ġdilatation":4092,"Ġsection":4093,"ument":4094,"aline":4095,"Ġbri":4096,"ancy":4097,"acillin":4098,"2196":4099,"Ġreform":4100,"Ġting":4101,"Ġnad":4102,"Ġ61":4103,"Ġorigin":4104,"Ġenlargement":4105,"Ġfibrin":4106,"2164":4107,"temperature":4108,"nt":4109,"versed":4110,"Ġ42":4111,"Ġcardiomegaly":4112,"2170":4113,"ogenic":4114,"Ġbrief":4115,"Ġ->":4116,"aring":4117,"Ġvalu":4118,"Ġcord":4119,"Ġtry":4120,"Ġpseud":4121,"Ġhydralazine":4122,"mmhg":4123,"urning":4124,"Ġsagittal":4125,"Ġmagnesium":4126,"openia":4127,"Ġappropriately":4128,"Ġ82":4129,"Ġjoint":4130,"Ġweaning":4131,"Ġfam":4132,"Ġinvolving":4133,"Ġesrd":4134,"Ġintegrity":4135,"Ġimmedi":4136,"spine":4137,"Ġlumbar":4138,"acter":4139,"Ġdiscuss":4140,"Ġfist":4141,"ages":4142,"lung":4143,"Ġreactive":4144,"Ġevaluated":4145,"Ġinvolved":4146,"heent":4147,"Ġdensity":4148,"Ġpmhx":4149,"2128":4150,"2157":4151,"ivent":4152,"Ġ41":4153,"Ġpatch":4154,"ritis":4155,"interpretation":4156,"Ġtumor":4157,"Ġmonitored":4158,"ulose":4159,"arachnoid":4160,"Ġexpl":4161,"Ġcirc":4162,"antin":4163,"Ġrul":4164,"Ġ107":4165,"Ġrecurrent":4166,"Ġtenderness":4167,"2158":4168,"Ġnpn":4169,"Ġest":4170,"Ġyet":4171,"2134":4172,"term":4173,"Ġglobal":4174,"Ġsuccessful":4175,"Ġrectal":4176,"Ġbacteremia":4177,"ster":4178,"Ġ108":4179,"moder":4180,"Ġ106":4181,"2182":4182,"Ġmem":4183,"omed":4184,"Ġinhal":4185,"Ġsignificantly":4186,"Ġelectrolytes":4187,"Ġthought":4188,"Ġswan":4189,"Ġpancreatic":4190,"oz":4191,"Ġcontinuing":4192,"Ġnarrow":4193,"Ġiron":4194,"azolam":4195,"inv":4196,"Ġkcl":4197,"Ġsuper":4198,"Ġbreak":4199,"Ġgag":4200,"Ġasking":4201,"Ġhob":4202,"2137":4203,"2174":4204,"ittle":4205,"Ġla":4206,"Ġinclude":4207,"vered":4208,"Ġholding":4209,"Ġuti":4210,"Ġdivertic":4211,"Ġspace":4212,"Ġconstipation":4213,"oulder":4214,"Ġscant":4215,"Ġdorsal":4216,"ture":4217,"Ġbloody":4218,"500":4219,"Ġivc":4220,"2133":4221,"Ġip":4222,"Ġresiduals":4223,"Ġlife":4224,"Ġconver":4225,"Ġdissection":4226,"Ġdegree":4227,"Ġadministered":4228,"epam":4229,"Ġ53":4230,"Ġbru":4231,"Ġfacial":4232,"2115":4233,"Ġdiscontinued":4234,"Ġpn":4235,"Ġdirect":4236,"arditis":4237,"urse":4238,"Ġom":4239,"2200":4240,"Ġbrisk":4241,"Ġsurround":4242,"bed":4243,"Ġflex":4244,"Ġtox":4245,"ood":4246,"bpm":4247,"erm":4248,"Ġpack":4249,"Ġcva":4250,"Ġsomewhat":4251,"Ġ91":4252,"Ġwk":4253,"Ġmil":4254,"Ġused":4255,"Ġ43":4256,"Ġpostoperative":4257,"Ġeven":4258,"stitial":4259,"aff":4260,"emaker":4261,"start":4262,"orous":4263,"Ġapical":4264,"2135":4265,"Ġfinger":4266,"Ġ0700":4267,"Ġurinary":4268,"2184":4269,"ga":4270,"eropenem":4271,"Ġanticoagulation":4272,"flu":4273,"dil":4274,"Ġgastric":4275,"post":4276,"Ġ112":4277,"Ġleukocytosis":4278,"Ġsec":4279,"Ġcalcification":4280,"Ġmrsa":4281,"brief":4282,"??????":4283,"Ġsus":4284,"Ġanxious":4285,"Ġnitro":4286,"Ġanesthesia":4287,"iastin":4288,"Ġhusband":4289,"rought":4290,"2104":4291,"Ġplans":4292,"Ġgradient":4293,"Ġrounds":4294,"2105":4295,"Ġtro":4296,"Ġsmok":4297,"final":4298,"2166":4299,"2183":4300,"avix":4301,"Ġblocker":4302,"Ġ52":4303,"zosyn":4304,"anding":4305,"ned":4306,"2195":4307,"Ġbag":4308,"lik":4309,"Ġcongestive":4310,"Ġapparent":4311,"Ġliters":4312,"Ġdiagnostic":4313,"Ġdated":4314,"cro":4315,"Ġprednisone":4316,"Ġprobable":4317,"Ġcoughing":4318,"Ġconfused":4319,"jective":4320,"Ġrecon":4321,"Ġsinuses":4322,"Ġkidneys":4323,"initials":4324,"2199":4325,"teric":4326,"Ġaddendum":4327,"Ġsicu":4328,"Ġhypod":4329,"ces":4330,"2175":4331,"Ġdiscomfort":4332,"ipine":4333,"Ġlocal":4334,"Ġput":4335,"osph":4336,"Ġchecked":4337,"Ġwid":4338,"101":4339,"Ġconsist":4340,"iologic":4341,"Ġmuscle":4342,"Ġsignal":4343,"2103":4344,"mild":4345,"sus":4346,"Ġlactulose":4347,"Ġlittle":4348,"Ġinterstitial":4349,"Ġwounds":4350,"Ġartifact":4351,"Ġmalign":4352,"ocusate":4353,"Ġshoulder":4354,"ĠĠĠĠĠĠĠĠĠĠĠĠĠĠĠĠĠĠĠĠĠĠĠĠĠĠĠĠĠĠĠĠĠĠĠĠĠĠĠĠĠĠĠ":4355,"Ġanti":4356,"Ġconjunctiva":4357,"Ġprocedures":4358,"Ġinfl":4359,"Ġnurse":4360,"Ġ51":4361,"ella":4362,"abdomen":4363,"iation":4364,"indow":4365,"Ġseizures":4366,"Ġnephro":4367,"Ġhemodynamics":4368,"Ġextending":4369,"Ġtook":4370,"Ġconfirmed":4371,"Ġlevofloxacin":4372,"Ġtemporal":4373,"neic":4374,"ixed":4375,"Ġpacer":4376,"Ġaggressive":4377,"acerb":4378,"verse":4379,"gent":4380,"utter":4381,"Ġercp":4382,"Ġwindow":4383,"2110":4384,"Ġdevelopment":4385,"Ġturned":4386,"ping":4387,"Ġ49":4388,"zym":4389,"Ġangap":4390,"otidine":4391,"Ġfibrinogen":4392,"2171":4393,"Ġenhancement":4394,"**]-":4395,"Ġbrought":4396,"2127":4397,"2155":4398,"acco":4399,"asm":4400,"Ġlives":4401,"Ġdilantin":4402,"Ġbeta":4403,"Ġventilatory":4404,"Ġmidazolam":4405,"Ġhypertensive":4406,"Ġears":4407,"Ġpeak":4408,"Ġacetaminophen":4409,"Ġperfusion":4410,"systolic":4411,"likely":4412,"Ġdrink":4413,"Ġcollapse":4414,"2163":4415,"cyx":4416,"Ġqs":4417,"remains":4418,"Ġrestr":4419,"ocaine":4420,"pericardium":4421,"Ġtransfusion":4422,"Ġsac":4423,"epime":4424,"Ġsubarachnoid":4425,"Ġswit":4426,"urally":4427,"Ġbile":4428,"iastinum":4429,"Ġnotified":4430,"Ġappointment":4431,"Ġmonths":4432,"Ġesophageal":4433,"2186":4434,"Ġlen":4435,"vir":4436,"Ġdiagnos":4437,"Ġsaw":4438,"Ġtrending":4439,"Ġtibial":4440,"rex":4441,"2136":4442,"Ġnear":4443,"Ġvasc":4444,"Ġlid":4445,"Ġfamotidine":4446,"Ġdescribed":4447,"Ġinfiltrates":4448,"Ġavr":4449,"Ġbased":4450,"fp":4451,"Ġlfts":4452,"Ġintervention":4453,"Ġmetabolic":4454,"Ġemphys":4455,"Ġceftriaxone":4456,"Ġpacemaker":4457,"pot":4458,"Ġanter":4459,"full":4460,"Ġeg":4461,"Ġbasilar":4462,"phos":4463,"dem":4464,"fac":4465,"/=":4466,"Ġcbc":4467,"Ġallow":4468,"Ġproblems":4469,"Ġdepressed":4470,"Ġtolerate":4471,"Ġscheduled":4472,"2197":4473,"eff":4474,"Ġthrombosis":4475,"Ġslowly":4476,"Ġborderline":4477,"ietal":4478,"Ġambul":4479,"Ġcomb":4480,"Ġnormally":4481,"uous":4482,"Ġunresponsive":4483,"Ġreturned":4484,"Ġarous":4485,"rhythm":4486,"als":4487,"Ġsen":4488,"ully":4489,"Ġmedicine":4490,"toler":4491,"atous":4492,"Ġfistula":4493,"Ġdorsalis":4494,"Ġlike":4495,"placed":4496,"Ġsurrounding":4497,"Ġbottle":4498,"Ġdocusate":4499,"Ġhaldol":4500,"Ġlarg":4501,"Ġpedis":4502,"Ġexacerb":4503,"Ġdisc":4504,"pertinent":4505,"Ġoxycodone":4506,"head":4507,"Ġbegin":4508,"ography":4509,"Ġdefinite":4510,"hoff":4511,"ules":4512,"Ġcollar":4513,"followup":4514,"Ġtemperature":4515,"calc":4516,"Ġtitrate":4517,"Ġcongestion":4518,"Ġroot":4519,"Ġpleas":4520,"Ġmake":4521,"Ġmeth":4522,"Ġnodule":4523,"moderate":4524,"ĠĠĠĠĠĠĠĠĠĠĠĠĠĠĠĠĠĠĠĠĠĠĠĠĠĠĠĠĠĠĠĠĠĠĠ":4525,"arter":4526,"Ġhypokinesis":4527,"conate":4528,"man":4529,"ene":4530,"artment":4531,"Ġcompleted":4532,"Ġdesats":4533,"iance":4534,"2194":4535,"Ġwithdrawal":4536,"Ġplateau":4537,"lasix":4538,"akes":4539,"Ġdrift":4540,"Ġsuggestive":4541,"rin":4542,"structive":4543,"Ġdrugs":4544,"Ġenzym":4545,"Ġpca":4546,"Ġlist":4547,"Ġacquired":4548,"ify":4549,"Ġtob":4550,"Ġinformed":4551,"Ġtidal":4552,"Ġnormo":4553,"Ġsternal":4554,"Ġeeg":4555,"Ġeach":4556,"Ġcoccyx":4557,"major":4558,"Ġvessels":4559,"Ġ111":4560,"Ġretrocardiac":4561,"Ġ109":4562,"2116":4563,"Ġserial":4564,"eracillin":4565,"ographics":4566,"rench":4567,"Ġhydr":4568,"Ġsaf":4569,"Ġpfi":4570,"Ġhypoactive":4571,"Ġchol":4572,"ii":4573,"iness":4574,"Ġgluconate":4575,"height":4576,"ieved":4577,"Ġindicated":4578,"psv":4579,"Ġrub":4580,"Ġpulled":4581,"',":4582,"adol":4583,"2198":4584,"Ġprolonged":4585,"yo":4586,"bran":4587,"Ġbicarb":4588,"Ġuro":4589,"Ġnutritional":4590,"Ġtor":4591,"Ġpremature":4592,"Ġscreen":4593,"Ġmeropenem":4594,"Ġmesent":4595,"Ġfrequently":4596,"Ġtop":4597,"...":4598,"Ġmel":4599,"Ġconfusion":4600,"idural":4601,"stomy":4602,"Ġindependent":4603,"Ġfilling":4604,"Ġground":4605,"proced":4606,"Ġho":4607,"Ġanother":4608,"Ġrequirement":4609,"onephro":4610,"Ġclinically":4611,"interatrial":4612,"Ġloose":4613,"Ġffp":4614,"Ġirregular":4615,"onephrosis":4616,"Ġcoronal":4617,"hours":4618,"Ġpaced":4619,"Ġrecommendations":4620,"Ġendocrine":4621,"Ġtachycardic":4622,"lets":4623,"Ġguidance":4624,"Ġmar":4625,"Ġcovered":4626,"clin":4627,"Ġfollowup":4628,"Ġdopamine":4629,"Ġpacing":4630,"Ġshowing":4631,"Ġcoil":4632,"gency":4633,"Ġgib":4634,"Ġ170":4635,"Ġoverlying":4636,"Ġventricles":4637,"Ġterminates":4638,"ptal":4639,"Ġcomplex":4640,"ret":4641,"Ġhard":4642,"Ġfair":4643,"Ġenzymes":4644,"Ġdependent":4645,"floxacin":4646,"raction":4647,"Ġrare":4648,"Ġretroper":4649,"Ġimmun":4650,"Ġ138":4651,"Ġcause":4652,"Ġvir":4653,"Ġsom":4654,"Ġfebrile":4655,"Ġtoilet":4656,"iazem":4657,"ential":4658,"Ġsister":4659,"etal":4660,"inct":4661,"cocet":4662,"iat":4663,"bsa":4664,"taz":4665,"cs":4666,"Ġank":4667,"Ġmag":4668,"Ġbar":4669,"Ġhealth":4670,"Ġlul":4671,"nameis":4672,"Ġopens":4673,"temp":4674,"Ġ115":4675,"oscopic":4676,"moid":4677,"Ġlethargic":4678,"Ġcardiology":4679,"Ġdisorder":4680,"Ġappearing":4681,"Ġencephalopathy":4682,"Ġegd":4683,"Ġinjection":4684,"Ġplavix":4685,"urity":4686,"cephalus":4687,"Ġmajor":4688,"aves":4689,"Ġprep":4690,"**]):":4691,"Ġerythe":4692,"Ġaline":4693,"has":4694,"Ġaspect":4695,"Ġtachypnea":4696,"issues":4697,"Ġpulmonic":4698,"otomy":4699,"Ġnotable":4700,"cinoma":4701,"Ġcereb":4702,"Ġwrist":4703,"Ġdoing":4704,"Ġneedle":4705,"job":4706,"Ġcvl":4707,"Ġduoden":4708,"/-":4709,"Ġperson":4710,"heck":4711,"Ġspoke":4712,"event":4713,"Ġ137":4714,"Ġhepatitis":4715,"Ġpale":4716,"othyroid":4717,"Ġmdi":4718,"Ġrequest":4719,"2101":4720,"Ġesophag":4721,"ids":4722,"Ġ116":4723,"sda":4724,"Ġcond":4725,"Ġvolt":4726,"Ġepidural":4727,"icillin":4728,"otional":4729,"Ġaxillary":4730,"Ġtent":4731,"Ġemphysema":4732,"onent":4733,"times":4734,"ipital":4735,"Ġsuspicious":4736,"Ġaz":4737,"gm":4738,"Ġhematology":4739,"Ġtinged":4740,"Ġoutside":4741,"iny":4742,"Ġinfusion":4743,"Ġattempts":4744,"ards":4745,"Ġhydronephrosis":4746,"prot":4747,"etic":4748,"home":4749,"Ġservo":4750,"Ġsxn":4751,"Ġcooperative":4752,"Ġresolution":4753,"ĠĠĠĠĠĠĠĠĠĠĠĠĠĠĠĠĠĠĠĠĠĠĠĠĠĠĠĠĠĠĠĠĠĠĠĠĠ":4754,"Ġbrach":4755,"aining":4756,"Ġrecheck":4757,"Ġwheezing":4758,"chron":4759,"Ġjp":4760,"Ġsutures":4761,"Ġenter":4762,"Ġstated":4763,"paren":4764,"Ġupright":4765,"Ġ141":4766,"Ġdecomp":4767,"Ġonset":4768,"Ġscat":4769,"entive":4770,"Ġmove":4771,"2152":4772,"azepam":4773,"Ġpiperacillin":4774,"Ġpassed":4775,"need":4776,"blood":4777,"Ġnicu":4778,"Ġfri":4779,"ount":4780,"Ġperc":4781,"oplast":4782,"ord":4783,"Ġappe":4784,"Ġmean":4785,"Ġpheny":4786,"Ġongoing":4787,"Ġpatchy":4788,"**]/":4789,"Ġextubate":4790,"Ġtear":4791,"Ġfully":4792,"Ġmast":4793,"Ġrecords":4794,"Ġlift":4795,"Ġmaintaining":4796,"Ġtobacco":4797,"ostal":4798,"Ġtv":4799,"ellar":4800,"Ġlr":4801,"Ġjaundice":4802,"eval":4803,"Ġgrams":4804,"Ġendocarditis":4805,"Ġcomponent":4806,"actam":4807,"assist":4808,"omin":4809,"Ġinsuff":4810,"Ġdigits":4811,"uscult":4812,"sat":4813,"Ġbacter":4814,"Ġtract":4815,"Ġreflex":4816,"Ġwaking":4817,"rim":4818,"Ġivp":4819,"micu":4820,"well":4821,"noc":4822,"olol":4823,"====":4824,"uble":4825,"compared":4826,"Ġlonger":4827,"Ġemotional":4828,"Ġbecom":4829,"Ġprotected":4830,"Ġnarrowing":4831,"Ġoccl":4832,"Ġcame":4833,"Ġresponsive":4834,"Ġcream":4835,"Ġphosph":4836,"metry":4837,"Ġsterile":4838,"onary":4839,"regurgitation":4840,"Ġquiet":4841,"Ġnodules":4842,"Ġdad":4843,"artrate":4844,"bound":4845,"ulature":4846,"ographic":4847,"lungs":4848,"Ġiliac":4849,"Ġperform":4850,"Ġscattered":4851,"Ġconsults":4852,"200":4853,"support":4854,"ables":4855,"Ġqid":4856,"Ġcolitis":4857,"mr":4858,"Ġtartrate":4859,"Ġtissues":4860,"Ġappeared":4861,"Ġmarg":4862,"Ġnecro":4863,"Ġindic":4864,"Ġimprove":4865,"Ġretroperitoneal":4866,"ends":4867,"ote":4868,"Ġdiltiazem":4869,"occ":4870,"Ġdeferred":4871,"Ġturning":4872,"Ġechocardi":4873,"Ġppx":4874,"Ġlidocaine":4875,"opharyn":4876,"Ġ113":4877,"wn":4878,"Ġexacerbation":4879,"Ġpercocet":4880,"Ġemergency":4881,"aped":4882,"Ġsubsequently":4883,"Ġbilious":4884,"ru":4885,"Ġgetting":4886,"his":4887,"Ġlap":4888,"dm":4889,"cares":4890,"Ġasy":4891,"Ġmonday":4892,"Ġ180":4893,"Ġmesenteric":4894,"Ġmatter":4895,"Ġfilter":4896,"Ġclose":4897,"Ġpartial":4898,"unn":4899,"Ġcyan":4900,"Ġcalcified":4901,"luc":4902,"fa":4903,"Ġoffice":4904,"heme":4905,"Ġmucos":4906,"Ġtempor":4907,"coronary":4908,"Ġseros":4909,"Ġkey":4910,"rence":4911,"Ġfoc":4912,"Ġuf":4913,"romycin":4914,"resis":4915,"Ġpump":4916,"procedure":4917,"Ġresusc":4918,"Ġparacent":4919,"assess":4920,"Ġaspirates":4921,"Ġparenchymal":4922,"Ġstructurally":4923,"Ġnormocephalic":4924,"peri":4925,"omediastinal":4926,"Ġproductive":4927,"pneic":4928,"Ġfocus":4929,"Ġoperative":4930,"iced":4931,"enicillin":4932,"Ġankle":4933,"Ġvaluables":4934,"Ġsigmoid":4935,"cap":4936,"Ġpco":4937,"Ġstick":4938,"Ġincis":4939,"cord":4940,"Ġasth":4941,"aque":4942,"Ġmaps":4943,"Ġinflamm":4944,"Ġstanding":4945,"Ġterm":4946,"stick":4947,"pose":4948,"Ġliquids":4949,"invasive":4950,"Ġsbt":4951,"cine":4952,"Ġreplaced":4953,"Ġcopious":4954,"Ġciprofloxacin":4955,"rat":4956,"itamin":4957,"Ġ118":4958,"Ġ136":4959,"Ġenteral":4960,"Ġbroad":4961,"Ġradiographs":4962,"pulmonic":4963,"Ġmaterial":4964,"Ġpy":4965,"Ġrestrain":4966,"Ġchills":4967,"gram":4968,"born":4969,"Ġsclera":4970,"neck":4971,"stool":4972,"Ġ139":4973,"Ġnontender":4974,"Ġconts":4975,"Ġbo":4976,"Ġtherapeutic":4977,"Ġdic":4978,"Ġprotein":4979,"pel":4980,"Ġradiologist":4981,"Ġcardiomediastinal":4982,"Ġnr":4983,"Ġasthma":4984,"Ġlg":4985,"Ġperiods":4986,"aturity":4987,"gl":4988,"Ġorally":4989,"Ġmediastinum":4990,"Ġhcl":4991,"icle":4992,"Ġsolution":4993,"rum":4994,"Ġfeeling":4995,"Ġ135":4996,"iventricular":4997,"Ġpg":4998,"sul":4999,"ner":5000,"Ġsaline":5001,"tated":5002,"stemi":5003,"Ġhospitalization":5004,"uo":5005,"form":5006,"Ġ114":5007,"Ġ450":5008,"Ġpedal":5009,"Ġhealing":5010,"hypo":5011,"Ġcpt":5012,"Ġsugars":5013,"Ġsleeps":5014,"olemia":5015,"ocument":5016,"Ġcort":5017,"Ġserosang":5018,"Ġace":5019,"Ġgua":5020,"Ġneurology":5021,"vascular":5022,"Ġwaves":5023,"Ġchar":5024,"Ġappreciated":5025,"Ġintermittently":5026,"Ġaut":5027,"Ġincident":5028,"Ġauscult":5029,"Ġaud":5030,"Ġwake":5031,"**]),":5032,"ellitus":5033,"Ġstate":5034,"ales":5035,"Ġsenna":5036,"dep":5037,"fem":5038,"hesis":5039,"baby":5040,"Ġhypoxic":5041,"Ġrestless":5042,"Ġconfirm":5043,"gms":5044,"Ġfeet":5045,"Ġfailed":5046,"Ġconsistency":5047,"Ġchild":5048,"Ġwindows":5049,"Ġcritically":5050,"Ġfatig":5051,"Ġnotes":5052,"Ġphototherapy":5053,"Ġrelief":5054,"sepsis":5055,"Ġsuggesting":5056,"Ġaa":5057,"Ġresolving":5058,"bing":5059,"Ġleaflet":5060,"Ġvitamin":5061,"Ġphysically":5062,"Ġneurosurg":5063,"sy":5064,"Ġthir":5065,"uq":5066,"Ġgm":5067,"oracic":5068,"Ġtl":5069,"Ġlegs":5070,"Ġsustained":5071,"Ġtips":5072,"Ġproblem":5073,"izing":5074,"ross":5075,"Ġparacentesis":5076,"Ġog":5077,"iplan":5078,"Ġpreserved":5079,"Ġmellitus":5080,"Ġlt":5081,"protonix":5082,"Ġvasculature":5083,"ĠĠĠĠĠĠĠĠĠĠĠĠĠĠĠĠĠĠĠĠĠ":5084,"Ġtransfuse":5085,"Ġfiber":5086,"Ġgeneralized":5087,"Ġemesis":5088,"compl":5089,"othyroidism":5090,"but":5091,"oscler":5092,"ifocal":5093,"ouse":5094,"erc":5095,"enuation":5096,"Ġfact":5097,"Ġeom":5098,"dev":5099,"posed":5100,"Ġsheet":5101,"Ġpathology":5102,"Ġveget":5103,"iplanar":5104,"aspir":5105,"Ġlvef":5106,"Ġremainder":5107,"Ġua":5108,"Ġreflect":5109,"-/":5110,"Ġrecover":5111,"table":5112,"entesis":5113,"wp":5114,"Ġthyroid":5115,"rectomy":5116,"Ġplatelets":5117,"Ġminimally":5118,"Ġtunn":5119,"aching":5120,"Ġpresentation":5121,"Ġbb":5122,"Ġsaturation":5123,"Ġexternal":5124,"102":5125,"itrate":5126,"Ġtiny":5127,"Ġstarting":5128,"change":5129,"Ġpleasant":5130,"ally":5131,"Ġrectum":5132,"Ġfusion":5133,"Ġmultiplanar":5134,"hs":5135,"abp":5136,"entially":5137,"Ġintrap":5138,"Ġappro":5139,"Ġfrench":5140,"Ġrepresents":5141,"Ġsle":5142,"Ġusual":5143,"Ġhyperlipidemia":5144,"amount":5145,"Ġnested":5146,"Ġ142":5147,"ume":5148,"units":5149,"care":5150,"Ġembolism":5151,"hyd":5152,"erd":5153,"notomy":5154,"Ġmotor":5155,"Ġmedial":5156,"Ġpnd":5157,"ka":5158,"Ġtransfused":5159,"ues":5160,"Ġclinic":5161,"Ġversus":5162,"ampon":5163,"acet":5164,"400":5165,"Ġspecif":5166,"Ġok":5167,"Ġcompliance":5168,"tely":5169,"clo":5170,"ser":5171,"Ġiss":5172,"2201":5173,"Ġfellow":5174,"self":5175,"Ġreceive":5176,"hypertension":5177,"Ġcefepime":5178,"+,":5179,"Ġ119":5180,"Ġgreen":5181,"Ġpow":5182,"Ġdocument":5183,"Ġbilirubin":5184,"add":5185,"bm":5186,"ense":5187,"oration":5188,"Ġherni":5189,"170":5190,"Ġmarkedly":5191,"Ġlymphoma":5192,"Ġinsufficiency":5193,"dose":5194,"given":5195,"Ġlength":5196,"biology":5197,"Ġ650":5198,"asal":5199,"Ġrhonch":5200,"carb":5201,"Ġtal":5202,"amponade":5203,"Ġhsm":5204,"ond":5205,"Ġpresumed":5206,"Ġvoltage":5207,"Ġprotonix":5208,"Ġclo":5209,"Ġseems":5210,"Ġpotential":5211,"Ġrestraints":5212,"arf":5213,"Ġbul":5214,"ither":5215,"Ġempir":5216,"Ġdecision":5217,"intubated":5218,"Ġess":5219,"iotomy":5220,"voiding":5221,"Ġprostate":5222,"oseptal":5223,"Ġ143":5224,"Ġappend":5225,"Ġ117":5226,"aqu":5227,"Ġtoo":5228,"Ġsdh":5229,"Ġpresenting":5230,"Ġstab":5231,"icteric":5232,"Ġparietal":5233,"pathy":5234,"Ġqrs":5235,"poseful":5236,"Ġleast":5237,"Ġbegan":5238,"Ġcur":5239,"Ġoxygenation":5240,"irm":5241,"Ġsk":5242,"angi":5243,"Ġprbcs":5244,"Ġnstemi":5245,"started":5246,"ccu":5247,"lan":5248,"Ġrestric":5249,"Ġasked":5250,"omal":5251,"Ġfasc":5252,"Ġec":5253,"Ġentire":5254,"Ġload":5255,"pac":5256,"aut":5257,"afib":5258,"ionic":5259,"Ġarrived":5260,"ocytopenia":5261,"Ġpsych":5262,"geal":5263,"Ġ550":5264,"Ġvasopress":5265,"Ġmultifocal":5266,"Ġabgs":5267,"tre":5268,"Ġstaff":5269,"Ġexperi":5270,"lab":5271,"Ġtouch":5272,"Ġri":5273,"loon":5274,"Ġvel":5275,"Ġsternotomy":5276,"Ġsah":5277,"Ġproject":5278,"za":5279,"amycin":5280,"Ġunderst":5281,"Ġfields":5282,"Ġdiscussion":5283,"ementia":5284,"Ġready":5285,"Ġneut":5286,"Ġmening":5287,"ring":5288,"Ġpartially":5289,"itations":5290,"Ġerythema":5291,"Ġcb":5292,"Ġcatheterization":5293,"ised":5294,"Ġfont":5295,"utine":5296,"Ġ<=":5297,"Ġmmm":5298,"ching":5299,"antly":5300,"dg":5301,"vanc":5302,"ety":5303,"Ġansw":5304,"Ġvss":5305,"Ġcholecystitis":5306,"after":5307,"ronid":5308,"Ġangio":5309,"Ġmob":5310,"opul":5311,"obactam":5312,"Ġcorrect":5313,"Ġdenied":5314,"Ġeomi":5315,"ronidazole":5316,"Ġtropt":5317,"Ġstap":5318,"tazobactam":5319,"aps":5320,"Ġobstructive":5321,"Ġlabile":5322,"Ġcyanosis":5323,"physiologic":5324,"east":5325,"Ġdevi":5326,"Ġfoci":5327,"action":5328,"Ġserous":5329,"Ġatheroscler":5330,"Ġtablets":5331,"Ġbactrim":5332,"Ġbronchoscopy":5333,"icial":5334,"ording":5335,"disc":5336,"tablet":5337,"Ġoccipital":5338,"ived":5339,"Ġ121":5340,"Ġdefic":5341,"Ġarth":5342,"Ġaccording":5343,"oplasty":5344,"Ġinitiated":5345,"Ġsimv":5346,"+]":5347,"ropium":5348,"olateral":5349,"Ġteeth":5350,"termined":5351,"Ġtorso":5352,"Ġcase":5353,"Ġooz":5354,"appear":5355,"Ġica":5356,"**];":5357,"Ġmovements":5358,"ophren":5359,"chronic":5360,"wa":5361,"Ġel":5362,"peep":5363,"Ġmastoid":5364,"Ġworse":5365,"Ġthigh":5366,"Ġhypog":5367,"Ġdistention":5368,"Ġinserted":5369,"Ġbld":5370,"Ġroute":5371,"Ġtransient":5372,"facility":5373,"Ġcomfortably":5374,"from":5375,"Ġorders":5376,"Ġtransport":5377,"Ġanicteric":5378,"oxin":5379,"Ġcolace":5380,"Ġrx":5381,"Ġswitched":5382,"demographics":5383,"du":5384,"Ġvented":5385,"Ġcharacter":5386,"Ġhyperg":5387,"Ġ134":5388,"Ġ126":5389,"ucate":5390,"vo":5391,"Ġdark":5392,"extrem":5393,"Ġsch":5394,"Ġveloc":5395,"Ġspontaneously":5396,"Ġnewborn":5397,"Ġtherefore":5398,"Ġ145":5399,"Ġoccasionally":5400,"condition":5401,"Ġvitals":5402,"Ġdiagnosed":5403,"Ġhiv":5404,"Ġlp":5405,"Ġnonspecific":5406,"Ġaml":5407,"Ġlytic":5408,"udy":5409,"oric":5410,"Ġreass":5411,"Ġcommand":5412,"Ġruq":5413,"Ġmicrobiology":5414,"Ġlib":5415,"Ġballoon":5416,"Ġtrem":5417,"Ġlor":5418,"Ġgap":5419,"wards":5420,"Ġiabp":5421,"Ġpoly":5422,"Ġpassing":5423,"Ġestimated":5424,"Ġmo":5425,"Ġfluoroscopic":5426,"Ġprong":5427,"Ġnecess":5428,"gy":5429,"iasis":5430,"Ġpenicillin":5431,"Ġflus":5432,"**]).":5433,"negative":5434,"Ġfather":5435,"105":5436,"iplinary":5437,"Ġavoid":5438,"Ġtemporary":5439,"baseline":5440,"Ġnarc":5441,"Ġmostly":5442,"Ġtachypneic":5443,"Ġencouraged":5444,"Ġanal":5445,"Ġ132":5446,"present":5447,"Ġbenef":5448,"Ġicd":5449,"Ġown":5450,"soft":5451,"Ġwarmer":5452,"Ġstimulation":5453,"prov":5454,"access":5455,"ĠĠĠĠĠĠĠĠĠĠĠĠĠĠĠĠĠĠĠĠĠĠĠĠĠ":5456,"Ġ128":5457,"rib":5458,"Ġobjective":5459,"sible":5460,"dni":5461,"aging":5462,"Ġroutine":5463,"hold":5464,"Ġplanned":5465,"Ġarousable":5466,"Ġonc":5467,"pneum":5468,"uncture":5469,"Ġcga":5470,"Ġgest":5471,"Ġocclusion":5472,"perf":5473,"rovent":5474,"Ġingu":5475,"Ġmetronidazole":5476,"Ġpossibility":5477,"Ġgt":5478,"Ġhydrocephalus":5479,"Ġtap":5480,"Ġlay":5481,"asone":5482,"Ġcis":5483,"Ġmurmurs":5484,"Ġremaining":5485,"Ġinguinal":5486,"arfarin":5487,"Ġtrigger":5488,"Ġdouble":5489,"Ġdiaphragm":5490,"nat":5491,"Ġrvr":5492,"Ġbrother":5493,"Ġovernoc":5494,"lectomy":5495,"Ġ133":5496,"Ġfatigue":5497,"Ġsafety":5498,"hemat":5499,"previous":5500,"Ġarms":5501,"Ġsuch":5502,"Ġtunnel":5503,"Ġsigned":5504,"Ġdobhoff":5505,"valve":5506,"Ġbriefly":5507,"Ġknow":5508,"cid":5509,"Ġeither":5510,"meq":5511,"block":5512,"zed":5513,"Ġ**]-":5514,"Ġbutt":5515,"ents":5516,"omon":5517,"Ġhypothyroidism":5518,"sign":5519,"Ġmn":5520,"ej":5521,"crip":5522,"ignment":5523,"Ġgoals":5524,"Ġfirm":5525,"ases":5526,"inephrine":5527,"Ġdemand":5528,"Ġrca":5529,"Ġsatis":5530,"Ġfore":5531,"Ġfinding":5532,"ks":5533,"Ġmedicated":5534,"Ġthird":5535,"Ġprecord":5536,"Ġ122":5537,"enox":5538,"Ġdsd":5539,"Ġsett":5540,"Ġgavage":5541,"agic":5542,"Ġros":5543,"Ġfreq":5544,"Ġpad":5545,"Ġquick":5546,"Ġinsertion":5547,"Ġlorazepam":5548,"chf":5549,"by":5550,"iving":5551,"Ġsplenic":5552,"nc":5553,"Ġtriple":5554,"logy":5555,"103":5556,"omyopathy":5557,"Ġcrrt":5558,"Ġvena":5559,"fix":5560,"Ġcultured":5561,"Ġrebound":5562,"Ġmaking":5563,"amic":5564,"Ġdementia":5565,"Ġantibiotic":5566,"Ġsites":5567,"Ġparan":5568,"had":5569,"Ġbilling":5570,"Ġmalignancy":5571,"Ġpc":5572,"room":5573,"cle":5574,"Ġha":5575,"vp":5576,"Ġbreakdown":5577,"Ġintraventricular":5578,"Ġtransverse":5579,"Ġdressings":5580,"week":5581,"unting":5582,"Ġpresently":5583,"Ġnip":5584,"Ġviral":5585,"Ġnd":5586,"sec":5587,"completed":5588,"2100":5589,"def":5590,"ĠĠĠĠĠĠĠĠĠĠĠĠĠĠĠĠĠĠĠĠ":5591,"Ġ124":5592,"Ġexpected":5593,"Ġlinear":5594,"Ġdecreasing":5595,"Ġoropharyn":5596,"Ġmdct":5597,"Ġattentive":5598,"Ġsvg":5599,"fluid":5600,"Ġmra":5601,"Ġciwa":5602,"alt":5603,"Ġvarices":5604,"feeding":5605,"Ġaudible":5606,"Ġcardiopul":5607,"idi":5608,"Ġesophagus":5609,"phic":5610,"vomiting":5611,"none":5612,"dys":5613,"ynamic":5614,"Ġprovis":5615,"othy":5616,"Ġtab":5617,"Ġsatisfact":5618,"bb":5619,"Ġdevelopmental":5620,"Ġhypov":5621,"take":5622,"Ġdeviation":5623,"Ġdistinct":5624,"Ġguiac":5625,"ĠĠĠĠĠĠĠĠĠĠĠĠĠĠ":5626,"good":5627,"Ġterminating":5628,"Ġwaveform":5629,"increased":5630,"Ġnrb":5631,"sleep":5632,"Ġinability":5633,"Ġprovisional":5634,"uses":5635,"Ġyeast":5636,"oratory":5637,"Ġmyel":5638,"rece":5639,"Ġsupportive":5640,"Ġstain":5641,"Ġdecub":5642,"pfi":5643,"Ġsucks":5644,"enza":5645,"Ġwhat":5646,"iteal":5647,"Ġslu":5648,"Ġgoing":5649,"ĠĠĠĠĠĠĠĠĠĠĠĠĠĠĠĠĠĠĠĠĠĠĠĠĠĠĠĠĠĠĠĠĠĠĠĠĠĠĠĠ":5650,"Ġthem":5651,"Ġtolerates":5652,"grade":5653,"alemia":5654,"ged":5655,"rees":5656,"Ġlimb":5657,"son":5658,"kinetic":5659,"chiat":5660,"Ġvasopressin":5661,"Ġafof":5662,"acia":5663,"Ġthrombocytopenia":5664,"zz":5665,"Ġcava":5666,"Ġradiation":5667,"Ġulcers":5668,"ungal":5669,"chole":5670,"Ġhcp":5671,"Ġqhs":5672,"lycer":5673,"Ġtheir":5674,"onatremia":5675,"Ġglands":5676,"Ġamber":5677,"Ġconduction":5678,"consistent":5679,"sm":5680,"Ġamio":5681,"Ġadjust":5682,"ten":5683,"Ġfemur":5684,"avicular":5685,"ws":5686,"iber":5687,"Ġmidnight":5688,"clinical":5689,"abnormal":5690,"Ġntg":5691,"Ġevol":5692,"Ġcerebellar":5693,"Ġdosing":5694,"tail":5695,"Ġrising":5696,"Ġhypercarb":5697,"feeds":5698,"tolerating":5699,"Ġgot":5700,"ides":5701,"Ġprocedural":5702,"romor":5703,"roxine":5704,"usted":5705,"nutrition":5706,"Ġ144":5707,"Ġ129":5708,"Ġcalm":5709,"adone":5710,"odipine":5711,"liminary":5712,"Ġstaples":5713,"Ġanast":5714,"osol":5715,"Ġileus":5716,"Ġhouse":5717,"disciplinary":5718,"Ġhyperglycemia":5719,"Ġresist":5720,"ratropium":5721,"Ġpositioning":5722,"ococ":5723,"Ġcanal":5724,"ejun":5725,"180":5726,"opliteal":5727,"vas":5728,"Ġexert":5729,"Ġcleared":5730,"Ġinst":5731,"Ġinterdisciplinary":5732,"Ġpig":5733,"inous":5734,"Ġcommunic":5735,"oflow":5736,"Ġpurposeful":5737,"Ġvalv":5738,"Ġsatisfactory":5739,"autoflow":5740,"pra":5741,"Ġaccept":5742,"romorphone":5743,"ubic":5744,"Ġbeats":5745,"Ġatherosclerotic":5746,"Ġinterpre":5747,"cription":5748,"sats":5749,"Ġbest":5750,"ficial":5751,"Ġgrav":5752,"Ġdigoxin":5753,"patible":5754,"fr":5755,"othyroxine":5756,"Ġgerd":5757,"Ġshunt":5758,"hilar":5759,"Ġaeration":5760,"Ġmaxillary":5761,"125":5762,"Ġpartic":5763,"Ġsulci":5764,"ocy":5765,"Ġjvp":5766,"Ġborn":5767,"any":5768,"Ġnode":5769,"Ġicp":5770,"Ġclon":5771,"Ġcapt":5772,"Ġstatin":5773,"ematous":5774,"Ġeffort":5775,"Ġpneumob":5776,"Ġrepe":5777,"anel":5778,"ls":5779,"anch":5780,"ony":5781,"Ġtamponade":5782,"Ġdiuresed":5783,"Ġrepositioning":5784,"104":5785,"Ġworsened":5786,"Ġ350":5787,"cabg":5788,"Ġimmediately":5789,"Ġspit":5790,"Ġcomparisons":5791,"Ġ127":5792,"Ġ123":5793,"Ġsatur":5794,"Ġamb":5795,"Ġguaiac":5796,"Ġejection":5797,"Ġsuggests":5798,"Ġpresence":5799,"Ġappreciate":5800,"Ġpowder":5801,"Ġserum":5802,"Ġket":5803,"ging":5804,"Ġcardiomyopathy":5805,"Ġrales":5806,"Ġaerosol":5807,"Ġgestation":5808,"awake":5809,"*#":5810,"Ġsend":5811,"Ġhemidi":5812,"Ġrecieved":5813,"Ġdiaph":5814,"Ġrepresenting":5815,"mother":5816,"Ġnecessary":5817,"Ġchart":5818,"airs":5819,"esoph":5820,"Ġgrim":5821,"Ġschedule":5822,"Ġdoctor":5823,"thick":5824,"Ġlot":5825,"Ġdizz":5826,"thermia":5827,"nicu":5828,"check":5829,"Ġunlikely":5830,"call":5831,"dim":5832,"rose":5833,"ogene":5834,"Ġtoxic":5835,"Ġtests":5836,"luenza":5837,"Ġcaliber":5838,"tc":5839,"Ġ1600":5840,"flow":5841,"Ġspeak":5842,"Ġhemodialysis":5843,"antus":5844,"Ġconcerns":5845,"Ġfraction":5846,"Ġfood":5847,"branch":5848,"aries":5849,"Ġgavaged":5850,"Ġbath":5851,"Ġcarcinoma":5852,"Ġstones":5853,"cope":5854,"bowel":5855,"exam":5856,"ribution":5857,"oney":5858,"Ġrij":5859,"Ġsugar":5860,"Ġrhonchorous":5861,"eppra":5862,"here":5863,"nol":5864,"Ġ(+":5865,"Ġcellulitis":5866,"Ġnodular":5867,"Ġreor":5868,"Ġtaper":5869,"Ġobvious":5870,"Ġsuperficial":5871,"Ġpositioned":5872,"murm":5873,"Ġlocated":5874,"Ġbur":5875,"Ġsix":5876,"ope":5877,"Ġ131":5878,"Ġorthop":5879,"Ġspeaking":5880,"Ġ(>":5881,"kele":5882,"urine":5883,"Ġrunning":5884,"Ġparanasal":5885,"Ġcompatible":5886,"Ġ(-":5887,"Ġincluded":5888,"tot":5889,"keletal":5890,"ropnt":5891,"itted":5892,"Ġrecons":5893,"which":5894,"urred":5895,"Ġexclude":5896,"Ġattenuation":5897,"Ġstric":5898,"comm":5899,"clovir":5900,"Ġtolerance":5901,"Ġfilms":5902,"umm":5903,"Ġcraniotomy":5904,"ev":5905,"ters":5906,"Ġpopliteal":5907,"Ġsplen":5908,"Ġperl":5909,"Ġslept":5910,"arth":5911,"Ġprevent":5912,"Ġherniation":5913,"itten":5914,"Ġintoler":5915,"Ġplug":5916,"Ġann":5917,"Ġpts":5918,"Ġmucous":5919,"Ġincludes":5920,"Ġpap":5921,"epcid":5922,"lation":5923,"Ġhydromorphone":5924,"Ġcollections":5925,"sl":5926,"Ġauscultation":5927,"cious":5928,"Ġems":5929,"cxr":5930,"omonas":5931,"Ġdispo":5932,"Ġbuttock":5933,"lux":5934,"Ġcardiopulmonary":5935,"Ġrepositioned":5936,"activity":5937,"Ġalkal":5938,"Ġgirth":5939,"Ġaff":5940,"hct":5941,"Ġexerc":5942,"pc":5943,"erous":5944,"epskin":5945,"Ġthoracentesis":5946,"most":5947,"Ġbeginning":5948,"Ġatheroma":5949,"Ġhc":5950,"**],[**":5951,"ipate":5952,"Ġsph":5953,"oke":5954,"images":5955,"thing":5956,"Ġbony":5957,"Ġwash":5958,"Ġctropnt":5959,"Ġpainful":5960,"ibility":5961,"rexia":5962,"Ġlle":5963,"Ġprotection":5964,"mentation":5965,"ware":5966,"Ġ**],[**":5967,"Ġspont":5968,"onate":5969,"Ġbottling":5970,"Ġcoagul":5971,"pulm":5972,"Ġvalium":5973,"Ġpromod":5974,"Ġ146":5975,"Ġdup":5976,"Ġ1500":5977,"Ġclips":5978,"Ġpersists":5979,"Ġprogressive":5980,"Ġpigtail":5981,"intment":5982,"wire":5983,"etite":5984,"Ġeducate":5985,"Ġrespir":5986,"ints":5987,"Ġpuff":5988,"review":5989,"illed":5990,"Ġcsf":5991,"Ġrecorded":5992,"Ġhyponatremia":5993,"Ġmeasure":5994,"erolateral":5995,"Ġfh":5996,"lephrine":5997,"Ġmca":5998,"Ġampicillin":5999,"Ġimmediate":6000,"Ġdext":6001,"Ġreduced":6002,"Ġsimvastatin":6003,"Ġiii":6004,"adolin":6005,"were":6006,"Ġwarfarin":6007,"small":6008,"severe":6009,"ogeneous":6010,"Ġmixed":6011,"inclu":6012,"Ġcome":6013,"Ġsensit":6014,"place":6015,"Ġspecifics":6016,"Ġeve":6017,"Ġperrla":6018,"Ġnour":6019,"appropri":6020,"Ġstaph":6021,"Ġgtts":6022,"Ġpyrexia":6023,"idered":6024,"Ġheel":6025,"Ġ800":6026,"sg":6027,"atted":6028,"onam":6029,"hetic":6030,"Ġaltern":6031,"Ġnourished":6032,"Ġpsychiat":6033,"bet":6034,"Ġdx":6035,"Ġpenicillins":6036,"arterial":6037,"sions":6038,"Ġconsidered":6039,"Ġator":6040,"Ġdest":6041,"Ġpertinent":6042,"labs":6043,"Ġxray":6044,"Ġchemo":6045,"develop":6046,"vist":6047,"ptitle":6048,"ensities":6049,"Ġrelatively":6050,"Ġ1800":6051,"Ġseverely":6052,"Ġwheeze":6053,"Ġhypernat":6054,"Ġrig":6055,"dic":6056,"ithiasis":6057,"Ġwritten":6058,"Ġheter":6059,"Ġ-->":6060,"Ġaden":6061,"pmh":6062,"Ġguide":6063,"Ġesp":6064,"Ġstranding":6065,"Ġattempting":6066,"Ġprominence":6067,"Ġlig":6068,"ganz":6069,"Ġmany":6070,"Ġnsg":6071,"ector":6072,"Ġessentially":6073,"ameth":6074,"Ġbbs":6075,"murmur":6076,"Ġmoney":6077,"Ġdrifts":6078,"Ġquickly":6079,"Ġgravity":6080,"Ġinferolateral":6081,"nevist":6082,"Ġgentle":6083,"Ġsensation":6084,"optysis":6085,"Ġkept":6086,"len":6087,"Ġintensive":6088,"Ġheard":6089,"Ġbranch":6090,"omalacia":6091,"Ġatorvastatin":6092,"Ġtoes":6093,"Ġgave":6094,"heart":6095,"Ġresponded":6096,"Ġimaged":6097,"Ġcost":6098,"Ġkeppra":6099,"Ġosteop":6100,"Ġforam":6101,"Ġreformatted":6102,"Ġcausing":6103,"Ġfut":6104,"exp":6105,"Ġplanning":6106,"seen":6107,"Ġbrachial":6108,"Ġkcal":6109,"Ġmilk":6110,"Ġlevothyroxine":6111,"Ġrepeated":6112,"Ġvoid":6113,"Ġwob":6114,"asar":6115,"Ġvag":6116,"chym":6117,"Ġsomnol":6118,"Ġlantus":6119,"Ġbedtime":6120,"iment":6121,"Ġmagnevist":6122,"Ġparaly":6123,"control":6124,"Ġue":6125,"Ġsclerotic":6126,"Ġhemidiaphragm":6127,"addendum":6128,"Ġprecordial":6129,"upation":6130,"Ġentered":6131,"Ġangiogram":6132,"Ġreglan":6133,"Ġreportedly":6134,"white":6135,"Ġinfluenza":6136,"106":6137,"Ġvisiting":6138,"Ġpalpation":6139,"Ġfol":6140,"Ġcaptopril":6141,"Ġcircum":6142,"Ġbottled":6143,"Ġfeels":6144,"Ġnondistended":6145,"Ġnph":6146,"iguous":6147,"Ġphenylephrine":6148,"Ġlovenox":6149,"ongue":6150,"Ġcodes":6151,"Ġzone":6152,"Ġlate":6153,"Ġhemorrhagic":6154,"alert":6155,"Ġsitting":6156,"Ġortho":6157,"mom":6158,"Ġfos":6159,"Ġ147":6160,"Ġsmoking":6161,"Ġbc":6162,"yclovir":6163,"oses":6164,"Ġangiography":6165,"ptic":6166,"through":6167,"erus":6168,"Ġcritical":6169,"Ġinterpretation":6170,"ophrenic":6171,"Ġopening":6172,"oh":6173,"Ġlymphs":6174,"infer":6175,"Ġcontiguous":6176,"Ġhardware":6177,"ĠĠĠĠĠĠĠĠĠĠĠĠĠĠĠĠĠĠĠĠĠĠĠĠĠĠĠĠĠĠĠĠĠĠĠĠĠĠĠĠĠĠ":6178,"Ġhypoglycemia":6179,"Ġ(+)":6180,"Ġcomplaints":6181,"diagn":6182,"Ġsequ":6183,"Ġkvo":6184,"Ġlack":6185,"Ġyr":6186,"omas":6187,"rinone":6188,"ubbing":6189,"uric":6190,"Ġinvolv":6191,"Ġteaching":6192,"Ġarteri":6193,"Ġworkup":6194,"bilateral":6195,"Ġsuperv":6196,"Ġ**])":6197,"Ġlvot":6198,"Ġbrings":6199,"Ġadjusted":6200,"Ġclots":6201,"Ġremove":6202,"Ġparameter":6203,"Ġpall":6204,"Ġdiaper":6205,"Ġdiverticul":6206,"Ġhypoxemia":6207,"Ġemergent":6208,"arenchymal":6209,"Ġkub":6210,"Ġdiabetic":6211,"Ġphosphate":6212,"second":6213,"Ġwat":6214,"Ġstabil":6215,"Ġfontanel":6216,"conazole":6217,"Ġloculated":6218,"when":6219,"Ġwallet":6220,"Ġswallowing":6221,"Ġwords":6222,"anches":6223,"Ġmso":6224,"Ġanion":6225,"Ġpvd":6226,"Ġconsistently":6227,"eria":6228,"Ġpressor":6229,"************":6230,"Ġextension":6231,"Ġseries":6232,"wean":6233,"Ġrue":6234,"Ġpda":6235,"Ġfive":6236,"structed":6237,"Ġsupp":6238,"Ġcolonoscopy":6239,"Ġrle":6240,"vertebral":6241,"Ġmonos":6242,"Ġfed":6243,"Ġspect":6244,"Ġgallst":6245,"Ġanteriorly":6246,"Ġcards":6247,"Ġprolapse":6248,"Ġpneumoboots":6249,"noted":6250,"cath":6251,"Ġextends":6252,"ying":6253,"Ġ155":6254,"etalol":6255,"Ġdeform":6256,"enolol":6257,"iday":6258,"Ġthr":6259,"Ġfdg":6260,"primary":6261,"Ġbis":6262,"vs":6263,"Ġ148":6264,"Ġdebr":6265,"terminate":6266,"axial":6267,"Ġdecl":6268,"placement":6269,"Ġobesity":6270,"Ġrequested":6271,"Ġnoc":6272,"Ġ****************************************************************":6273,"Ġ****************************************************************************":6274,"Ġstemi":6275,"Ġ*********************************":6276,"onic":6277,"Ġrequires":6278,"Ġlabetalol":6279,"Ġconscious":6280,"Ġdextrose":6281,"Ġol":6282,"Ġpet":6283,"shift":6284,"Ġste":6285,"Ġanasar":6286,"Ġappetite":6287,"face":6288,"Ġcloudy":6289,"Ġcd":6290,"Ġhit":6291,"Ġduodenum":6292,"Ġcolectomy":6293,"Ġprematurity":6294,"Ġgran":6295,"zolid":6296,"Ġsam":6297,"bleed":6298,"mid":6299,"uted":6300,"Ġov":6301,"Ġ700":6302,"Ġhyperd":6303,"alp":6304,"ithromycin":6305,"Ġresuscitation":6306,"ram":6307,"ertain":6308,"omyel":6309,"luded":6310,"Ġlue":6311,"Ġvom":6312,"Ġpredomin":6313,"kes":6314,"Ġaddress":6315,"ummary":6316,"Ġ750":6317,"Ġhemoptysis":6318,"azolin":6319,"Ġecchym":6320,"Ġparticular":6321,"gluc":6322,"Ġtlc":6323,"Ġbronchial":6324,"opro":6325,"odyl":6326,"Ġmarginal":6327,"cef":6328,"Ġpalpitations":6329,"Ġfacility":6330,"Ġbacterial":6331,"Ġdecided":6332,"Ġflutter":6333,"Ġalkalosis":6334,"Ġhypernatremia":6335,"Ġhearing":6336,"Ġevident":6337,"Ġstone":6338,"Ġangle":6339,"Ġtongue":6340,"Ġanastom":6341,"mult":6342,"alog":6343,"imum":6344,"107":6345,"Ġliter":6346,"omyelitis":6347,"Ġbecomes":6348,"imm":6349,"Ġchildren":6350,"creat":6351,"ofran":6352,"Ġmucosal":6353,"Ġsubst":6354,"Ġenhancing":6355,"opram":6356,"admitted":6357,"Ġextended":6358,"Ġsvo":6359,"Ġpercutaneous":6360,"ursion":6361,"Ġepi":6362,"Ġmultiv":6363,"Ġdilation":6364,"+),":6365,"Ġmember":6366,"Ġprom":6367,"Ġbranches":6368,"Ġcysts":6369,"Ġgadolin":6370,"Ġoozing":6371,"ronchi":6372,"Ġdirected":6373,"acetaminophen":6374,"Ġneutrop":6375,"hemorrh":6376,"Ġlvh":6377,"Ġdrops":6378,"fever":6379,"Ġasd":6380,"Ġtrachea":6381,"Ġpole":6382,"Ġmilrinone":6383,"Ġ153":6384,"acodyl":6385,"Ġloving":6386,"Ġew":6387,"dilaudid":6388,"actions":6389,"Ġoac":6390,"including":6391,"Ġlayering":6392,"Ġtracheal":6393,"mptomatic":6394,"product":6395,"female":6396,"Ġfirstname":6397,"aquin":6398,"Ġclearance":6399,"Ġrepletion":6400,"Ġintraparenchymal":6401,"Ġaccident":6402,"Ġseverity":6403,"leafle":6404,"Ġnut":6405,"Ġcostophrenic":6406,"nosis":6407,"Ġprepped":6408,"%/":6409,"115":6410,"Ġdiverticulitis":6411,"ilic":6412,"Ġlacer":6413,"Ġ1200":6414,"lob":6415,"Ġindex":6416,"Ġperforation":6417,"operatively":6418,"Ġdiffusion":6419,"received":6420,"Ġawait":6421,"#:":6422,"cpk":6423,"Ġasleep":6424,"....":6425,"Ġmethadone":6426,"Ġsao":6427,"Ġrecovery":6428,"Ġduration":6429,"Ġevac":6430,"level":6431,"anket":6432,"ivities":6433,"comfortable":6434,"urance":6435,"vised":6436,"kalemia":6437,"Ġclosure":6438,"oplasm":6439,"effusion":6440,"Ġcriteria":6441,"maller":6442,"ashion":6443,"Ġrefused":6444,"car":6445,"Ġflatus":6446,"Ġacyclovir":6447,"ĠĠĠĠĠĠĠĠĠĠĠĠĠĠĠĠĠĠĠ":6448,"Ġ240":6449,"Ġranging":6450,"hypot":6451,"ynchron":6452,"Ġmets":6453,"Ġsheepskin":6454,"Ġclubbing":6455,"esophageal":6456,"amped":6457,"Ġobsc":6458,"Ġpneumo":6459,"Ġgait":6460,"weighted":6461,"Ġspell":6462,"Ġobs":6463,"Ġmarrow":6464,"back":6465,"108":6466,"idate":6467,"Ġcontribut":6468,"Ġvig":6469,"Ġoccupation":6470,"tf":6471,"Ġdetailed":6472,"Ġcdiff":6473,"Ġtelemetry":6474,"Ġgang":6475,"ises":6476,"Ġfashion":6477,"Ġlarger":6478,"wor":6479,"Ġaug":6480,"Ġctab":6481,"Ġgnr":6482,"cat":6483,"Ġparenting":6484,"dictated":6485,"Ġvisited":6486,"Ġipratropium":6487,"usely":6488,"Ġfell":6489,"raum":6490,"Ġcholecystectomy":6491,"Ġcorrespon":6492,"Ġnic":6493,"Ġfuture":6494,"transfer":6495,"intubation":6496,"significant":6497,"utional":6498,"Ġelectrolyte":6499,"asp":6500,"high":6501,"Ġneurosurgery":6502,"vers":6503,"Ġextent":6504,"Ġexertion":6505,"Ġplts":6506,"Ġcoags":6507,"events":6508,"Ġorif":6509,"Ġperihilar":6510,"Ġetc":6511,"Ġot":6512,"iver":6513,"Ġhypodensity":6514,"Ġgrowing":6515,"male":6516,"oxy":6517,"Ġanasarca":6518,"Ġsay":6519,"Ġsacral":6520,"Ġexplained":6521,"Ġcalor":6522,"intra":6523,"agement":6524,"Ġum":6525,"chyma":6526,"Ġhigher":6527,"Ġtunneled":6528,"ionized":6529,"Ġdied":6530,"Ġincom":6531,"Ġfluconazole":6532,"Ġlinezolid":6533,"Ġsmaller":6534,"itic":6535,"surgical":6536,"Ġfrag":6537,"Ġchemotherapy":6538,"my":6539,"Ġplast":6540,"Ġhaz":6541,"Ġthicknesses":6542,"Ġalter":6543,"Ġinver":6544,"bpr":6545,"eprazole":6546,"ulos":6547,"actone":6548,"thromb":6549,"Ġdent":6550,"Ġrup":6551,"Ġprognosis":6552,"Ġdetected":6553,"Ġmvc":6554,"bid":6555,"---":6556,"Ġinvolvement":6557,"Ġsolid":6558,"Ġadminister":6559,"quist":6560,"Ġtran":6561,"Ġlac":6562,"Ġdizziness":6563,"Ġinteractive":6564,"Ġdetermined":6565,"Ġtowards":6566,"hib":6567,"Ġoffer":6568,"productive":6569,"medquist":6570,"Ġinflammatory":6571,"Ġrefill":6572,"tw":6573,"successful":6574,"ologies":6575,"Ġjaundiced":6576,"Ġdecompens":6577,"hep":6578,"Ġatn":6579,"ritable":6580,"Ġtot":6581,"Ġedematous":6582,"Ġzofran":6583,"Ġcompletely":6584,"ina":6585,"Ġderm":6586,"olysis":6587,"appropriate":6588,"Ġintrahepatic":6589,"Ġwa":6590,"imize":6591,"Ġbisacodyl":6592,"enoid":6593,"Ġsample":6594,"uloskeletal":6595,"Ġparenchyma":6596,"Ġ**":6597,"Ġcrani":6598,"Ġcoagulopathy":6599,"Ġdislocation":6600,"Ġneuts":6601,"extremities":6602,"Ġparameters":6603,"Ġcvvhd":6604,"Ġinhalation":6605,"possible":6606,"adys":6607,"600":6608,"Ġnutren":6609,"Ġblanket":6610,"Ġredness":6611,"related":6612,"Ġpull":6613,"Ġtsh":6614,"Ġpvcs":6615,"Ġaaa":6616,"Ġurg":6617,"pp":6618,"300":6619,"space":6620,"rier":6621,"ty":6622,"Ġissue":6623,"ĠĠĠĠĠĠĠĠĠĠĠĠĠĠĠ":6624,"Ġembolization":6625,"Ġreflexes":6626,"new":6627,"Ġnyst":6628,"Ġelb":6629,"Ġwhether":6630,"Ġprod":6631,"Ġhosp":6632,"global":6633,"Ġchew":6634,"contr":6635,"prob":6636,"angu":6637,"ipime":6638,"Ġcurve":6639,"Ġ1700":6640,"Ġconverted":6641,"Ġnever":6642,"Ġran":6643,"Ġosteomyelitis":6644,"Ġsubcostal":6645,"Ġsbo":6646,"eon":6647,"Ġcand":6648,"Ġpubic":6649,"Ġnonionic":6650,"Ġ),":6651,"that":6652,"Ġ149":6653,"Ġtwin":6654,"Ġtakes":6655,"Ġallowing":6656,"Ġbif":6657,"Ġeating":6658,"udden":6659,"Ġatrovent":6660,"cvs":6661,"iamine":6662,"Ġobserved":6663,"prom":6664,"Ġtc":6665,"Ġbelly":6666,"Ġunstable":6667,"Ġpen":6668,"Ġheav":6669,"Ġhumalog":6670,"Ġworking":6671,"Ġelbow":6672,"pelvis":6673,"Ġalignment":6674,"Ġvegetation":6675,"Ġvision":6676,"ecially":6677,"blocker":6678,"Ġwakes":6679,"Ġrom":6680,"lit":6681,"Ġfungal":6682,"Ġlav":6683,"Ġbg":6684,"Ġfriday":6685,"Ġalone":6686,"Ġdraped":6687,"Ġscreening":6688,"flagyl":6689,"Ġskull":6690,"Ġven":6691,"Ġexperien":6692,"Ġpmv":6693,"Ġresume":6694,"Ġrubs":6695,"Ġconsolidations":6696,"Ġprosthesis":6697,"Ġosa":6698,"rig":6699,"Ġvna":6700,"Ġbrbpr":6701,"Ġconcerned":6702,"Ġdiffusely":6703,"secondary":6704,"Ġinterim":6705,"sulf":6706,"oxic":6707,"Ġich":6708,"Ġpseudomonas":6709,"Ġlisted":6710,"Ġfer":6711,"ientation":6712,"Ġtort":6713,"extub":6714,"Ġclamped":6715,"your":6716,"ached":6717,"gn":6718,"Ġras":6719,"bilirubin":6720,"pres":6721,"Ġice":6722,"Ġcefazolin":6723,"Ġatyp":6724,"Ġcombination":6725,"Ġfix":6726,"pepcid":6727,"Ġcardiogenic":6728,"lycerin":6729,"Ġtrached":6730,"htn":6731,"Ġductal":6732,"Ġcardiover":6733,"Ġlatest":6734,"Ġneoplasm":6735,"fixes":6736,"Ġreaction":6737,"toin":6738,"Ġcareview":6739,"Ġcenter":6740,"assessment":6741,"prefixes":6742,"oprost":6743,"Ġmusculoskeletal":6744,"pressure":6745,"Ġ#)":6746,"angitis":6747,"Ġmaternal":6748,"hydration":6749,"Ġpma":6750,"ben":6751,"Ġostomy":6752,"equal":6753,"Ġorb":6754,"Ġparalyzed":6755,"extended":6756,"Ġ**]/":6757,"Ġsoftly":6758,"Ġattention":6759,"Ġincisions":6760,"ready":6761,"psy":6762,"requ":6763,"Ġdropping":6764,"Ġflushed":6765,"Ġexercise":6766,"cad":6767,"Ġcistern":6768,"Ġlevaquin":6769,"chlor":6770,"Ġduplex":6771,"Ġruled":6772,"Ġdense":6773,"Ġmelena":6774,"Ġmcv":6775,"Ġcordis":6776,"amicin":6777,"Ġpron":6778,"Ġfactors":6779,"romide":6780,"sens":6781,"largine":6782,"Ġrisks":6783,"Ġbenz":6784,"Ġsemi":6785,"Ġstep":6786,"echo":6787,"Ġdesaturation":6788,"headed":6789,"ceed":6790,"yellow":6791,"Ġsyncope":6792,"onitis":6793,"enia":6794,"Ġams":6795,"Ġ156":6796,"Ġpls":6797,"Ġsuccessfully":6798,"Ġneph":6799,"Ġbcx":6800,"atal":6801,"Ġlying":6802,"also":6803,"Ġheterogeneous":6804,"breathing":6805,"Ġpage":6806,"Ġsensitive":6807,"Ġhemith":6808,"Ġstents":6809,"Ġfixed":6810,"Ġalteration":6811,"Ġresponding":6812,"ilat":6813,"Ġextremely":6814,"Ġcefipime":6815,"Ġeventually":6816,"Ġdocumented":6817,"gmental":6818,"Ġinde":6819,"Ġileostomy":6820,"Ġinjuries":6821,"ager":6822,"Ġmultivitamin":6823,"onc":6824,"Ġblack":6825,"copd":6826,"Ġvelocity":6827,"Ġtransfered":6828,"uck":6829,"Ġasymmet":6830,"Ġadenopathy":6831,"#.":6832,"Ġabras":6833,"Ġdimension":6834,"aces":6835,"Ġdiurese":6836,"cholester":6837,"Ġtight":6838,"Ġsummary":6839,"lytes":6840,"Ġ190":6841,"Ġempiric":6842,"have":6843,"Ġacceptable":6844,"Ġdistant":6845,"Ġbarrier":6846,"inated":6847,"Ġgms":6848,"Ġsoon":6849,"Ġmobility":6850,"Ġanalysis":6851,"Ġbiventricular":6852,"cholesterolemia":6853,"itidine":6854,"Ġ220":6855,"\".":6856,"Ġsun":6857,"Ġdegrees":6858,"Ġsediment":6859,"due":6860,"Ġexams":6861,"Ġreconstruction":6862,"109":6863,"Ġconsciousness":6864,"Ġdrained":6865,"orial":6866,"ried":6867,"Ġreflux":6868,"Ġclosed":6869,"Ġpulling":6870,"resol":6871,"bg":6872,"Ġten":6873,"Ġbasilic":6874,"Ġmelan":6875,"Ġcephal":6876,"bness":6877,"Ġaffect":6878,"Ġ(?":6879,"Ġbol":6880,"alb":6881,"bilical":6882,"Ġmedian":6883,"Ġtraumatic":6884,"pneumonia":6885,"Ġtriggering":6886,"Ġsettles":6887,"hyp":6888,"isting":6889,"Ġsecured":6890,"Ġeng":6891,"parents":6892,"brady":6893,"Ġdiure":6894,"arp":6895,"sleeping":6896,"/=.":6897,"Ġhypother":6898,"lad":6899,"can":6900,"Ġcoord":6901,"Ġairways":6902,"Ġatenolol":6903,"Ġhemithorax":6904,"------------":6905,"onazole":6906,"iguration":6907,"Ġcontusion":6908,"Ġtues":6909,"Ġlaceration":6910,"ril":6911,"inte":6912,"Ġexcursion":6913,"Ġanteroseptal":6914,"odies":6915,"lebs":6916,"Ġhydration":6917,"Ġcomplication":6918,"Ġhyperkalemia":6919,"Ġplaque":6920,"yloric":6921,"Ġreduction":6922,"Ġasymptomatic":6923,"Ġallergy":6924,"orb":6925,"Ġchewable":6926,"Ġglargine":6927,"Ġredd":6928,"Ġscro":6929,"Ġaspirate":6930,"Ġminute":6931,"Ġfast":6932,"Ġglass":6933,"Ġbecome":6934,"catheter":6935,"Ġnewly":6936,"acid":6937,"Ġwks":6938,"Ġmalignant":6939,"impro":6940,"Ġafsf":6941,"Ġbradys":6942,"evalu":6943,"Ġvisible":6944,"Ġ1400":6945,"Ġquit":6946,"state":6947,"Ġhematuria":6948,"Ġflank":6949,"Ġoropharynx":6950,"Ġincontin":6951,"olemic":6952,"oretic":6953,"oli":6954,"provider":6955,"Ġbruits":6956,"Ġmu":6957,"welling":6958,"Ġnumerous":6959,"Ġspike":6960,"cort":6961,"Ġ1300":6962,"imposed":6963,"erated":6964,"ĠĠĠĠĠĠĠĠĠĠĠĠĠĠĠĠĠĠĠĠĠĠĠĠĠĠĠĠĠĠĠĠĠĠĠĠĠĠĠ":6965,"xious":6966,"Ġvalvular":6967,"Ġsudden":6968,"Ġablation":6969,"giene":6970,"Ġdysuria":6971,"days":6972,"goal":6973,"Ġhypercarbic":6974,"Ġcitrate":6975,"Ġcompress":6976,"Ġmeningitis":6977,"usive":6978,"Ġcalf":6979,"Ġpil":6980,"costal":6981,"Ġtechnical":6982,"reot":6983,"ocl":6984,"Ġcbd":6985,"Ġbreaths":6986,"iatric":6987,"Ġnbp":6988,"Ġwedge":6989,"leaflets":6990,"450":6991,"Ġincomple":6992,"glycerin":6993,"show":6994,"Ġbronchus":6995,"tachy":6996,"Ġespecially":6997,"mot":6998,"uce":6999,"Ġmight":7000,"Ġgout":7001,"Ġconfiguration":7002,"ker":7003,"Ġsuspect":7004,"elev":7005,"Ġhemis":7006,"Ġpitting":7007,"Ġgrand":7008,"Ġhygiene":7009,"Ġechocardiogram":7010,"currently":7011,"Ġepile":7012,"itness":7013,"Ġperitoneal":7014,"transferred":7015,"Ġazithromycin":7016,"ilitation":7017,"Ġdysynchron":7018,"hex":7019,"Ġsupr":7020,"cough":7021,"Ġurea":7022,"ads":7023,"Ġngtd":7024,"Ġdeficits":7025,"Ġreq":7026,"ences":7027,"-->":7028,"Ġadditionally":7029,"Ġnoon":7030,"without":7031,"Ġnorep":7032,"itate":7033,"Ġcolostomy":7034,"veolar":7035,"thal":7036,"Ġdol":7037,"Ġhap":7038,"Ġevacuation":7039,"otics":7040,"Ġgrew":7041,"prior":7042,"Ġ154":7043,"del":7044,"Ġbronchi":7045,"Ġintro":7046,"Ġspir":7047,"Ġbps":7048,"ously":7049,"loc":7050,"Ġprof":7051,"isol":7052,"Ġendoscopy":7053,"Ġsynchron":7054,"Ġgland":7055,"Ġrates":7056,"Ġante":7057,"Ġdisplaced":7058,"ament":7059,"Ġquite":7060,"Ġgadolinium":7061,"Ġ360":7062,"Ġvea":7063,"Ġends":7064,"parenting":7065,"Ġanterolateral":7066,"consider":7067,"Ġmembers":7068,"Ġbromide":7069,"ulations":7070,"Ġsphenoid":7071,"Ġabsence":7072,"Ġbands":7073,"Ġsuspected":7074,"oriented":7075,"Ġ'":7076,"Ġverte":7077,"Ġsips":7078,"changes":7079,"ha":7080,"aint":7081,"%)":7082,"potassium":7083,"Ġsubsegmental":7084,"obronch":7085,"ĠĠĠĠĠĠĠĠĠĠĠĠĠĠĠĠĠĠĠĠĠĠĠĠĠĠĠĠĠĠĠĠĠĠĠĠĠĠĠĠĠ":7086,"ges":7087,"Ġthiamine":7088,"Ġbac":7089,"Ġrespect":7090,"Ġpromote":7091,"Ġnorepinephrine":7092,"Ġvari":7093,"Ġsuperimposed":7094,"Ġcholangitis":7095,"sx":7096,"Ġisol":7097,"Ġabp":7098,"Ġdd":7099,"Ġtm":7100,"cult":7101,"lnc":7102,"isions":7103,"Ġjvd":7104,"Ġnet":7105,"obic":7106,"Ġpanc":7107,"Ġ2200":7108,"Ġmvr":7109,"Ġclav":7110,"Ġparticularly":7111,"ativan":7112,"vasation":7113,"ros":7114,"Ġsuprac":7115,"Ġfine":7116,"Ġbuttocks":7117,"ves":7118,"bott":7119,"Ġprescribed":7120,"Ġranitidine":7121,"ances":7122,"Ġindeterminate":7123,"iella":7124,"Ġsteroid":7125,"sug":7126,"Ġakinetic":7127,"Ġdiaphoretic":7128,"Ġcontract":7129,"perfused":7130,"gnancy":7131,"Ġdiverticulosis":7132,"Ġrashes":7133,"Ġamlodipine":7134,"telemetry":7135,"iatal":7136,"vol":7137,"Ġindwelling":7138,"Ġtrough":7139,"glucose":7140,"Ġ152":7141,"aneurysm":7142,"lum":7143,"hypotension":7144,"Ġfiss":7145,"ogn":7146,"concer":7147,"Ġduoderm":7148,"111":7149,"Ġformer":7150,"Ġcarb":7151,"Ġsvt":7152,"Ġmuscles":7153,"Ġmac":7154,"Ġguarding":7155,"leg":7156,"diagnostic":7157,"Ġechocardiographic":7158,"agia":7159,"Ġluc":7160,"Ġmanaged":7161,"112":7162,"Ġuptake":7163,"inol":7164,"Ġcoup":7165,"Ġrespond":7166,"recons":7167,"Ġoriginal":7168,".\"":7169,"Ġrecur":7170,"ffee":7171,"Ġechogenic":7172,"Ġalkphos":7173,"Ġ175":7174,"Ġinfarcts":7175,"Ġattr":7176,"entin":7177,"Ġens":7178,"orus":7179,"Ġpreterm":7180,"fusion":7181,"itol":7182,"single":7183,"Ġstenting":7184,"138":7185,"controlled":7186,"lebsiella":7187,"Ġnail":7188,"Ġpara":7189,"Ġbecoming":7190,"Ġfunctional":7191,"Ġsuic":7192,"Ġapproach":7193,"amil":7194,"repeat":7195,"Ġformation":7196,"Ġpseudo":7197,"ducer":7198,"Ġsound":7199,"Ġsleepy":7200,"Ġtelephone":7201,"Ġeat":7202,"Ġfrequ":7203,"Ġaver":7204,"Ġchlorhex":7205,"Ġtsicu":7206,"lower":7207,"Ġcpr":7208,"heum":7209,"========":7210,"Ġturns":7211,"Ġpredominantly":7212,"Ġreddened":7213,"Ġoverweight":7214,"focal":7215,"pred":7216,"Ġtrying":7217,"Ġpoorly":7218,"Ġvigorous":7219,"ias":7220,"Ġgir":7221,"Ġmb":7222,"onatal":7223,"Ġfolate":7224,"formin":7225,"rup":7226,"Ġnumbness":7227,"Ġureter":7228,"Ġ158":7229,"Ġlipitor":7230,"Ġanat":7231,"Ġrequirements":7232,"Ġemboli":7233,"enhanc":7234,"under":7235,"gias":7236,"Ġsym":7237,"gg":7238,"Ġqtc":7239,"Ġachi":7240,"Ġinlet":7241,"Ġcystic":7242,"rosis":7243,"Ġour":7244,"Ġextravasation":7245,"Ġinflammation":7246,"ason":7247,"lateral":7248,"idement":7249,"incision":7250,"Ġmoist":7251,"infection":7252,"responds":7253,"report":7254,"main":7255,"apine":7256,"Ġdopa":7257,"Ġirritable":7258,"thmoid":7259,"between":7260,"Ġjejun":7261,"cussion":7262,"pending":7263,"ven":7264,"aryngeal":7265,"Ġomeprazole":7266,"Ġdopplerable":7267,"wall":7268,"Ġdepartment":7269,"Ġantibx":7270,"Ġunsuccessful":7271,"Ġconvers":7272,"Ġfi":7273,"Ġsubt":7274,"Ġdeterm":7275,"clusion":7276,"Ġachie":7277,"Ġtoe":7278,"Ġcolored":7279,"oun":7280,"Ġcross":7281,"Ġpreliminary":7282,"Ġnoxious":7283,"Ġpreop":7284,"imeth":7285,"Ġinterventions":7286,"139":7287,"branes":7288,"ushroom":7289,"isms":7290,"sim":7291,"iocephalic":7292,"Ġ2100":7293,"Ġsero":7294,"Ġphysiologic":7295,"labored":7296,"Ġpuncture":7297,"Ġcyt":7298,"113":7299,"hemorrhage":7300,"Ġsupracl":7301,"ibuted":7302,"Ġpreoperative":7303,"Ġpills":7304,"Ġresulting":7305,"Ġinhaler":7306,"Ġhalf":7307,"Ġlethargy":7308,"Ġunde":7309,"oliosis":7310,"Ġupdates":7311,"Ġspot":7312,"Ġalready":7313,"Ġlipids":7314,"arring":7315,"complicated":7316,"ibup":7317,"aphenous":7318,"Ġphase":7319,"Ġoperating":7320,"Ġinfants":7321,"minuted":7322,"Ġventilated":7323,"rated":7324,"umedrol":7325,"Ġbx":7326,"Ġduodenal":7327,"ibupro":7328,"Ġfossa":7329,"Ġ151":7330,"Ġcandidate":7331,"Ġguidewire":7332,"Ġexchange":7333,"inferior":7334,"Ġbf":7335,"Ġalcoholic":7336,"emesis":7337,"ective":7338,"Ġunless":7339,"Ġtransitioned":7340,"Ġsegments":7341,"Ġolig":7342,"py":7343,"Ġlooks":7344,"Ġwithdraws":7345,"Ġagents":7346,"Ġlm":7347,"Ġarthritis":7348,"Ġsymmetr":7349,"uild":7350,"icd":7351,"Ġunc":7352,"Ġparticipate":7353,"Ġairspace":7354,"Ġdeficiency":7355,"Ġug":7356,"Ġdysynchrony":7357,"Ġpillow":7358,"dvt":7359,"contribut":7360,"flex":7361,"aches":7362,"Ġclus":7363,"vital":7364,"135":7365,"Ġdescription":7366,"Ġresumed":7367,"Ġinstability":7368,"uril":7369,"izations":7370,"prog":7371,"Ġbones":7372,"Ġventricul":7373,"ellent":7374,"Ġstre":7375,"Ġthurs":7376,"ey":7377,"Ġcoming":7378,"stent":7379,"Ġneurological":7380,"cere":7381,"Ġdecubitus":7382,"ibuprofen":7383,"Ġseal":7384,"Ġdesatur":7385,"ggish":7386,"Ġentry":7387,"eventful":7388,"Ġnystatin":7389,"bilirubinemia":7390,"Ġruns":7391,"wk":7392,"Ġseat":7393,"abap":7394,"Ġrecord":7395,"Ġethmoid":7396,"Ġincisional":7397,"Ġurology":7398,"Ġspecific":7399,"Ġfrequency":7400,"lv":7401,"Ġcalories":7402,"Ġmushroom":7403,"Ġosteo":7404,"atosis":7405,"Ġdobut":7406,"creases":7407,"250":7408,"abapentin":7409,"short":7410,"headedness":7411,"itory":7412,"rid":7413,"Ġarrhythm":7414,"erve":7415,"Ġcalls":7416,"Ġwaveforms":7417,"114":7418,"Ġmanu":7419,"atty":7420,"Ġcoffee":7421,"Ġxrt":7422,"rob":7423,"Ġspectrum":7424,"stooling":7425,"quest":7426,"Ġfalls":7427,"Ġlabet":7428,"Ġswab":7429,"ssa":7430,"Ġprogressed":7431,"Ġendo":7432,"Ġpoc":7433,"Ġcomminuted":7434,"Ġanastomosis":7435,"lock":7436,"Ġbound":7437,"Ġclearly":7438,"pericardial":7439,"Ġannular":7440,"Ġbabygram":7441,"Ġcorresponding":7442,"arily":7443,"Ġsuspension":7444,"Ġinconsistent":7445,"Ġpatency":7446,"Ġpercent":7447,"Ġpostop":7448,"ger":7449,"Ġcolonic":7450,"Ġnor":7451,"Ġble":7452,"Ġ168":7453,"itnessed":7454,"Ġobserv":7455,"Ġfascicular":7456,"urer":7457,"Ġmanufact":7458,"amethasone":7459,"Ġoph":7460,"yph":7461,"Ġfaint":7462,"Ġnitroglycerin":7463,"retractions":7464,"part":7465,"550":7466,"Ġvalue":7467,"Ġnature":7468,"Ġhives":7469,"ollen":7470,"Ġbeh":7471,"Ġprec":7472,"Ġklebsiella":7473,"ritor":7474,"Ġvalues":7475,"Ġcaring":7476,"Ġbottles":7477,"occas":7478,"anx":7479,"Ġvide":7480,"Ġsi":7481,"Ġmanufacturer":7482,"Ġhab":7483,"Ġligament":7484,"itoneum":7485,"Ġdeveloping":7486,"rection":7487,"Ġensure":7488,"Ġmassive":7489,"Ġdifficile":7490,"Ġvre":7491,"Ġsynchronously":7492,"continues":7493,"scale":7494,"iate":7495,"Ġ165":7496,"Ġointment":7497,"Ġbrachiocephalic":7498,"dp":7499,"icles":7500,"Ġextr":7501,"Ġhyperdynamic":7502,"Ġcri":7503,"thromycin":7504,"Ġacross":7505,"Ġpeel":7506,"Ġtue":7507,"Ġfairly":7508,"Ġhypodense":7509,"aresis":7510,"Ġnares":7511,"Ġwidening":7512,"Ġchlorhexidine":7513,"Ġhiatal":7514,"soc":7515,"Ġhourly":7516,"suggest":7517,"Ġminor":7518,"Ġ162":7519,"Ġreferred":7520,"done":7521,"Ġhcts":7522,"ensives":7523,"Ġpea":7524,"Ġlargest":7525,"Ġepig":7526,"Ġlobectomy":7527,"Ġdrinking":7528,"once":7529,"risk":7530,"systemic":7531,"ctreot":7532,"ulent":7533,"glass":7534,"Ġsmoker":7535,"Ġnnp":7536,"Ġsem":7537,"Ġhcv":7538,"Ġdebridement":7539,"Ġexpector":7540,"Ġreformations":7541,"Ġposteriorly":7542,"uilding":7543,"Ġdro":7544,"Ġdiagnoses":7545,"iveness":7546,"Ġguided":7547,"Ġumbilical":7548,"Ġfatty":7549,"Ġloop":7550,"Ġdifferentiation":7551,"Ġfunctioning":7552,"cipro":7553,"Ġcauses":7554,"Ġckd":7555,"needs":7556,"Ġsucking":7557,"Ġreconstructions":7558,"tsicu":7559,"Ġaccessory":7560,"ae":7561,"recomm":7562,"point":7563,"ctreotide":7564,"Ġsib":7565,"Ġretention":7566,"137":7567,"Ġcommode":7568,"Ġsubstant":7569,"avr":7570,"Ġtracking":7571,"Ġbenefits":7572,"Ġdemonstrating":7573,"Ġretr":7574,"Ġway":7575,"contributory":7576,"Ġreduce":7577,"Ġplatelet":7578,"Ġ0400":7579,"iative":7580,"itutional":7581,"ann":7582,"Ġprojects":7583,"Ġoccluded":7584,"crete":7585,"Ġexcellent":7586,"ipt":7587,"Ġterritor":7588,"Ġoffered":7589,"during":7590,"insulin":7591,"dy":7592,"antib":7593,"Ġsolumedrol":7594,"Ġhemisp":7595,"Ġinfected":7596,"onal":7597,"phagia":7598,"ocyst":7599,"oly":7600,"Ġceftaz":7601,"peg":7602,"Ġlavage":7603,"Ġalveolar":7604,"bypass":7605,"Ġscarring":7606,"Ġnebul":7607,"uv":7608,"nes":7609,"Ġintolerance":7610,"nitol":7611,"Ġtpa":7612,"Ġaugmentation":7613,"uit":7614,"izes":7615,"Ġregions":7616,"Ġcoping":7617,"Ġadvancing":7618,"Ġmembranes":7619,"heparin":7620,"Ġflair":7621,"ken":7622,"Ġdistribution":7623,"Ġappointments":7624,"oud":7625,"ologically":7626,"Ġorthopnea":7627,"([**":7628,"Ġvaccine":7629,"atives":7630,"Ġprovider":7631,"Ġxan":7632,"Ġevolving":7633,"Ġbring":7634,"tenance":7635,"Ġarrang":7636,"Ġindicate":7637,"Ġswollen":7638,"hypertensives":7639,"prox":7640,"total":7641,"Ġbodies":7642,"lithiasis":7643,"Ġcooling":7644,"Ġsupplemental":7645,"Ġsegmental":7646,"Ġpicture":7647,"Ġdistension":7648,"Ġcdi":7649,"icc":7650,"ldh":7651,"Ġperiventricular":7652,"Ġmins":7653,"Ġmucosa":7654,"intr":7655,"asic":7656,"Ġmeasured":7657,"Ġcs":7658,"ongated":7659,"Ġrise":7660,"Ġaneurys":7661,"Ġsaphenous":7662,"Ġlcx":7663,"Ġmoved":7664,"bre":7665,"Ġsluggish":7666,"Ġrheum":7667,"Ġsmear":7668,"Ġtracer":7669,"Ġcomplaining":7670,"Ġclears":7671,"Ġovert":7672,"iseal":7673,"Ġcel":7674,"Ġcholangi":7675,"cpap":7676,"appearing":7677,"Ġcontributing":7678,"Ġgbs":7679,"Ġtransfusions":7680,"hemod":7681,"large":7682,"Ġgentamicin":7683,"recent":7684,"Ġindications":7685,"ilevel":7686,"Ġprojecting":7687,"Ġincreasingly":7688,"ocar":7689,"plate":7690,"hicle":7691,"acy":7692,"Ġbioprost":7693,"reveal":7694,"echocardi":7695,"Ġtold":7696,"vr":7697,"Ġrounded":7698,"Ġhypovolemia":7699,"infar":7700,"physis":7701,"Ġdetermine":7702,"ride":7703,"Ġneos":7704,"Ġosteophy":7705,"Ġld":7706,"hydr":7707,"Ġreassess":7708,"118":7709,"sticks":7710,"iform":7711,"Ġappendage":7712,"\",":7713,"whe":7714,"anterior":7715,"Ġarteriogram":7716,"Ġavf":7717,"Ġpregnancy":7718,"Ġrespectively":7719,"Ġmanage":7720,"thickened":7721,"insic":7722,"cell":7723,"**]+)":7724,"Ġportex":7725,"mass":7726,"Ġlymphatic":7727,"Ġ225":7728,"Ġsymphysis":7729,"Ġll":7730,"Ġdiuril":7731,"Ġenc":7732,"Ġconstitutional":7733,"diabet":7734,"Ġheavy":7735,"Ġperine":7736,"ungin":7737,"Ġthink":7738,"etoh":7739,"Ġbenefit":7740,"Ġgranul":7741,"Ġcomprom":7742,"Ġrehabilitation":7743,"Ġcoiling":7744,"Ġobservation":7745,"Ġdex":7746,".]":7747,"Ġpathway":7748,"Ġchor":7749,"Ġinduced":7750,"Ġmssa":7751,"Ġeffac":7752,"minimal":7753,"Ġmetastases":7754,"mt":7755,"Ġnurs":7756,"nar":7757,"bedding":7758,"reactive":7759,"osed":7760,"Ġclothes":7761,"Ġelongated":7762,"Ġpleur":7763,"Ġdobutamine":7764,"vitamin":7765,"wbc":7766,"oatrial":7767,"Ġmeals":7768,"db":7769,"Ġstairs":7770,"Ġurinal":7771,"Ġgradually":7772,"Ġmultilevel":7773,"Ġintensity":7774,"cta":7775,"Ġ157":7776,"ipated":7777,"Ġtransamin":7778,"Ġclonidine":7779,"Ġtuesday":7780,"Ġcmo":7781,"Ġnecrosis":7782,"Ġ230":7783,"Ġvehicle":7784,"Ġphenytoin":7785,"Ġrenally":7786,"Ġleave":7787,"olarization":7788,"Ġpreced":7789,"Ġapices":7790,"Ġmannitol":7791,"Ġuncertain":7792,"Ġagre":7793,"surgery":7794,"Ġ900":7795,"lap":7796,"Ġssi":7797,"116":7798,"Ġshortly":7799,"ospasm":7800,"Ġnephrostomy":7801,"meds":7802,"Ġtortuous":7803,"infl":7804,"ocarcinoma":7805,"117":7806,"herent":7807,"Ġ2300":7808,"tics":7809,"Ġfluoro":7810,"Ġsaid":7811,"Ġmvp":7812,"Ġnods":7813,"Ġmaintenance":7814,"inate":7815,"Ġpolyp":7816,"Ġpresum":7817,"Ġrif":7818,"Ġpsychiatric":7819,"Ġbmt":7820,"artery":7821,"Ġcortical":7822,"Ġatypical":7823,"Ġcns":7824,"coag":7825,"Ġhypercholesterolemia":7826,"immun":7827,"Ġbarium":7828,"ta":7829,"Ġrecurrence":7830,"adequ":7831,"Ġdual":7832,"Ġquestionable":7833,"Ġneuropathy":7834,"Ġuncomfortable":7835,"Ġlapar":7836,"Ġtri":7837,"tum":7838,"Ġhealed":7839,"ococcus":7840,"ureus":7841,"Ġuneventful":7842,"sbp":7843,"Ġpsh":7844,"ounced":7845,"Ġtrack":7846,"Ġclearing":7847,"Ġvideo":7848,"suction":7849,"Ġcoiled":7850,"Ġinstructed":7851,"Ġloud":7852,"Ġliving":7853,"ischem":7854,"Ġgpc":7855,"Ġplus":7856,"Ġirrig":7857,"Ġade":7858,"142":7859,"141":7860,"Ġflexiseal":7861,"Ġterritorial":7862,"Ġstabilized":7863,"Ġnoncontrast":7864,"spits":7865,"325":7866,"Ġoverloaded":7867,"Ġrelative":7868,"Ġfolic":7869,"Ġcycle":7870,"gast":7871,"Ġreformats":7872,"uticasone":7873,"Ġvegetations":7874,"cted":7875,"aster":7876,"Ġwidely":7877,"Ġneur":7878,"Ġtransports":7879,"Ġcbg":7880,"Ġauto":7881,"Ġrefusing":7882,"Ġresistant":7883,"Ġmetformin":7884,"Ġdestination":7885,"Ġwatch":7886,"Ġoctreotide":7887,"Ġaerated":7888,"Ġspiked":7889,"Ġunderstand":7890,"Ġrin":7891,"Ġaverage":7892,"swe":7893,"Ġtears":7894,"Ġpuffs":7895,"Ġsomnolent":7896,"apsed":7897,"atio":7898,"Ġgallops":7899,"Ġmva":7900,"ansoprazole":7901,"Ġconflu":7902,"Ġsucc":7903,"Ġrupture":7904,"pleural":7905,"Ġrather":7906,"Ġforamen":7907,"Ġfissure":7908,"Ġhyperbilirubinemia":7909,"Ġwants":7910,"Ġobli":7911,"Ġcouple":7912,"Ġcholelithiasis":7913,"dilated":7914,"paced":7915,"ilol":7916,"Ġvascularity":7917,"Ġhil":7918,"Ġcavoatrial":7919,"denies":7920,"dense":7921,"foley":7922,"Ġapparently":7923,"ih":7924,"Ġ167":7925,"coord":7926,"Ġmarkings":7927,"Ġrigid":7928,"Ġclar":7929,"Ġsuspicion":7930,"ased":7931,"136":7932,"Ġcodeine":7933,"143":7934,"Ġtoileting":7935,"Ġlabetolol":7936,"Ġosm":7937,"/+":7938,"Ġpacked":7939,"Ġalmost":7940,"stage":7941,"afof":7942,"Ġfixation":7943,"Ġencouragement":7944,"pink":7945,"fio":7946,"asyn":7947,"Ġsituation":7948,"update":7949,"igen":7950,"Ġsurve":7951,"Ġsar":7952,"Ġdiuresing":7953,"/.":7954,"Ġexpiratory":7955,"Ġnh":7956,"tod":7957,"Ġparox":7958,"vedilol":7959,"try":7960,"dge":7961,"Ġsulfa":7962,"Ġsoln":7963,"+.":7964,"Ġpacu":7965,"Ġapg":7966,"Ġwide":7967,"Ġgangl":7968,"nnp":7969,"Ġsurface":7970,"rophic":7971,"Ġmelanoma":7972,"Ġring":7973,"Ġgenerally":7974,"Ġsharp":7975,"Ġsz":7976,"Ġstricture":7977,"Ġod":7978,"Ġ..":7979,"ioned":7980,"Ġversion":7981,"Ġdka":7982,"Ġaccordingly":7983,"Ġflap":7984,"Ġ163":7985,"Ġcisterns":7986,"Ġrinse":7987,"Ġcred":7988,"aperitoneal":7989,"Ġdeformity":7990,"Ġteens":7991,"pulses":7992,"Ġcongested":7993,"Ġscoliosis":7994,"Ġadeq":7995,"today":7996,"roph":7997,"lives":7998,"Ġcardioversion":7999,"rences":8000,"Ġsurgeon":8001,"queez":8002,"chol":8003,"Ġexchanged":8004,"Ġventral":8005,"etron":8006,"conds":8007,"exc":8008,"than":8009,"Ġblister":8010,"plast":8011,"Ġcombivent":8012,"sr":8013,"hyperthermia":8014,"Ġattributed":8015,"Ġangina":8016,"Ġ(<":8017,"Ġgallstones":8018,"Ġreson":8019,"ami":8020,"Ġcardioth":8021,"Ġhyperint":8022,"ky":8023,"Ġbright":8024,"improved":8025,"Ġmetastasis":8026,"decreased":8027,"Ġcontaining":8028,"Ġaspirated":8029,"Ġdrinks":8030,"Ġatrophy":8031,"Ġstem":8032,"Ġ159":8033,"Ġxs":8034,"Ġbms":8035,"visions":8036,"Ġapprop":8037,"Ġdysphagia":8038,"Ġhealthy":8039,"Ġrestriction":8040,"more":8041,"Ġhf":8042,"Ġdemographics":8043,"following":8044,"Ġimport":8045,"ococcal":8046,"Ġforward":8047,"Ġpathologic":8048,"Ġsomet":8049,"needed":8050,"bhoff":8051,"eties":8052,"Ġorganomegaly":8053,"sternal":8054,"Ġempirically":8055,"Ġecc":8056,"Ġanswer":8057,"Ġceliac":8058,"odine":8059,"Ġcash":8060,"Ġgabapentin":8061,"Ġantibody":8062,"Ġoccurred":8063,"Ġevd":8064,"Ġsubtle":8065,"Ġ(~":8066,"Ġoverdose":8067,"Ġinfo":8068,"Ġthoracotomy":8069,"Ġforearm":8070,"Ġbeat":8071,"Ġrespirations":8072,"Ġthru":8073,"Ġnodding":8074,"Ġsibling":8075,"liquid":8076,"bo":8077,"cefepime":8078,"diffic":8079,"Ġinput":8080,"119":8081,"Ġpalate":8082,"depression":8083,"attempt":8084,"Ġlansoprazole":8085,"ĠĠĠĠĠĠĠĠĠĠĠĠĠĠĠĠĠĠĠĠĠĠĠ":8086,"Ġlifting":8087,"Ġengor":8088,"opath":8089,"Ġpronounced":8090,"hibitor":8091,"utely":8092,"traum":8093,"unit":8094,"cir":8095,"mch":8096,"Ġunilat":8097,"showed":8098,"Ġneeding":8099,"Ġdip":8100,"asia":8101,"Ġtree":8102,"Ġcorrelate":8103,"aze":8104,"aspiration":8105,"Ġcredit":8106,"parent":8107,"tizing":8108,":/":8109,"Ġ0600":8110,"Ġnarcotics":8111,"Ġpin":8112,"sulfonam":8113,"Ġdial":8114,"opur":8115,"Ġ#[**":8116,"Ġdehydration":8117,"bleeding":8118,"Ġexperience":8119,"Ġpark":8120,"Ġdni":8121,"mildly":8122,"Ġcholest":8123,"Ġsupraclavicular":8124,"Ġcomplained":8125,"Ġwashout":8126,"Ġuterus":8127,"Ġdobbhoff":8128,"Ġsignature":8129,"Ġeffacement":8130,"adow":8131,"Ġgenital":8132,"some":8133,"Ġpalliative":8134,"Ġproxy":8135,"ansetron":8136,"Ġaureus":8137,"Ġhyperthermia":8138,"Ġfsbs":8139,"Ġdeficit":8140,"Ġfecal":8141,"Ġcorrected":8142,"Ġbioprosthetic":8143,"Ġjo":8144,"Ġnebuliz":8145,"083":8146,"ionella":8147,"Ġmvi":8148,"Ġconve":8149,"reactions":8150,"slight":8151,"positive":8152,"Ġstrict":8153,"Ġoutl":8154,"Ġnitr":8155,"Ġproper":8156,"based":8157,"Ġdisk":8158,"Ġucx":8159,"Ġswitch":8160,"Ġstoma":8161,"Ġpseudoaneurysm":8162,"ilation":8163,"Ġnipple":8164,"Ġembolus":8165,"defined":8166,"Ġhuo":8167,"Ġagainst":8168,"obacter":8169,"Ġjew":8170,"Ġ173":8171,"Ġbradycardic":8172,"Ġcharacterize":8173,"obstructive":8174,"Ġflatt":8175,"size":8176,"Ġbifur":8177,"Ġreplace":8178,"neurolog":8179,"Ġsludge":8180,"Ġ178":8181,"sol":8182,"dimer":8183,"coun":8184,"multiple":8185,"Ġcardio":8186,"Ġinjected":8187,"Ġhelpful":8188,"Ġtried":8189,"occasional":8190,"la":8191,"Ġstasis":8192,"Ġedu":8193,"how":8194,"Ġdefects":8195,"Ġjewel":8196,"ropine":8197,"Ġhop":8198,"Ġcoli":8199,"yne":8200,"Ġtalk":8201,"Ġsuff":8202,"Ġtired":8203,"obarb":8204,"Ġneural":8205,"vision":8206,"Ġoncology":8207,"Ġconcent":8208,"Ġ161":8209,"Ġenough":8210,"Ġqam":8211,"ysmal":8212,"Ġratio":8213,"revisions":8214,"algias":8215,"Ġjewelry":8216,"Ġinfer":8217,"ĠĠĠĠĠĠĠĠĠĠĠĠĠĠĠĠĠĠĠĠĠĠĠĠĠĠĠĠĠĠĠĠĠĠĠĠĠĠĠĠĠĠĠĠĠĠĠĠ":8218,"Ġinteg":8219,"Ġworked":8220,"Ġgentleman":8221,"Ġtail":8222,"Ġextremeties":8223,"Ġlightheadedness":8224,"hc":8225,"Ġdiuretics":8226,"Ġhypodensities":8227,"Ġdiag":8228,"Ġtopical":8229,"leuk":8230,"opurinol":8231,"cline":8232,"Ġtach":8233,"Ġsqueez":8234,"afebrile":8235,"adequate":8236,"intact":8237,"ulous":8238,"ayed":8239,"illa":8240,"Ġthursday":8241,"Ġfibrosis":8242,"Ġhyperdense":8243,"injection":8244,"Ġganglia":8245,"Ġsitter":8246,"mov":8247,"ifactorial":8248,"Ġlimit":8249,"nesday":8250,"malign":8251,"Ġling":8252,"Ġneurologically":8253,"Ġnipride":8254,"Ġrol":8255,"Ġimmaturity":8256,"Ġsplenomegaly":8257,"Ġselect":8258,"tolerated":8259,"department":8260,"Ġpositional":8261,"stem":8262,"145":8263,"hpi":8264,"Ġvelocities":8265,"ceft":8266,"viron":8267,"Ġtfs":8268,"Ġappreciable":8269,"ishes":8270,"Ġsensitivities":8271,"oo":8272,"hypertrophy":8273,"Ġnicard":8274,"dispo":8275,"Ġsays":8276,"Ġtimeout":8277,"Ġreveals":8278,"Ġcommunicating":8279,"vitals":8280,"inr":8281,"Ġaro":8282,"diures":8283,"elevated":8284,"Ġcvicu":8285,"Ġpathologically":8286,"Ġcocaine":8287,"evaluate":8288,"Ġvats":8289,"ourinary":8290,"itourinary":8291,"abnormalities":8292,"cum":8293,"Ġnif":8294,"loid":8295,"pacifier":8296,"Ġdrng":8297,"Ġsepar":8298,"Ġgroup":8299,"Ġpediatric":8300,"Ġaway":8301,"Ġboard":8302,"Ġpf":8303,"seiz":8304,"arthritis":8305,"Ġbolused":8306,"Ġ=>":8307,"hd":8308,"Ġtb":8309,"anter":8310,"Ġnerve":8311,"Ġtotbili":8312,"Ġtesting":8313,"Ġ320":8314,"Ġeti":8315,"isome":8316,"Ġlabored":8317,"Ġclind":8318,"Ġexpressed":8319,"Ġmakes":8320,"Ġcontains":8321,"like":8322,"Ġdepressions":8323,"upright":8324,"Ġleftward":8325,"Ġserosangu":8326,"medical":8327,"Ġinner":8328,"read":8329,"Ġcn":8330,"Ġworker":8331,"further":8332,"Ġmucus":8333,"bro":8334,"Ġinconsistently":8335,"lastic":8336,"bbb":8337,"Ġraising":8338,"Ġcold":8339,"Ġntnd":8340,"anguage":8341,"fuo":8342,"Ġdictation":8343,"Ġfro":8344,"adryl":8345,"ett":8346,"Ġliq":8347,"increase":8348,"Ġmyeloma":8349,"Ġanswe":8350,"Ġparal":8351,"arian":8352,"artan":8353,"Ġhear":8354,"Ġ166":8355,"consolid":8356,"Ġhematemesis":8357,"Ġawak":8358,"sob":8359,"Ġfund":8360,"Ġionized":8361,"Ġdroop":8362,"Ġplastics":8363,"Ġcorne":8364,"Ġusually":8365,"oprim":8366,"Ġclindamycin":8367,"Ġcocci":8368,"Ġpounds":8369,"cutaneous":8370,"Ġsatting":8371,"coumadin":8372,"radi":8373,"Ġfalling":8374,"arenal":8375,"Ġanswered":8376,"Ġattack":8377,"Ġparking":8378,"Ġrpr":8379,"imethoprim":8380,"anxiety":8381,"yprex":8382,"Ġcut":8383,"Ġcogn":8384,"lumen":8385,"psych":8386,"Ġond":8387,"Ġfourth":8388,"Ġoblique":8389,"134":8390,"Ġlegionella":8391,"ons":8392,"grad":8393,"Ġneutropenia":8394,"bronch":8395,"consult":8396,"Ġcleans":8397,"Ġ164":8398,"Ġwithdrawn":8399,"ominant":8400,"oresis":8401,"Ġ0800":8402,"Ġ(-)":8403,"Ġtreatments":8404,"Ġinitiation":8405,"Ġambulation":8406,"Ġimv":8407,"128":8408,"stre":8409,"Ġasymmetric":8410,"coll":8411,"yprexa":8412,"ansion":8413,"Ġcarvedilol":8414,"Ġbicarbonate":8415,"Ġfriend":8416,"Ġspray":8417,"Ġburst":8418,"Ġcircumfe":8419,"osin":8420,"flat":8421,"rehab":8422,"idol":8423,"Ġleukemia":8424,"Ġivfs":8425,"lima":8426,"actuation":8427,"onol":8428,"Ġpatients":8429,"Ġips":8430,"Ġhips":8431,"guided":8432,"Ġreferral":8433,"Ġexpansion":8434,"morph":8435,"Ġintraperitoneal":8436,"Ġfingers":8437,"Ġjoints":8438,"antibiot":8439,"Ġepileptic":8440,"Ġinfections":8441,"stenosis":8442,"ze":8443,"endoc":8444,"Ġwwp":8445,"reason":8446,"loy":8447,"Ġmyalgias":8448,"Ġqsr":8449,"Ġoutpt":8450,"available":8451,"Ġinfiltration":8452,"Ġyrs":8453,"Ġexperienced":8454,"Ġlbs":8455,"Ġnecrotizing":8456,"siveness":8457,"Ġele":8458,"Ġnicardipine":8459,"Ġtraz":8460,"Ġcycl":8461,"Ġevolution":8462,"Ġondansetron":8463,"Ġ176":8464,"cq":8465,"Ġaccom":8466,"Ġpta":8467,"ugger":8468,"ocytes":8469,"Ġability":8470,"itud":8471,"Ġmultifactorial":8472,"treat":8473,"Ġiodine":8474,"enter":8475,"stroke":8476,"Ġcardiothoracic":8477,"top":8478,"Ġreintubated":8479,"Ġenviron":8480,"Ġuses":8481,"Ġurosepsis":8482,"Ġribs":8483,"Ġflare":8484,"Ġeld":8485,"diast":8486,"Ġweekend":8487,"Ġ480":8488,"tp":8489,"Ġchanging":8490,"Ġgenitalia":8491,"code":8492,"aract":8493,"Ġtrended":8494,"gement":8495,"Ġbreat":8496,"tob":8497,"Ġrotation":8498,"Ġshower":8499,"benign":8500,"Ġtestes":8501,"122":8502,"Ġblunting":8503,"Ġerythromycin":8504,"questions":8505,"disease":8506,"Ġge":8507,"Ġindependently":8508,"Ġscl":8509,"Ġacutely":8510,"quel":8511,"Ġdin":8512,"amox":8513,"Ġmouthing":8514,"Ġfluticasone":8515,"Ġfacet":8516,"Ġcollect":8517,"Ġeducation":8518,"Ġcommunicate":8519,"picc":8520,"integ":8521,"odrine":8522,"Ġconclusion":8523,"away":8524,"Ġfin":8525,"preliminary":8526,"Ġindicating":8527,"190":8528,"Ġuncomplicated":8529,"poor":8530,"initially":8531,"aspirin":8532,"Ġ[]":8533,"tein":8534,"gag":8535,"Ġetiologies":8536,"fent":8537,"odi":8538,"Ġbruit":8539,"ecg":8540,"Ġgenitourinary":8541,"Ġmedically":8542,"Ġunlabored":8543,"evidence":8544,"Ġfa":8545,"Ġxl":8546,"Ġmorbid":8547,"Ġplacment":8548,"Ġoutlined":8549,"/=,":8550,"mae":8551,"yond":8552,"acity":8553,"Ġwest":8554,"Ġcompens":8555,"Ġmultid":8556,"ekg":8557,"acl":8558,"work":8559,"Ġleading":8560,"Ġsensitivity":8561,"italopram":8562,"atures":8563,"Ġshadow":8564,"Ġhemolysis":8565,"700":8566,"Ġpd":8567,"Ġrelieved":8568,"Ġncat":8569,"imaging":8570,"acting":8571,"Ġibuprofen":8572,"shortness":8573,"Ġpci":8574,"Ġreorient":8575,"Ġtracheobronch":8576,"Ġsure":8577,"Ġelective":8578,"Ġtabs":8579,"Ġ1100":8580,"diastolic":8581,"Ġdriving":8582,"Ġbronchitis":8583,"Ġbrid":8584,"onolactone":8585,"bt":8586,"Ġ215":8587,"Ġlooking":8588,"Ġkeeping":8589,"Ġepilepticus":8590,"unable":8591,"trend":8592,"palp":8593,"Ġcommunicated":8594,"orcine":8595,"Ġsaturations":8596,"var":8597,"Ġfilled":8598,"iration":8599,"Ġdecisions":8600,"arget":8601,"Ġcardiologist":8602,"jejun":8603,"ches":8604,"Ġflushes":8605,"anemia":8606,"osa":8607,"Ġqday":8608,"Ġcephalic":8609,"Ġprim":8610,"coma":8611,"Ġmaximum":8612,"ln":8613,"elled":8614,"Ġdecad":8615,"Ġnecrotic":8616,"Ġanuric":8617,"Ġmust":8618,"Ġintercostal":8619,"Ġvaginal":8620,"team":8621,"Ġflor":8622,"Ġcollapsed":8623,"uminal":8624,"idal":8625,"Ġmott":8626,"probable":8627,"Ġelder":8628,"Ġlabor":8629,"Ġbruising":8630,"Ġavl":8631,"vasc":8632,"appears":8633,"Ġinspiratory":8634,"cillin":8635,"Ġnaf":8636,"124":8637,"however":8638,"Ġ218":8639,"Ġbeyond":8640,"leb":8641,"hypertensive":8642,"capsule":8643,"Ġophthal":8644,"Ġgastritis":8645,"Ġthal":8646,"result":8647,"Ġwitnessed":8648,"volume":8649,"opid":8650,"Ġsuscept":8651,"liver":8652,"ources":8653,"cav":8654,"ux":8655,"percussion":8656,"metoprolol":8657,"thrombus":8658,"Ġssri":8659,"Ġkyph":8660,"Ġwalking":8661,"riend":8662,"Ġtrig":8663,"Ġimproves":8664,"jected":8665,"Ġcompressibility":8666,"Ġdeath":8667,"imeter":8668,"Ġremote":8669,"Ġsecretion":8670,"upper":8671,"Ġlimiting":8672,"132":8673,"Ġincompletely":8674,"omet":8675,"133":8676,"Ġpolys":8677,"Ġcoherent":8678,"consolidation":8679,"123":8680,"lutter":8681,"within":8682,"Ġinterest":8683,"Ġfetal":8684,"Ġinhibitor":8685,"Ġsized":8686,"Ġ177":8687,"Ġwishes":8688,"Ġexcess":8689,"126":8690,"Ġpcwp":8691,"Ġcsru":8692,"illance":8693,"Ġangioplasty":8694,"Ġ169":8695,"Ġwhole":8696,"Ġbifurcation":8697,"Ġambulatory":8698,"Ġdecadron":8699,"infarction":8700,"difficult":8701,"Ġbacteria":8702,"Ġ181":8703,"free":8704,"person":8705,"npo":8706,"Ġtac":8707,"daughter":8708,"dry":8709,"Ġchips":8710,"Ġoften":8711,"Ġpunct":8712,"oglob":8713,"company":8714,"Ġvert":8715,"Ġhabitus":8716,"Ġlaboratory":8717,"Ġdeple":8718,"Ġstability":8719,"feedings":8720,"Ġwrap":8721,"Ġdispl":8722,"itant":8723,"Ġmach":8724,"amus":8725,"renatal":8726,"discus":8727,"Ġdifferences":8728,"Ġexcor":8729,"Ġmeasurements":8730,"ampus":8731,"Ġvisits":8732,"vancomycin":8733,"Ġneonatal":8734,"Ġproceed":8735,"genital":8736,"xii":8737,"sounds":8738,"Ġrevision":8739,"Ġdon":8740,"otensive":8741,"pur":8742,"aer":8743,"Ġincreases":8744,"mins":8745,"Ġrestrict":8746,"Ġtremors":8747,"Ġhypothermia":8748,"/<":8749,"oe":8750,"Ġinterpreted":8751,"Ġformed":8752,"Ġsick":8753,"Ġdoe":8754,"mitted":8755,"organ":8756,"asting":8757,"Ġantigen":8758,"Ġspikes":8759,"Ġhydrocort":8760,"pyloric":8761,"Ġdiscontinue":8762,"Ġepigastric":8763,"Ġapgars":8764,"acted":8765,"dae":8766,"Ġrds":8767,"Ġpanel":8768,"idime":8769,"Ġvoided":8770,"chair":8771,"Ġ260":8772,"ulus":8773,"Ġarrhythmia":8774,"Ġhor":8775,"Ġsafe":8776,"father":8777,"fts":8778,"oste":8779,"raluminal":8780,"Ġnco":8781,"country":8782,"Ġadmissions":8783,"lat":8784,"haps":8785,"-<":8786,"Ġdtr":8787,"aga":8788,"Ġbenadryl":8789,"Ġxanth":8790,"Ġoverbreathing":8791,"Ġsore":8792,"Ġscope":8793,"ystal":8794,"malignant":8795,"Ġsel":8796,"Ġanswering":8797,"Ġcranial":8798,"Ġ////":8799,"Ġlamine":8800,"opramide":8801,"altered":8802,"Ġreach":8803,"Ġelderly":8804,"Ġweep":8805,"lisinopril":8806,"pca":8807,"Ġinhalers":8808,"upd":8809,"apt":8810,"while":8811,"Ġrequesting":8812,"Ġft":8813,"Ġuvc":8814,"Ġbegun":8815,"Ġambulating":8816,"ogrel":8817,"abl":8818,"reshold":8819,"Ġhemothorax":8820,"Ġmedicate":8821,"kcal":8822,"Ġzyprexa":8823,"Ġforaminal":8824,"Ġcollateral":8825,"Ġprompt":8826,"opidogrel":8827,"Ġoverl":8828,"displaced":8829,"istaxis":8830,"Ġmicrop":8831,"vg":8832,"Ġstrep":8833,"thy":8834,"where":8835,"ĠĠĠĠĠĠĠĠĠĠĠĠĠĠĠĠĠĠĠĠĠĠĠĠĠĠĠĠĠĠĠĠĠĠĠĠĠĠĠĠĠĠĠĠĠĠĠĠĠĠĠĠĠĠĠĠĠĠĠĠĠĠĠĠĠĠĠĠĠĠ":8836,"lact":8837,"Ġmamm":8838,"Ġpseudocyst":8839,"Ġbulb":8840,"weeks":8841,"Ġsupps":8842,"Ġcert":8843,"Ġln":8844,"ĠĠĠĠĠĠĠĠĠĠĠĠĠĠĠĠĠĠĠĠĠĠĠĠ":8845,"Ġ172":8846,"Ġaphas":8847,"Ġmis":8848,"aid":8849,"Ġddx":8850,"although":8851,"Ġ340":8852,"Ġbum":8853,"Ġmicropuncture":8854,"Ġoropharyngeal":8855,"Ġhospice":8856,"Ġmig":8857,"diameter":8858,"gastro":8859,"Ġcarbonate":8860,"enc":8861,"ibi":8862,".:":8863,"Ġfrank":8864,"angar":8865,"Ġhemisphere":8866,"Ġadvised":8867,"Ġsuture":8868,"Ġurgent":8869,"kil":8870,"Ġoptimal":8871,"Ġtend":8872,"Ġcompromise":8873,"Ġkcals":8874,"Ġseconds":8875,"Ġepicardial":8876,"Ġenvironment":8877,"Ġsuite":8878,"stipation":8879,"Ġdrive":8880,"oclopramide":8881,"Ġcrf":8882,"Ġlucency":8883,"Ġbnp":8884,"fail":8885,"Ġantihypertensives":8886,"Ġnerv":8887,"Ġbph":8888,"Ġsecure":8889,"intro":8890,"Ġmiconazole":8891,"Ġmargin":8892,"Ġdeterior":8893,"agus":8894,"oned":8895,"350":8896,"hypokinesis":8897,"Ġtoxicity":8898,"Ġmand":8899,"vern":8900,"Ġhumerus":8901,"orosis":8902,"Ġbehavi":8903,"bilaterally":8904,"Ġsclerosis":8905,"Ġrifax":8906,"Ġleaking":8907,"Ġsating":8908,"131":8909,"Ġsomnolence":8910,"eats":8911,"hypox":8912,"Ġrelax":8913,"doing":8914,"Ġ0500":8915,"ript":8916,"Ġpacs":8917,"remained":8918,"Ġoriginally":8919,"Ġallopurinol":8920,"Ġsubacute":8921,"Ġproviding":8922,"Ġmidodrine":8923,"Ġampl":8924,"series":8925,"Ġconstant":8926,"onchi":8927,"Ġgd":8928,"Ġ174":8929,"Ġpersistently":8930,"Ġthreshold":8931,"opathic":8932,"Ġakinesis":8933,"Ġhazy":8934,"Ġmec":8935,"Ġsometimes":8936,"Ġdeclined":8937,"Ġtransaminitis":8938,"ritory":8939,"121":8940,"ressively":8941,"Ġwaiting":8942,"Ġwanted":8943,"Ġscalp":8944,"sternum":8945,"Ġatropine":8946,"Ġdrg":8947,"gic":8948,"Ġcaused":8949,"Ġgiving":8950,"Ġperip":8951,"gall":8952,"Ġacetab":8953,"onstrated":8954,"035":8955,"Ġretired":8956,"edicated":8957,"Ġscar":8958,"veget":8959,"Ġnormotensive":8960,"invol":8961,"-.":8962,"Ġwednesday":8963,"asa":8964,"osup":8965,"emb":8966,"Ġyest":8967,"Ġdaughters":8968,"Ġexplain":8969,"Ġnotify":8970,"Ġadequately":8971,"Ġphosphorus":8972,"ĠĠĠĠĠĠĠĠĠĠĠĠĠĠĠĠĠĠĠĠĠĠĠĠĠĠ":8973,"Ġcompartment":8974,"Ġ5000":8975,"diabetes":8976,"Ġredist":8977,"Ġsupplement":8978,"cran":8979,"Ġsten":8980,"conf":8981,"Ġvp":8982,"Ġeffective":8983,"129":8984,"Ġrestarting":8985,"Ġgrimacing":8986,"Ġshut":8987,"Ġtibia":8988,"Ġrotated":8989,"infor":8990,"Ġnephrectomy":8991,"Ġcard":8992,"Ġobscured":8993,"Ġbit":8994,"Ġpurulent":8995,"atrovent":8996,"Ġpeaked":8997,"rrr":8998,"Ġelevations":8999,"Ġpoints":9000,"evaluation":9001,"sal":9002,"Ġnoticed":9003,"sedated":9004,"restimated":9005,"roh":9006,"Ġconvex":9007,"Ġtoward":9008,"Ġsurveillance":9009,"angaroo":9010,"Ġorganisms":9011,"fast":9012,"Ġscans":9013,"operidol":9014,"Ġslower":9015,"Ġpasses":9016,"Ġhcfa":9017,"Ġagreed":9018,"alcine":9019,"Ġtfi":9020,"Ġovarian":9021,"Ġinvested":9022,"Ġcertify":9023,"Ġnect":9024,"Ġgrunting":9025,"Ġdexamethasone":9026,"Ġcataract":9027,"Ġepistaxis":9028,"electro":9029,"Ġtransiently":9030,"Ġ188":9031,"resolved":9032,"myocardial":9033,"appo":9034,"Ġatelectatic":9035,"course":9036,"arms":9037,"Ġih":9038,"Ġ|":9039,"Ġscrews":9040,"building":9041,"Ġhugger":9042,"Ġparoxysmal":9043,"Ġpharm":9044,"breather":9045,"Ġstructure":9046,"Ġabrasion":9047,"Ġincontinence":9048,"Ġdox":9049,"Ġstating":9050,"structing":9051,"isthesis":9052,"note":9053,"Ġ217":9054,"Ġaccompan":9055,"Ġ'[**":9056,"eal":9057,"Ġapproximated":9058,"Ġflattening":9059,"Ġintraabdominal":9060,"Ġpick":9061,"hel":9062,"Ġanap":9063,"Ġneutropenic":9064,"did":9065,"Ġtons":9066,"Ġnafcillin":9067,"Ġspecimen":9068,"Ġorient":9069,"Ġlsc":9070,"-**]":9071,"appointment":9072,"Ġtact":9073,"Ġ210":9074,"verbal":9075,"Ġsqu":9076,"Ġincentive":9077,"icit":9078,"Ġsignific":9079,"Ġ171":9080,"cystic":9081,"Ġrepolarization":9082,"Ġsust":9083,"extubated":9084,"Ġrod":9085,"rontal":9086,"ued":9087,"Ġwasting":9088,"Ġambulate":9089,"Ġugib":9090,"Ġabcess":9091,"Ġ280":9092,"levof":9093,"Ġsteady":9094,"carotid":9095,"Ġchordae":9096,"icate":9097,"Ġcharacterized":9098,"ble":9099,"Ġcommunity":9100,"spells":9101,"Ġgets":9102,"rential":9103,"Ġradiographic":9104,"Ġdrips":9105,"Ġscrotum":9106,"unk":9107,"Ġhapp":9108,"Ġdevices":9109,"Ġtingling":9110,"Ġtarget":9111,"Ġepinephrine":9112,"Ġdecline":9113,"Ġboundaries":9114,"Ġsystemic":9115,"Ġarthro":9116,"Ġlikes":9117,"Ġdestr":9118,"Ġ380":9119,"Ġmarried":9120,"Ġgallstone":9121,"otherwise":9122,"Ġgestational":9123,"Ġtransported":9124,"Ġredistribution":9125,"bn":9126,"hus":9127,"wound":9128,"Ġvomited":9129,"Ġ0200":9130,"imin":9131,"Ġcrep":9132,"127":9133,"sig":9134,"zia":9135,"Ġhimself":9136,"Ġobt":9137,"Ġaid":9138,"oking":9139,"hemodynam":9140,"ontin":9141,"Ġlanguage":9142,"Ġstrid":9143,"raight":9144,"Ġmethyl":9145,"effective":9146,"Ġequally":9147,"expired":9148,"Ġseemed":9149,"acere":9150,"Ġothers":9151,"goals":9152,"Ġincidental":9153,"Ġfax":9154,"Ġconne":9155,"Ġ228":9156,"Ġhumid":9157,"Ġpairs":9158,"border":9159,"Ġsecre":9160,"Ġpus":9161,"Ġaerobic":9162,"Ġsund":9163,"Ġcla":9164,"Ġengorgement":9165,"Ġachieved":9166,"uating":9167,"Ġdrsg":9168,"eration":9169,"Ġterritory":9170,"Ġclavicle":9171,"ospor":9172,"Ġrods":9173,"Ġsplenectomy":9174,"oche":9175,"eb":9176,"Ġbrace":9177,"Ġwax":9178,"Ġdecompression":9179,"Ġskills":9180,"may":9181,"Ġinteratrial":9182,"vhd":9183,"isis":9184,"Ġserosanguinous":9185,"albuterol":9186,"Ġqt":9187,"ochezia":9188,"Ġseroquel":9189,"Ġ213":9190,"etine":9191,"Ġprepar":9192,"Ġsusceptibility":9193,"hx":9194,"Ġperhaps":9195,"Ġschiz":9196,"Ġsolids":9197,"Ġlost":9198,"throid":9199,"Ġamput":9200,"omic":9201,"Ġinterventional":9202,"Ġcavern":9203,"stead":9204,"650":9205,"french":9206,"Ġvasospasm":9207,"ype":9208,"mel":9209,"Ġhypercarbia":9210,"gra":9211,"Ġflexion":9212,"Ġaccur":9213,"pnic":9214,"treonam":9215,"apping":9216,"Ġ290":9217,"neo":9218,"campus":9219,"Ġordering":9220,"Ġweekly":9221,"acerebral":9222,"trauma":9223,"trimethoprim":9224,"Ġinterpreter":9225,"ouch":9226,"Ġhepato":9227,"Ġbriskly":9228,"chamber":9229,"Ġembolic":9230,"Ġhypoxemic":9231,"Ġtitrating":9232,"Ġformula":9233,"vanco":9234,"Ġnitrite":9235,"Ġawoke":9236,"cd":9237,"Ġ183":9238,"Ġfal":9239,"bur":9240,"imation":9241,"Ġ185":9242,"Ġdisplacement":9243,"Ġlear":9244,"Ġ430":9245,"ronically":9246,"Ġspaces":9247,"antac":9248,"144":9249,"transf":9250,"Ġhl":9251,"osec":9252,"Ġsources":9253,"Ġtalking":9254,"nip":9255,"isolette":9256,"Ġexaminations":9257,"Ġcroh":9258,"antibiotics":9259,"Ġempy":9260,"Ġactively":9261,"Ġinversions":9262,"Ġiph":9263,"ilosec":9264,"Ġalarm":9265,"2202":9266,"Ġpivs":9267,"Ġgar":9268,"Ġurobil":9269,"rbc":9270,"Ġadvancement":9271,"Ġ224":9272,"Ġtherap":9273,"Ġdominant":9274,"Ġrot":9275,"Ġdf":9276,"mcgs":9277,"treated":9278,"icine":9279,"Ġprolongation":9280,"Ġpneumocephalus":9281,"iazepam":9282,"Ġcapacity":9283,"Ġdecompensation":9284,"street":9285,"Ġregime":9286,"Ġcoronaries":9287,"sever":9288,"Ġvic":9289,"Ġpresumably":9290,"Ġresolve":9291,"Ġ226":9292,"Ġsignificance":9293,"Ġthorax":9294,"Ġunderstanding":9295,"Ġsuppos":9296,"gia":9297,"iazide":9298,"kda":9299,"Ġcec":9300,"Ġbig":9301,"Ġinflow":9302,"Ġacs":9303,"bradycardia":9304,"Ġhi":9305,"ieve":9306,"Ġ00":9307,"swallow":9308,"Ġlock":9309,"cavity":9310,"Ġpure":9311,"Ġstraight":9312,"Ġforeign":9313,"Ġineffective":9314,"restart":9315,"Ġventriculostomy":9316,"Ġanatomy":9317,"Ġexpos":9318,"Ġconsultation":9319,"Ġpear":9320,"Ġrevers":9321,"phritis":9322,"uloplasty":9323,"tachycardia":9324,"Ġvirus":9325,"agectomy":9326,"borderline":9327,"Ġdamp":9328,"agg":9329,"Ġnarcotic":9330,"encour":9331,"swaddled":9332,"Ġprevertebral":9333,"Ġ211":9334,"umentary":9335,"Ġshallow":9336,"hyperlipidemia":9337,"Ġorthoped":9338,"Ġparent":9339,"Ġdermatitis":9340,"Ġsma":9341,"Ġgaining":9342,"Ġappt":9343,"Ġ0100":9344,"Ġempt":9345,"eries":9346,"Ġlaterally":9347,"Ġconsideration":9348,"Ġureters":9349,"Ġlaminectomy":9350,"Ġwhy":9351,"Ġreinfor":9352,"kinson":9353,"Ġprojection":9354,"Ġresonant":9355,"Ġdinner":9356,"Ġreversed":9357,"Ġask":9358,"Ġseated":9359,"uddy":9360,"congest":9361,"Ġtoradol":9362,"Ġcts":9363,"anded":9364,"pna":9365,"been":9366,"Ġapproved":9367,"Ġ227":9368,"yr":9369,"uti":9370,"stones":9371,"Ġbreastfeeding":9372,"Ġquant":9373,"Ġstreak":9374,"Ġpneumonitis":9375,"creatic":9376,"Ġdeformities":9377,"Ġspironolactone":9378,"Ġopposed":9379,"hco":9380,"Ġimpair":9381,"Ġempyema":9382,"ostasis":9383,"Ġcpk":9384,"ulate":9385,".)(":9386,"Ġunasyn":9387,"Ġheels":9388,"Ġgarage":9389,"Ġpallor":9390,"updated":9391,"Ġneosyne":9392,"Ġ229":9393,"Ġdepend":9394,"supine":9395,"Ġwalls":9396,"Ġclim":9397,"ringe":9398,"drain":9399,"femoral":9400,"Ġcast":9401,"breast":9402,"Ġmt":9403,"rillation":9404,"Ġflora":9405,"Ġprobe":9406,"Ġlifts":9407,"then":9408,"Ġintox":9409,"approx":9410,"prol":9411,"Ġnothing":9412,"Ġgenerated":9413,"Ġtrials":9414,"Ġfinished":9415,"stop":9416,"Ġanus":9417,"area":9418,"epro":9419,"posterior":9420,"standing":9421,"Ġrefr":9422,")/":9423,"Ġlog":9424,"Ġdull":9425,"Ġperic":9426,"flutter":9427,"amous":9428,"Ġgcs":9429,"maintain":9430,"Ġdl":9431,"Ġexpect":9432,"Ġhom":9433,"Ġprelim":9434,"Ġjunctional":9435,"arietal":9436,"Ġflash":9437,"Ġlevoflox":9438,"Ġdts":9439,"Ġ179":9440,"Ġmetoclopramide":9441,"Ġmentioned":9442,"Ġferrous":9443,"Ġsequences":9444,"Ġextreme":9445,"Ġppm":9446,"allic":9447,"development":9448,"Ġtreating":9449,"Ġperit":9450,"Ġspan":9451,"onephritis":9452,"operitoneum":9453,"Ġblur":9454,"Ġ420":9455,"therapeutic":9456,"Ġgold":9457,"Ġttp":9458,"throughout":9459,"amed":9460,"Ġdrs":9461,"Ġwalk":9462,"Ġcirculation":9463,"concent":9464,"ectasis":9465,"entric":9466,"ails":9467,"Ġintern":9468,"Ġeuv":9469,"addition":9470,"inations":9471,"periph":9472,"ioma":9473,"imus":9474,"iceal":9475,"006":9476,"nsg":9477,"Ġkef":9478,"Ġ184":9479,"Ġblue":9480,"Ġauscultated":9481,"actory":9482,"Ġ193":9483,"Ġconfluent":9484,"Ġstiff":9485,"focus":9486,"matous":9487,"Ġoutflow":9488,"Ġloaded":9489,"Ġ270":9490,"Ġ223":9491,"Ġdiscrete":9492,"ocket":9493,"Ġenterococcus":9494,"ridium":9495,"svg":9496,"alignment":9497,"udate":9498,"Ġeffects":9499,"Ġsensory":9500,"Ġarg":9501,"ventil":9502,"Ġvariant":9503,"seizure":9504,"##":9505,"Ġingest":9506,"Ġsternum":9507,"Ġppd":9508,"mri":9509,"Ġhctz":9510,"transition":9511,"Ġrl":9512,"Ġ216":9513,"bien":9514,"fentanyl":9515,"Ġminimize":9516,"Ġutil":9517,"athoracic":9518,"vessel":9519,"Ġprojected":9520,"cvicu":9521,"Ġ;":9522,"Ġkay":9523,"Ġultimately":9524,"attenuation":9525,"Ġfingersticks":9526,"gav":9527,"requent":9528,"nsr":9529,"Ġpads":9530,"roban":9531,"Ġesophagectomy":9532,"ĠĠĠĠĠĠĠĠĠĠĠĠĠĠĠĠĠĠĠĠĠĠĠĠĠĠĠĠĠĠĠĠĠĠĠĠĠĠĠĠĠĠĠĠĠĠĠĠĠ":9533,"heresis":9534,"suck":9535,"occipital":9536,"Ġsymptomatic":9537,"Ġdentition":9538,"Ġmds":9539,"Ġoccassion":9540,"Ġketone":9541,"atelect":9542,"sterectomy":9543,"glish":9544,"Ġantegrade":9545,"factant":9546,"creatinine":9547,"ullary":9548,"ordered":9549,"teral":9550,"Ġfold":9551,"Ġcobedding":9552,"Ġreadmitted":9553,"acquired":9554,"halation":9555,"Ġredo":9556,"Ġdoesn":9557,"Ġrightward":9558,"cyt":9559,"Ġbipolar":9560,"Ġnim":9561,"Ġminimum":9562,"atherapeutic":9563,"Ġ222":9564,"Ġ850":9565,"Ġducts":9566,"aparin":9567,"Ġcrepitus":9568,"Ġta":9569,"Ġclopidogrel":9570,"Ġfragment":9571,"Ġcavernous":9572,"Ġhyperbili":9573,"Ġtam":9574,"pmi":9575,"Ġspecifically":9576,"uated":9577,"Ġhepatology":9578,"nausea":9579,"Ġorbital":9580,"Ġrigors":9581,"omatous":9582,"Ġsvr":9583,"infiltr":9584,"%),":9585,"itin":9586,"Ġstruck":9587,"Ġhsv":9588,"Ġrestrained":9589,"unchanged":9590,"Ġinferiorly":9591,"etir":9592,"oglobin":9593,"vular":9594,"Ġ]":9595,"pod":9596,"Ġseven":9597,"Ġcca":9598,"acetam":9599,"mn":9600,"slightly":9601,"yg":9602,"nically":9603,"Ġerect":9604,"ccs":9605,"Ġlaparotomy":9606,"Ġscreens":9607,"oin":9608,"Ġboy":9609,"Ġlargely":9610,"Ġadverse":9611,"Ġrp":9612,"Ġmetallic":9613,"Ġinstead":9614,"Ġsubstantial":9615,"Ġisolated":9616,"Ġnailbed":9617,"Ġbreathe":9618,"bra":9619,"ĠĠĠĠĠĠĠĠĠĠĠĠĠĠĠĠĠĠĠĠĠĠĠĠĠĠĠĠĠĠĠ":9620,"Ġdyslipidemia":9621,"Ġfundus":9622,"symptom":9623,"Ġdistally":9624,"Ġicteric":9625,"manent":9626,"Ġmaew":9627,"introducer":9628,"lymph":9629,"Ġcatheters":9630,"Ġdefib":9631,"Ġaxilla":9632,"sequent":9633,"micro":9634,"Ġpocket":9635,"Ġphysiology":9636,"Ġstridor":9637,"diffuse":9638,"orr":9639,"Ġmmv":9640,"terus":9641,"Ġdy":9642,"Ġedge":9643,"Ġhematomas":9644,"Ġnectar":9645,"does":9646,"acath":9647,"Ġimplant":9648,"Ġlima":9649,"Ġrim":9650,"Ġworks":9651,"ledge":9652,"Ġpacking":9653,"fed":9654,"Ġdynamic":9655,"Ġprerenal":9656,"gre":9657,"gauge":9658,"Ġhaloperidol":9659,"regional":9660,"Ġvocal":9661,"Ġphenobarb":9662,"Ġatc":9663,"Ġreoriented":9664,"Ġprecip":9665,"Ġshadowing":9666,"Ġmachine":9667,"Ġdiaphoresis":9668,"Ġ383":9669,"Ġcontinuously":9670,"Ġgastroesophageal":9671,"Ġvsd":9672,"erine":9673,"Ġ375":9674,"omediastinum":9675,"Ġclaim":9676,"Ġheadaches":9677,"cing":9678,"ilia":9679,"jejunostomy":9680,"ivers":9681,"echocardiographic":9682,"sized":9683,"Ġionic":9684,"hance":9685,"Ġsuppository":9686,"othiazide":9687,"lg":9688,"acidosis":9689,"Ġnursery":9690,"Ġtrunk":9691,"Ġesld":9692,"Ġris":9693,"Ġretic":9694,"usky":9695,"Ġacei":9696,"Ġrus":9697,"Ġorientation":9698,"two":9699,"Ġretained":9700,"Ġsupervising":9701,"ondyl":9702,"Ġplugging":9703,"intermittent":9704,"Ġgel":9705,"etiracetam":9706,"Ġcvs":9707,"sah":9708,"risome":9709,"results":9710,"Ġivh":9711,"Ġkangaroo":9712,"tylenol":9713,"oxycodone":9714,"Ġadenocarcinoma":9715,"Ġabrasions":9716,"uclear":9717,"Ġperihepatic":9718,"Ġtransfers":9719,"Ġpedi":9720,"Ġresuscitate":9721,"Ġunus":9722,"Ġdedicated":9723,"Ġmdis":9724,"wife":9725,"Ġanoxic":9726,"eprotein":9727,"Ġhaziness":9728,"enhanced":9729,"Ġprotr":9730,"aptomycin":9731,"pers":9732,"Ġcompressive":9733,"Ġprenatal":9734,"Ġrestricted":9735,"Ġctx":9736,"aning":9737,"Ġcontusions":9738,"Ġalkaline":9739,"atelectasis":9740,"Ġgray":9741,"ytopenia":9742,"Ġchemist":9743,"revised":9744,"structurally":9745,"nex":9746,"Ġgently":9747,"Ġconversation":9748,"levofloxacin":9749,"Ġconsidering":9750,"plans":9751,"Ġfluct":9752,"cardiovascular":9753,"Ġrespiration":9754,"Ġcontain":9755,"Ġcxs":9756,"Ġneosynephrine":9757,"Ġpit":9758,"lines":9759,"Ġdiazepam":9760,"Ġdefer":9761,"Ġsinusitis":9762,"collar":9763,"ways":9764,"Ġtoprol":9765,"Ġsweats":9766,"Ġsacrum":9767,"Ġhung":9768,"Ġaha":9769,"Ġmir":9770,"Ġexisting":9771,"Ġsuct":9772,"Ġvbg":9773,"Ġattached":9774,"keep":9775,"motion":9776,"Ġ440":9777,"Ġjejunum":9778,"ĠĠĠĠĠĠĠĠĠĠĠĠĠĠĠĠĠĠĠĠĠĠ":9779,"weaned":9780,"Ġomr":9781,"Ġecchymosis":9782,"atars":9783,"ograms":9784,"igm":9785,"Ġregulations":9786,"remov":9787,"prem":9788,"Ġicterus":9789,"Ġaneurysmal":9790,"Ġclr":9791,"Ġintegumentary":9792,"Ġimmunosup":9793,"Ġinversion":9794,"ival":9795,"Ġsbps":9796,"Ġcontext":9797,"Ġintervals":9798,"Ġintrathoracic":9799,"ils":9800,"Ġtactile":9801,"Ġshown":9802,"Ġ0900":9803,"ctic":9804,"Ġmotrin":9805,"Ġreturns":9806,"Ġ330":9807,"dactone":9808,"Ġcloser":9809,"sedation":9810,"240":9811,"emer":9812,"Ġeight":9813,"Ġtrends":9814,"Ġanticipate":9815,"Ġdosed":9816,"tol":9817,"rebreather":9818,"apamil":9819,"Ġvoids":9820,"oustic":9821,"eu":9822,"pass":9823,"Ġsupra":9824,"Ġanswers":9825,"Ġsqh":9826,"Ġgau":9827,"Ġlightly":9828,"suctioned":9829,"aids":9830,"Ġbair":9831,"Ġsys":9832,"Ġhemangi":9833,"infectious":9834,"Ġfinally":9835,"sputum":9836,"Ġraised":9837,"Ġwoke":9838,"Ġavm":9839,"Ġ620":9840,"800":9841,"epis":9842,"Ġaggressively":9843,"Ġplct":9844,"Ġnaps":9845,"dur":9846,"Ġdensities":9847,"duced":9848,"found":9849,"zol":9850,"cvr":9851,"Ġplastic":9852,"Ġosteoporosis":9853,"Ġfaster":9854,"subjective":9855,"Ġpneumococcal":9856,"Ġpediatrician":9857,"Ġcals":9858,"Ġgrayscale":9859,"far":9860,"andom":9861,"Ġpyl":9862,"symptoms":9863,"Ġpotentially":9864,"Ġhydrocortisone":9865,"Ġcitalopram":9866,"Ġsurfactant":9867,"Ġworrisome":9868,"Ġaztreonam":9869,"Ġprogram":9870,"Ġopened":9871,"Ġtachypnic":9872,"Ġsequel":9873,"Ġmood":9874,"trach":9875,"Ġmidaz":9876,"Ġoptions":9877,"Ġenglish":9878,"estimated":9879,"Ġaphasia":9880,"Ġsupported":9881,"Ġlet":9882,"Ġ435":9883,"Ġsunday":9884,"Ġhospitalized":9885,"Ġglide":9886,"Ġ182":9887,"Ġsuggestion":9888,"Ġprimarily":9889,"Ġpcv":9890,"Ġimportant":9891,"Ġpsychiatry":9892,"bsag":9893,"incter":9894,"irect":9895,"Ġscars":9896,"Ġzantac":9897,"Ġproduction":9898,"Ġurgency":9899,"Ġdepletion":9900,"Ġrefractory":9901,"Ġintravascular":9902,"Ġassessments":9903,"Ġfluoroscopy":9904,"peripheral":9905,"molol":9906,"Ġgvhd":9907,"Ġsuccess":9908,"Ġexploratory":9909,"Ġbka":9910,"Ġbw":9911,"loops":9912,"spe":9913,"Ġcore":9914,"Ġopacified":9915,"Ġnormalized":9916,"Ġpermanent":9917,"existing":9918,"jo":9919,"Ġprofound":9920,"hematoma":9921,"Ġkayex":9922,"Ġshaking":9923,"Ġalternating":9924,"agon":9925,"Ġsquamous":9926,"Ġcourses":9927,"alcoh":9928,"both":9929,"etector":9930,"ostridium":9931,"uoden":9932,"Ġhb":9933,"Ġclusters":9934,"iant":9935,"clusive":9936,"Ġsuicide":9937,"Ġcognition":9938,"Ġscr":9939,"mar":9940,"warm":9941,"unch":9942,"Ġ327":9943,"Ġhysterectomy":9944,"Ġmultidetector":9945,"Ġjet":9946,"Ġ2400":9947,"**]);":9948,"Ġweeping":9949,"Ġinfr":9950,"Ġparad":9951,"Ġmalalignment":9952,"Ġmeningioma":9953,"awa":9954,"cretions":9955,"spec":9956,"Ġrelate":9957,"Ġchecking":9958,"asma":9959,"Ġcoordination":9960,"light":9961,"Ġexposure":9962,"Ġtremor":9963,"adine":9964,"Ġfragments":9965,"crrt":9966,"Ġces":9967,"hydro":9968,"Ġparkinson":9969,"recommended":9970,"018":9971,"Ġdz":9972,"flo":9973,"Ġmalnutrition":9974,"Ġscleral":9975,"Ġgauze":9976,"correl":9977,"fully":9978,"ields":9979,"Ġheated":9980,"Ġrapidly":9981,"rolimus":9982,"wors":9983,"Ġinform":9984,"Ġhemip":9985,"trache":9986,"plasty":9987,"ivf":9988,"Ġgirl":9989,"amadol":9990,"concentrate":9991,"Ġvisualization":9992,"Ġsymmetrically":9993,"Ġcovering":9994,"Ġbreakfast":9995,"Ġsupratherapeutic":9996,"mcq":9997,"eny":9998,"Ġdiameters":9999,"Ġangiographic":10000,"het":10001,"morphic":10002,"pop":10003,"ortical":10004,"Ġ255":10005,"Ġeros":10006,"146":10007,"Ġreactions":10008,"Ġuac":10009,"omies":10010,"Ġpneumatosis":10011,"Ġgases":10012,"Ġinferoseptal":10013,"laboratory":10014,"Ġknowledge":10015,"Ġfeatures":10016,"Ġcounts":10017,"comparison":10018,"Ġbump":10019,"Ġraise":10020,"Ġ195":10021,"Ġentirely":10022,"Ġeast":10023,"Ġcomplains":10024,"Ġcld":10025,"Ġtwit":10026,"Ġ??":10027,"Ġlies":10028,"Ġopi":10029,"aspirates":10030,"ori":10031,"Ġdaptomycin":10032,"Ġlaa":10033,"lucinations":10034,"pda":10035,"heim":10036,"Ġartic":10037,"Ġfactor":10038,"Ġanticoagulated":10039,"urom":10040,"Ġsn":10041,"Ġhole":10042,"Ġtia":10043,"Ġpush":10044,"eps":10045,"Ġneurontin":10046,"filled":10047,"Ġfo":10048,"Ġosteoarthritis":10049,"abnormality":10050,"Ġunderestimated":10051,"avasc":10052,"Ġnarcan":10053,"formation":10054,"Ġvisitor":10055,"Ġsynthroid":10056,"olectomy":10057,"famil":10058,"Ġjavasc":10059,"Ġscrotal":10060,"Ġjavascript":10061,"Ġsurgeries":10062,"Ġdul":10063,"Ġprocesses":10064,"Ġenema":10065,"Ġbarb":10066,"Ġiddm":10067,"atroban":10068,"Ġdressed":10069,"ana":10070,"Ġ197":10071,"Ġadvair":10072,"Ġthy":10073,"Ġsubcortical":10074,"Ġtoxin":10075,"prescribed":10076,"zheim":10077,"arrant":10078,"Ġperm":10079,"Ġtbili":10080,"Ġwigg":10081,"Ġglute":10082,"Ġ189":10083,"Ġspondyl":10084,"Ġesmolol":10085,"Ġnearly":10086,"copal":10087,"Ġbub":10088,"irs":10089,"Ġalarms":10090,"Ġpositions":10091,"Ġtag":10092,"valvular":10093,"Ġnsurg":10094,"Ġhcc":10095,"Ġcleansed":10096,"Ġdusky":10097,"Ġspecial":10098,"Ġkin":10099,"ivered":10100,"Ġtravel":10101,"Ġimpact":10102,"155":10103,"serve":10104,"Ġanalges":10105,"Ġeuvolemic":10106,"Ġtobr":10107,"Ġprone":10108,"Ġbedrest":10109,"Ġ199":10110,"responsiveness":10111,"Ġ470":10112,"Ġ196":10113,"coli":10114,"Ġcrohn":10115,"Ġrifaximin":10116,"Ġstatins":10117,"Ġcalling":10118,"Ġabdomin":10119,"weak":10120,"developmental":10121,"ilestones":10122,"Ġeager":10123,"Ġfriends":10124,"Ġsymmetrical":10125,"Ġnights":10126,"Ġadl":10127,"Ġambien":10128,"kground":10129,"Ġkyphosis":10130,"Ġlisten":10131,"Ġsubjective":10132,"Ġju":10133,"Ġpericardium":10134,"Ġinadequate":10135,"Ġsyringe":10136,"ĠĠĠĠĠĠĠĠĠĠĠĠĠĠĠĠĠĠĠĠĠĠĠĠĠĠĠĠĠĠĠĠĠĠĠĠĠĠ":10137,"Ġregurg":10138,"ophrenia":10139,"Ġcompare":10140,"Ġneonatology":10141,"ida":10142,"afungin":10143,"Ġmottled":10144,"Ġabscesses":10145,"chlorothiazide":10146,"cur":10147,"Ġdraws":10148,"@@":10149,"Ġnacl":10150,"Ġpearl":10151,"Ġeasy":10152,"rog":10153,"Ġpneumomediastinum":10154,"Ġremarkable":10155,"Ġsupplementation":10156,"encies":10157,"central":10158,"phric":10159,"Ġatrophic":10160,"Ġcortisol":10161,"melena":10162,"Ġchronically":10163,"Ġcytology":10164,"Ġanaphylaxis":10165,"oraces":10166,"colon":10167,"Ġhepatorenal":10168,"Ġperfor":10169,"1500":10170,"Ġlearning":10171,"Ġtape":10172,"ĠĠĠĠĠĠĠĠĠĠĠĠĠĠĠĠĠĠĠĠĠĠĠĠĠĠĠĠĠĠ":10173,"Ġdescrib":10174,"Ġ187":10175,"Ġfm":10176,"init":10177,"Ġadhe":10178,"failure":10179,"Ġassisted":10180,"Ġwriting":10181,"Ġblastic":10182,"Ġadnex":10183,"Ġvasogenic":10184,"entilation":10185,"Ġenhance":10186,"calcium":10187,"Ġprogressively":10188,"kilo":10189,"Ġhilum":10190,"tan":10191,"Ġscore":10192,"Ġ208":10193,"Ġknees":10194,"Ġhydrox":10195,"tured":10196,"Ġokay":10197,"Ġtill":10198,"Ġpfo":10199,"alate":10200,"Ġnumbers":10201,"Ġcortex":10202,"%-":10203,"Ġ+.":10204,"Ġgrimaces":10205,"overall":10206,"Ġundetermined":10207,"covered":10208,"Ġeccentric":10209,"Ġintracerebral":10210,"Ġweakly":10211,"seal":10212,"coid":10213,"Ġsplit":10214,"Ġinfrarenal":10215,"Ġaicd":10216,"Ġrever":10217,"Ġbasis":10218,"Ġexcoriated":10219,"Ġincontinent":10220,"Ġceftazidime":10221,"ik":10222,"Ġperitonitis":10223,"Ġcry":10224,"discharged":10225,"rad":10226,"Ġthrush":10227,"Ġhiss":10228,"pcwp":10229,"Ġhumeral":10230,"Ġdye":10231,"Ġoliguric":10232,"Ġ186":10233,"type":10234,"Ġsons":10235,"Ġpneumoth":10236,"Ġ206":10237,"totbili":10238,"ements":10239,"sdh":10240,"Ġocclusive":10241,"discontinued":10242,"Ġtrazodone":10243,"color":10244,"revealed":10245,"discussed":10246,"Ġosteopenia":10247,"Ġmaneu":10248,"Ġstrain":10249,"secretions":10250,"Ġtested":10251,"Ġhypothermic":10252,"Ġamputation":10253,"Ġwidened":10254,"itude":10255,"Ġcritic":10256,"Ġtrue":10257,"olisthesis":10258,"Ġcaff":10259,"liters":10260,"remove":10261,"ield":10262,"cereb":10263,"Ġtobramycin":10264,"Ġsubmitted":10265,"Ġexplan":10266,"ries":10267,"buride":10268,"plavix":10269,"lexa":10270,"taking":10271,"density":10272,"Ġintraluminal":10273,"diarrhea":10274,"Ġcoordinated":10275,"Ġpunctate":10276,"Ġooze":10277,"enced":10278,"fellow":10279,"Ġ460":10280,"path":10281,"Ġhot":10282,"lyburide":10283,"Ġpancytopenia":10284,"Ġ194":10285,"tco":10286,"held":10287,"grow":10288,"Ġarouses":10289,"Ġnonproductive":10290,"Ġintraoperative":10291,"Ġsplint":10292,"Ġnative":10293,"Ġestabl":10294,"leads":10295,"Ġpenet":10296,"Ġsuccinate":10297,"Ġparental":10298,"Ġerythematous":10299,"desats":10300,"apical":10301,"Ġdiamox":10302,"Ġsuicidal":10303,"Ġnerves":10304,"Ġpapillary":10305,"Ġlws":10306,"omnia":10307,"Ġsess":10308,"delir":10309,"loyed":10310,"Ġnephrot":10311,"bedtime":10312,"Ġdecompensated":10313,"Ġirregularity":10314,"Ġdrow":10315,"ypt":10316,"hospitalization":10317,"Ġlevetiracetam":10318,"contact":10319,"oxygen":10320,"involved":10321,"Ġmrcp":10322,"Ġneurom":10323,"Ġprefix":10324,"Ġ303":10325,"Ġreached":10326,"Ġradiating":10327,"Ġaccompanied":10328,"inhalation":10329,"Ġcorneal":10330,"Ġ198":10331,"Ġ370":10332,"Ġanticipated":10333,"obil":10334,"Ġureteral":10335,"green":10336,"Ġmetatars":10337,"extubation":10338,"Ġpud":10339,"icient":10340,"Ġmagnesia":10341,"Ġalways":10342,"Ġverapamil":10343,"Ġappendectomy":10344,"Ġvest":10345,"calcification":10346,"interval":10347,"Ġmetal":10348,"leak":10349,"Ġcabgx":10350,"Ġundergoing":10351,"zod":10352,"Ġcrying":10353,"Ġ0300":10354,"spo":10355,"lococ":10356,"Ġ205":10357,"Ġtragus":10358,"Ġmemory":10359,"Ġvoltages":10360,"Ġ580":10361,"ption":10362,"Ġemergently":10363,"Ġhypovolemic":10364,"cool":10365,"Ġdental":10366,"Ġbehavior":10367,"actic":10368,"Ġadrenals":10369,"aise":10370,"odin":10371,"edipine":10372,"Ġwarrant":10373,"metabolic":10374,"lue":10375,"aa":10376,"Ġbreakthrough":10377,"Ġherself":10378,"aspo":10379,"Ġdirectly":10380,"Ġtranscription":10381,"Ġsecreations":10382,"omyst":10383,"Ġacting":10384,"Ġparat":10385,"amide":10386,"Ġcomment":10387,"][**":10388,"dec":10389,"ycl":10390,"Ġsaturday":10391,"Ġramus":10392,"Ġbaso":10393,"Ġimmune":10394,"Ġdefinit":10395,"Ġpharmacy":10396,"Ġecchymotic":10397,"ero":10398,"ichole":10399,"previously":10400,"foc":10401,"falcine":10402,"artum":10403,"Ġsang":10404,"upon":10405,"Ġcraniectomy":10406,"wheez":10407,"mouth":10408,"Ġ219":10409,"Ġsphincter":10410,"Ġbeneprotein":10411,"anal":10412,"Ġexcision":10413,"Ġthecal":10414,"Ġ192":10415,"Ġacoustic":10416,"Ġperipherals":10417,"Ġ289":10418,"Ġampi":10419,"jaund":10420,"Ġobserve":10421,"Ġlysis":10422,"correlation":10423,"sth":10424,"iphasic":10425,"syn":10426,"148":10427,"outpatient":10428,"Ġstraw":10429,"fract":10430,"Ġ408":10431,"Ġglucagon":10432,"performed":10433,"Ġfung":10434,"thanol":10435,"endocrine":10436,"Ġ322":10437,"inflamm":10438,"Ġputting":10439,"levo":10440,"vacid":10441,"icholecystic":10442,"Ġnkda":10443,"adv":10444,"Ġclostridium":10445,"Ġjaw":10446,"Ġsupporting":10447,"Ġthank":10448,"iliac":10449,"Ġarousal":10450,"postoperative":10451,"nipaque":10452,"bx":10453,"fibrillation":10454,"Ġdam":10455,"lingual":10456,"Ġasses":10457,"still":10458,"Ġinitiate":10459,"ocin":10460,"Ġradline":10461,"Ġapneic":10462,",%":10463,"izide":10464,"Ġconvexity":10465,"rene":10466,"ĠĠĠĠĠĠĠĠĠĠĠĠĠĠĠĠĠĠĠĠĠĠĠĠĠĠĠĠĠ":10467,"Ġomnipaque":10468,"Ġpleuritic":10469,"Ġdelivered":10470,"Ġ191":10471,"Ġrheumat":10472,"Ġ345":10473,"Ġpyloric":10474,"Ġalzheim":10475,"Ġthrombectomy":10476,"Ġmep":10477,"Ġreintubation":10478,"depressed":10479,"orbide":10480,"oneal":10481,"Ġreassurance":10482,"long":10483,"ooth":10484,"Ġcco":10485,"Ġreal":10486,"Ġcontrib":10487,"Ġdt":10488,"sthoracic":10489,"Ġcalculated":10490,"Ġlaryngeal":10491,"Ġmineral":10492,"ibular":10493,"Ġslowed":10494,"Ġimmature":10495,"dyspnea":10496,"**]+":10497,"/,":10498,"Ġlc":10499,"oxetine":10500,"ley":10501,"plied":10502,"ocentesis":10503,"odg":10504,"(-":10505,"Ġrlq":10506,"ushed":10507,"Ġhumidified":10508,"Ġhallucinations":10509,"olytic":10510,"Ġpreprocedure":10511,"elonephritis":10512,"Ġprosthetic":10513,"Ġperinephric":10514,"Ġanaer":10515,"Ġdirection":10516,"147":10517,"popup":10518,"=_":10519,"Ġlup":10520,"webt":10521,"Ġ=.":10522,"Ġcongenital":10523,"Ġactivities":10524,"webtag":10525,"Ġ253":10526,"Ġpmi":10527,"Ġredem":10528,"Ġmyc":10529,"diminished":10530,"tobacco":10531,"Ġscap":10532,"Ġindicative":10533,"Ġplugs":10534,"map":10535,"Ġcholangiogram":10536,"1000":10537,"setting":10538,"lopressor":10539,"osity":10540,"isolone":10541,"Ġlesser":10542,"inde":10543,"Ġintroducer":10544,"ological":10545,"Ġgastrostomy":10546,"Ġtet":10547,"Ġfacil":10548,"Ġapply":10549,"Ġptca":10550,"odgkin":10551,"Ġlimbs":10552,"etry":10553,"Ġendplate":10554,"Ġsupply":10555,"Ġsiblings":10556,"Ġargatroban":10557,"response":10558,"Ġmalformation":10559,"Ġrrt":10560,"Ġanything":10561,"best":10562,"eled":10563,"tinged":10564,"Ġhypokinetic":10565,"Ġslowing":10566,"aucoma":10567,"arbled":10568,"valent":10569,"Ġ235":10570,"net":10571,"Ġdisoriented":10572,"Ġgolden":10573,"reple":10574,"Ġdfd":10575,"Ġinspiration":10576,"Ġgoes":10577,"Ġdesaturations":10578,"Ġallo":10579,"Ġsput":10580,"Ġslurred":10581,"Ġrepleated":10582,"bact":10583,"urium":10584,"Ġ520":10585,"distal":10586,")(":10587,"rombi":10588,"Ġradiologists":10589,"Ġperforated":10590,"**]-[**":10591,"Ġrechecked":10592,"Ġspread":10593,"ucing":10594,"Ġvisitors":10595,"uli":10596,"Ġsubcent":10597,"overed":10598,"requiring":10599,"immune":10600,"./":10601,"ulsion":10602,"Ġexperiencing":10603,"Ġblisters":10604,"Ġoverlies":10605,"ceftriaxone":10606,"medication":10607,"Ġrole":10608,"Ġethanol":10609,"ventional":10610,"Ġaldactone":10611,"Ġsubcentimeter":10612,"Ġerr":10613,"Ġmls":10614,"gif":10615,"Ġoptimize":10616,"osorbide":10617,"itary":10618,"uscular":10619,"Ġbab":10620,"Ġ275":10621,"Ġmicafungin":10622,"Ġrml":10623,"Ġdissol":10624,"expl":10625,"Ġnare":10626,"Ġreversal":10627,"Ġparatracheal":10628,"Ġpericholecystic":10629,"Ġhemostasis":10630,"Ġcompazine":10631,"obes":10632,"chrom":10633,"ificial":10634,"treatment":10635,"Ġ301":10636,"Ġfav":10637,"Ġaloe":10638,"Ġquadrants":10639,"occlusive":10640,"175":10641,"Ġschizophrenia":10642,"orrow":10643,"Ġcholesterol":10644,"nisolone":10645,"Ġdimin":10646,"ischemic":10647,"Ġintubate":10648,"induced":10649,"Ġnorvasc":10650,"Ġsubfalcine":10651,"165":10652,"roparesis":10653,"Ġraises":10654,"Ġzol":10655,"+/":10656,"Ġdifficulties":10657,"Ġplaqu":10658,"Ġeosin":10659,"Ġdelirious":10660,"Ġdownward":10661,"Ġincr":10662,"Ġlotion":10663,"boots":10664,"remic":10665,"Ġcisat":10666,"Ġdistance":10667,"aft":10668,"Ġendor":10669,"Ġlunch":10670,"Ġstimulated":10671,"ambul":10672,"ventilator":10673,"Ġrecovered":10674,"caffeine":10675,"oxazole":10676,"Ġclotted":10677,"Ġlis":10678,"Ġnephropathy":10679,"hesive":10680,"ipple":10681,"Ġdysarth":10682,"Ġlingula":10683,"alcohol":10684,"cardiology":10685,"Ġmethylpred":10686,"Ġgrafting":10687,"Ġenox":10688,"cranial":10689,"Ġrhin":10690,"odiures":10691,"Ġruptured":10692,"Ġves":10693,"assoc":10694,"april":10695,"Ġpolyvalent":10696,"Ġpcn":10697,"Ġsal":10698,"ocor":10699,"Ġota":10700,"cultures":10701,"focused":10702,"Ġpmns":10703,"Ġbackground":10704,"Ġnit":10705,"Ġstayed":10706,"Ġcontacts":10707,"opaque":10708,"repl":10709,"Ġfontanels":10710,"suggested":10711,"Ġdstick":10712,"Ġnec":10713,"sent":10714,"transient":10715,"Ġdrifting":10716,"Ġ212":10717,"Ġate":10718,"Ġvariceal":10719,"Ġafeb":10720,"Ġtechnically":10721,"examination":10722,"Ġarouse":10723,"Ġ203":10724,".;":10725,"Ġ265":10726,"ton":10727,"Ġhous":10728,">>":10729,"qs":10730,"149":10731,"facial":10732,"Ġquad":10733,"hemodynamically":10734,"subsequent":10735,"Ġattend":10736,"Ġtramadol":10737,"penicillin":10738,"Ġfind":10739,"280":10740,"Ġconjunctival":10741,"Ġbridge":10742,"raf":10743,"otine":10744,"Ġaflutter":10745,"Ġtriggered":10746,"----------------":10747,"basos":10748,"trop":10749,"Ġclass":10750,"Ġinital":10751,"ischemia":10752,"Ġenoxaparin":10753,"amethoxazole":10754,"Ġupset":10755,"iva":10756,"Ġmaintains":10757,"tx":10758,"Ġbottom":10759,"Ġmorphology":10760,"hematocrit":10761,"conium":10762,"duoden":10763,"eos":10764,"titr":10765,"Ġgarbled":10766,"ants":10767,"Ġoil":10768,"Ġparap":10769,"151":10770,"iter":10771,"elchair":10772,"cannot":10773,"ems":10774,"irmed":10775,"Ġhighly":10776,"Ġrestlessness":10777,"colax":10778,"Ġperla":10779,"Ġrestrictive":10780,"Ġincomplete":10781,"zapine":10782,"Ġrecall":10783,"Ġmodest":10784,"Ġword":10785,"Ġhyperintensity":10786,"sulfonamides":10787,"Ġeosinoph":10788,"Ġstooled":10789,"Ġconcentrated":10790,"Ġneob":10791,"subcutaneous":10792,"Ġronchi":10793,"Ġcircumferential":10794,"Ġexcessive":10795,"oacidosis":10796,"Ġpower":10797,"fluids":10798,"Ġwear":10799,"aser":10800,"itable":10801,"minutes":10802,"Ġpneumothoraces":10803,"replct":10804,"Ġintolerant":10805,"Ġophthalmic":10806,"Ġweigh":10807,"va":10808,"Ġdestruction":10809,"ember":10810,"mra":10811,"Ġ276":10812,"stance":10813,"ocular":10814,"drug":10815,"temps":10816,"Ġuns":10817,"Ġhepatop":10818,"therapy":10819,"Ġfibers":10820,"Ġthanks":10821,"Ġunusual":10822,"data":10823,"Ġplant":10824,"Ġbronchiectasis":10825,"Ġvertex":10826,"erence":10827,"Ġprecedex":10828,"zodz":10829,"Ġsarcoid":10830,"mark":10831,"Ġpouch":10832,"brain":10833,"Ġaaox":10834,"Ġdopp":10835,"kcl":10836,"Ġhemorrhages":10837,"-------------":10838,"wf":10839,"chills":10840,"Ġreflects":10841,"cycline":10842,"Ġrevealing":10843,"Ġaop":10844,"Ġcircle":10845,"Ġintrapartum":10846,"tho":10847,"Ġ326":10848,"aryng":10849,"Ġmobil":10850,"Ġblurry":10851,"cretion":10852,"phas":10853,"Ġdullness":10854,"agnes":10855,"culture":10856,"Ġblunt":10857,"pap":10858,"Ġmill":10859,"return":10860,"avision":10861,"diaphragm":10862,"Ġcompletion":10863,"Ġllq":10864,"Ġ540":10865,"Ġunre":10866,"idectomy":10867,"Ġinsomnia":10868,"Ġ560":10869,"Ġreturning":10870,"Ġmucomyst":10871,"Ġpreparation":10872,"Ġvarious":10873,"Ġtransthoracic":10874,"Ġdampened":10875,"Ġdamage":10876,"Ġgrasp":10877,"Ġinfused":10878,"Ġmedium":10879,"Ġbank":10880,"ilex":10881,"Ġserologies":10882,"Ġhn":10883,"bilious":10884,"quin":10885,"Ġautodiures":10886,"Ġmalaise":10887,"oster":10888,"ystolic":10889,"Ġrsv":10890,"Ġpacks":10891,"acral":10892,"Ġallowed":10893,"aphylococ":10894,"aspinal":10895,"Ġ344":10896,"Ġbenzos":10897,"Ġdivided":10898,"Ġenfamil":10899,"Ġadding":10900,"Ġhype":10901,"Ġperiodic":10902,"moderately":10903,"Ġmicrovascular":10904,"terol":10905,"Ġconnected":10906,"Ġsmooth":10907,"Ġcleaned":10908,"ius":10909,"Ġ239":10910,"Ġ390":10911,"gerd":10912,"Ġparalysis":10913,"Ġoperation":10914,"lead":10915,"hb":10916,"arch":10917,"Ġcaut":10918,"worsening":10919,"Ġthereafter":10920,"Ġelse":10921,"Ġ530":10922,"Ġunresponsiveness":10923,"Ġambulance":10924,"Ġcerebro":10925,"Ġnabs":10926,"recommend":10927,"Ġcerebell":10928,"Ġcecum":10929,"haldol":10930,"colace":10931,"Ġsupplements":10932,"Ġ285":10933,"Ġartificial":10934,"Ġestimation":10935,"+-":10936,"Ġdepending":10937,"Ġacetate":10938,"azone":10939,"Ġhypok":10940,"Ġspon":10941,"Ġendurance":10942,"should":10943,"Ġtracheobronchomalacia":10944,"Ġincl":10945,"Ġpreceding":10946,"Ġamox":10947,"mvr":10948,"onectomy":10949,"Ġscene":10950,"Ġhyperdensity":10951,"Ġhfov":10952,"tamponade":10953,"Ġonto":10954,"Ġjuice":10955,"Ġescal":10956,"emed":10957,"strument":10958,"Ġvariable":10959,"Ġpriors":10960,"three":10961,"desc":10962,"Ġlooked":10963,"Ġhepatopetal":10964,"Ġsticks":10965,"2203":10966,"Ġaugment":10967,"Ġdecompressed":10968,"Ġsirs":10969,"Ġhemiparesis":10970,"Ġplane":10971,"otrop":10972,"Ġnonfocal":10973,"positioned":10974,"Ġsitu":10975,"Ġarising":10976,"sib":10977,"Ġmgmt":10978,"Ġ249":10979,"***":10980,"Ġpulmon":10981,"Ġbathroom":10982,"tions":10983,"Ġloos":10984,"Ġketoacidosis":10985,"Ġweighted":10986,"Ġranged":10987,"Ġsense":10988,"Ġligation":10989,"Ġosteophyte":10990,"Ġmen":10991,"brisk":10992,"tape":10993,"Ġcoils":10994,"Ġloves":10995,"catheterization":10996,"Ġmetavision":10997,"rolithiasis":10998,"Ġlupus":10999,"Ġinbetween":11000,"Ġsmoked":11001,"intravenous":11002,"Ġwithdrawl":11003,"Ġexceed":11004,"clos":11005,"coarse":11006,"Ġpaf":11007,"Ġcig":11008,"approximately":11009,"ipratropium":11010,"Ġpacket":11011,"Ġtld":11012,"umb":11013,"Ġcelexa":11014,"Ġexpired":11015,"porcine":11016,"Ġadhesions":11017,"Ġmp":11018,"Ġdng":11019,"nonspecific":11020,"Ġacidotic":11021,"mil":11022,"Ġfibroid":11023,"Ġcombative":11024,"Ġecchymoses":11025,"Ġlcs":11026,"levant":11027,"concerns":11028,"Ġteach":11029,"Ġnscl":11030,"Ġlenis":11031,"Ġlots":11032,"Ġqpm":11033,"Ġ911":11034,"320":11035,"Ġknows":11036,"Ġfrothy":11037,"wave":11038,"Ġvasculitis":11039,"anguinous":11040,"who":11041,"Ġthighs":11042,"eling":11043,"genic":11044,"Ġlimitations":11045,"sang":11046,"Ġnebulizer":11047,"indicate":11048,"morphine":11049,"yes":11050,"Ġeca":11051,"Ġformal":11052,"Ġradiopaque":11053,"ieving":11054,"Ġhelical":11055,"rectal":11056,"Ġglyc":11057,"Ġthrombi":11058,"=,":11059,"-----------":11060,"Ġdefined":11061,"tib":11062,"Ġpaged":11063,"roll":11064,"lfriend":11065,"enuating":11066,"rapid":11067,"Ġfibersource":11068,"Ġcontents":11069,"152":11070,"Ġmaes":11071,"associated":11072,"antic":11073,"oplastic":11074,"cbc":11075,"Ġ720":11076,"Ġextrahepatic":11077,"great":11078,"Ġsyncopal":11079,"Ġbarbitr":11080,"required":11081,"Ġccy":11082,"Ġ1230":11083,"Ġ244":11084,"//,":11085,"Ġpercentile":11086,"nds":11087,"ulum":11088,"emet":11089,"Ġallergic":11090,"Ġobtaining":11091,"Ġreverse":11092,"crit":11093,"Ġ245":11094,"Ġcoun":11095,"Ġobstructing":11096,"Ġcollecting":11097,"drainage":11098,"----------":11099,"above":11100,"Ġ337":11101,"ifen":11102,"Ġagrees":11103,"Ġ490":11104,"transplant":11105,"Ġprilosec":11106,"Ġlive":11107,"attress":11108,"!!":11109,"Ġfld":11110,"Ġost":11111,"Ġgrandmother":11112,"Ġasdir":11113,"Ġsupervised":11114,"ceased":11115,"amina":11116,"sched":11117,"Ġoint":11118,"Ġtremens":11119,"Ġpepcid":11120,"Ġreact":11121,"Ġitching":11122,"increasing":11123,"thoracic":11124,"153":11125,"Ġweaker":11126,"motor":11127,"awaiting":11128,"Ġ335":11129,"soas":11130,"ascending":11131,"Ġoncologist":11132,"........":11133,"sing":11134,"Ġtrophic":11135,"Ġmepilex":11136,"Ġadhesive":11137,"Ġworsens":11138,"progress":11139,"Ġfoul":11140,"Ġtightness":11141,"Ġparaspinal":11142,"Ġchemistry":11143,"Ġdoub":11144,"Ġgastroparesis":11145,"mo":11146,"Ġvaric":11147,"Ġ410":11148,"Ġintravenously":11149,"rill":11150,"Ġmacro":11151,"Ġnebulizers":11152,"Ġextend":11153,"Ġnormoactive":11154,"ancreatic":11155,"Ġhemangioma":11156,"Ġquietly":11157,"Ġ+/-":11158,"Ġconversion":11159,"Ġ310":11160,"amping":11161,"Ġsutured":11162,"meropenem":11163,"Ġdural":11164,"Ġ257":11165,"Ġvesta":11166,"Ġgaze":11167,"Ġparadox":11168,"Ġglyburide":11169,"Ġsedate":11170,"accum":11171,"Ġnadolol":11172,"would":11173,"olum":11174,"imming":11175,"coordinated":11176,"Ġthose":11177,"Ġcdb":11178,"orrhea":11179,"Ġsparse":11180,"Ġechogenicity":11181,"flatus":11182,"Ġkinair":11183,"revealing":11184,"Ġingestion":11185,"cher":11186,"Ġ1730":11187,"Ġcomplexes":11188,"Ġbaths":11189,"dependent":11190,"inder":11191,"Ġdissolve":11192,"Ġepo":11193,"illectomy":11194,"Ġlacun":11195,"Ġirreg":11196,"bottle":11197,"Ġmort":11198,"Ġmci":11199,"Ġ324":11200,"ngt":11201,"Ġseparate":11202,"Ġlmca":11203,"Ġdoxy":11204,"Ġtitration":11205,"Ġimpl":11206,"Ġarrange":11207,"Ġmilestones":11208,"Ġdeline":11209,"csru":11210,"Ġadministering":11211,"260":11212,"Ġantec":11213,"encourage":11214,"wal":11215,"Ġaddl":11216,"Ġtubing":11217,"Ġlights":11218,"Ġ202":11219,"Ġmini":11220,"brown":11221,"Ġ328":11222,"Ġ508":11223,"Ġaox":11224,"Ġivdu":11225,"Ġcea":11226,"Ġphoto":11227,"Ġappendix":11228,"Ġsuprap":11229,"sgot":11230,"Ġinterested":11231,"Ġenteric":11232,"Ġwalker":11233,"Ġ246":11234,"Ġpostoperatively":11235,"bactam":11236,"Ġpneumonectomy":11237,"Ġgrimace":11238,"coordination":11239,"Ġdu":11240,"Ġnondisplaced":11241,"Ġnimodipine":11242,"Ġparenteral":11243,"Ġnifedipine":11244,"sgpt":11245,"ifth":11246,"prednisone":11247,"Ġwait":11248,"Ġpaper":11249,"Ġ346":11250,"Ġefforts":11251,"Ġhemi":11252,"underwent":11253,"Ġesophagitis":11254,"Ġcorrection":11255,"allen":11256,"Ġvertebra":11257,"Ġtherapist":11258,"rometer":11259,"Ġexhib":11260,"meterol":11261,"Ġwhipple":11262,"Ġposturing":11263,"meth":11264,"Ġimdur":11265,"descending":11266,"Ġbronched":11267,"septal":11268,"asking":11269,"Ġreceives":11270,"154":11271,"Ġ1630":11272,"steady":11273,"stim":11274,"Ġactually":11275,"Ġexplanation":11276,"otext":11277,"ault":11278,"scr":11279,"Ġnotably":11280,"Ġsedating":11281,"presented":11282,"flight":11283,"Ġosteophytes":11284,"Ġcrushed":11285,"Ġcertain":11286,"Ġmeconium":11287,"ophy":11288,"Ġinsurance":11289,"Ġdistur":11290,"Ġsupervision":11291,"Ġhist":11292,"Ġcooper":11293,"constipation":11294,"Ġ640":11295,"Ġ201":11296,"Ġnat":11297,"grams":11298,"nitro":11299,"Ġglidewire":11300,"otexture":11301,"Ġstir":11302,"Ġindx":11303,"Ġrelaxation":11304,"Ġcrisis":11305,"ocom":11306,"Ġgluteal":11307,"div":11308,"yloid":11309,"Ġplay":11310,"Ġaddressed":11311,"Ġmainly":11312,"Ġamplitude":11313,"Ġmattress":11314,"Ġendovascular":11315,"cence":11316,"Ġinh":11317,"Ġreflecting":11318,"infiltrate":11319,"rec":11320,"sulfonamide":11321,"bone":11322,"sen":11323,"Ġcaspo":11324,"lection":11325,"rash":11326,"sulbactam":11327,"Ġruddy":11328,"Ġ299":11329,"cerebral":11330,"Ġhopef":11331,"Ġresultant":11332,"Ġdmii":11333,"Ġinstrument":11334,"Ġmeans":11335,"Ġintrinsic":11336,"ogenous":11337,"dysfunction":11338,"opharynx":11339,"confirmed":11340,"effect":11341,"Ġadenoma":11342,"consulted":11343,"Ġolan":11344,"%;":11345,"obstruction":11346,"called":11347,"vegetation":11348,"floor":11349,"Ġextens":11350,"Ġexact":11351,"developed":11352,"idone":11353,"Ġreporting":11354,"Ġ478":11355,"titrate":11356,"Ġorbits":11357,"Ġsteri":11358,"diuresis":11359,"Ġ%).":11360,"Ġbiting":11361,"Ġmanager":11362,"Ġfick":11363,"Ġoliguria":11364,"Ġencephalomalacia":11365,"Ġbulge":11366,"Ġama":11367,"Ġresulted":11368,"Ġnodal":11369,"Ġbmi":11370,"Ġulnar":11371,"Ġbup":11372,"Ġactiv":11373,"complications":11374,"eved":11375,"Ġextraction":11376,"Ġfena":11377,"ventric":11378,"cardiogram":11379,"Ġposter":11380,"olumbar":11381,"Ġcg":11382,"Ġnephrology":11383,"640":11384,"Ġhyperv":11385,"Ġanatomic":11386,"educate":11387,"Ġreasons":11388,"Ġintervertebral":11389,"diaphragmatic":11390,"Ġfifth":11391,"Ġechotexture":11392,"Ġhydrochlorothiazide":11393,"Ġcomes":11394,"Ġcarot":11395,"Ġivig":11396,"Ġmultil":11397,"eye":11398,"Ġnicotine":11399,"aphrag":11400,"Ġshaft":11401,"Ġendomet":11402,"hum":11403,"Ġoc":11404,"could":11405,"Ġmigr":11406,"Ġ>=":11407,"Ġligamentous":11408,"Ġ238":11409,"Ġtacrolimus":11410,"Ġteg":11411,"omen":11412,"Ġtroponins":11413,"Ġtors":11414,"Ġleni":11415,"operfusion":11416,"xn":11417,"Ġ***":11418,"Ġsubstantially":11419,"ithro":11420,"epend":11421,"Ġ286":11422,"muc":11423,"Ġimmunosupp":11424,"Ġ630":11425,"Ġgb":11426,"Ġintermitt":11427,"urring":11428,"Ġtapered":11429,"recor":11430,"aken":11431,"prolong":11432,"Ġalzheimer":11433,"Ġdsgs":11434,"#)":11435,"rokes":11436,"Ġleaving":11437,"ofol":11438,"alol":11439,"Ġhaart":11440,"Ġrecommendation":11441,"ibp":11442,"Ġradius":11443,"Ġdulcolax":11444,"thus":11445,"hypoxia":11446,"Ġgastroenter":11447,"Ġretracting":11448,"inting":11449,"Ġthor":11450,"surgeon":11451,"uprbc":11452,"Ġports":11453,"Ġspirometer":11454,"osplen":11455,"Ġperipherally":11456,"Ġavid":11457,"Ġsqueeze":11458,"intraventricular":11459,"fungin":11460,"Ġ355":11461,"Ġmeropen":11462,"Ġfle":11463,"ational":11464,"site":11465,"Ġthalamic":11466,"epi":11467,"Ġunavailable":11468,"toparietal":11469,"Ġintoxication":11470,"Ġplaques":11471,"holding":11472,"itrac":11473,"osocial":11474,"Ġcontractions":11475,"Ġdehis":11476,"management":11477,"Ġferrit":11478,"Ġzones":11479,"agitation":11480,"Ġdizzy":11481,"rn":11482,"attenuating":11483,"sulfamethoxazole":11484,"Ġgated":11485,"demonstrated":11486,"unknown":11487,"Ġplain":11488,"deformed":11489,"Ġstaying":11490,"rx":11491,"Ġtp":11492,"Ġbare":11493,"these":11494,"Ġcentered":11495,"Ġaqu":11496,"Ġaneurysms":11497,"wed":11498,"Ġ424":11499,"Ġfibula":11500,"agmus":11501,"Ġyourself":11502,"Ġresistive":11503,"premature":11504,"Ġregularly":11505,"sartan":11506,"Ġsides":11507,"Ġspeaks":11508,"Ġoccassional":11509,"Ġmainstem":11510,"Ġmechanically":11511,"Ġpremie":11512,"Ġplantar":11513,"Ġpk":11514,"Ġssc":11515,"cooperative":11516,"Ġvf":11517,"Ġgone":11518,"aphragms":11519,"Ġarranged":11520,"phasize":11521,"Ġdisp":11522,"Ġsnds":11523,"Ġ950":11524,"Ġgirlfriend":11525,"board":11526,"Ġbigem":11527,"Ġretraction":11528,"Ġdisplayed":11529,"Ġsuitable":11530,"Ġrend":11531,"Ġmetatarsal":11532,"Ġray":11533,"aphylococcus":11534,"Ġperoneal":11535,"Ġpneumoperitoneum":11536,"Ġpurple":11537,"Ġglip":11538,"Ġdialy":11539,"Ġder":11540,"adj":11541,"cele":11542,"Ġbroken":11543,"Ġirrigation":11544,"Ġvague":11545,"Ġwish":11546,"Ġresistance":11547,"Ġ308":11548,"Ġdescribes":11549,"Ġperipancreatic":11550,"Ġwalked":11551,"patent":11552,"thma":11553,"Ġphotot":11554,"Ġhorns":11555,"amps":11556,"Ġdefinitive":11557,"signs":11558,"Ġamoxicillin":11559,"Ġrelevant":11560,"Ġunderstands":11561,"Ġ323":11562,"Ġdrowsy":11563,"Ġmrs":11564,"Ġremoving":11565,"Ġsuperiorly":11566,"Ġcords":11567,"Ġwearing":11568,"fevers":11569,"Ġcll":11570,"ocytic":11571,"raline":11572,"Ġmultip":11573,"cycle":11574,"Ġcrypt":11575,"iene":11576,"Ġvenogram":11577,"**]**":11578,"mrsa":11579,"calcemia":11580,"anti":11581,"ovenous":11582,"Ġpharyngeal":11583,"pread":11584,"radial":11585,"Ġachieve":11586,"Ġthoracolumbar":11587,"Ġanastomotic":11588,"Ġremember":11589,"bel":11590,"sustained":11591,"osplenomegaly":11592,"Ġglipizide":11593,"Ġorg":11594,"Ġwbcs":11595,"Ġtendon":11596,"rical":11597,"Ġ348":11598,"Ġfullness":11599,"Ġ233":11600,"pvd":11601,"sian":11602,"inet":11603,"Ġposture":11604,"ipating":11605,"Ġmtg":11606,"Ġlbbb":11607,"Ġcapillary":11608,"''":11609,"185":11610,"Ġselective":11611,"echoic":11612,"Ġker":11613,"gastrointestinal":11614,"Ġchallen":11615,"brane":11616,"Ġopiates":11617,"Ġmoaning":11618,"Ġ268":11619,"helial":11620,"Ġhypoventilation":11621,"fs":11622,"Ġmont":11623,"orientation":11624,"abscess":11625,"Ġdimensions":11626,"iron":11627,"ptt":11628,"Ġmedially":11629,"Ġ221":11630,"neonatal":11631,"ustr":11632,"Ġptc":11633,"Ġlith":11634,"Ġparas":11635,"Ġcardiorespiratory":11636,"Ġblow":11637,"Ġcorp":11638,"gradient":11639,"Ġexception":11640,"Ġbedpan":11641,"Ġperib":11642,"Ġsurv":11643,"icians":11644,"propofol":11645,"Ġuncal":11646,"Ġisosorbide":11647,"vap":11648,"oriconazole":11649,"Ġcompensated":11650,"chicine":11651,"inflated":11652,"Ġbronchod":11653,"distress":11654,"visual":11655,"racurium":11656,"Ġimmunizations":11657,"slow":11658,"Ġbbo":11659,"Ġvariation":11660,"Ġnibp":11661,"Ġtwi":11662,"Ġcks":11663,"Ġimmunization":11664,"mat":11665,"ertraline":11666,"Ġrsr":11667,"Ġglaucoma":11668,"asthma":11669,"opa":11670,"oked":11671,"Ġwarranted":11672,"Ġranges":11673,"Ġantif":11674,"Ġstrip":11675,"Ġdidn":11676,"Ġcapture":11677,"icet":11678,"Ġsublux":11679,"oca":11680,"Ġ298":11681,"vits":11682,"Ġamps":11683,"Ġipf":11684,"Ġworsen":11685,"indeterminate":11686,"Ġ840":11687,"Ġekgs":11688,"Ġxanthomas":11689,"Ġvicodin":11690,"penicillins":11691,"Ġ279":11692,"Ġnephrolithiasis":11693,"frequent":11694,"Ġtenuous":11695,"promod":11696,"Ġ+[**":11697,"Ġsentences":11698,"evaluated":11699,"char":11700,"neumothorax":11701,"Ġpenetration":11702,"illo":11703,"gavaged":11704,"Ġreaching":11705,"cles":11706,"Ġasper":11707,"rometry":11708,"Ġwithdrawing":11709,"fate":11710,"Ġmetas":11711,"Ġcerebellum":11712,"ickman":11713,"Ġolanzapine":11714,"Ġcsm":11715,"Ġbue":11716,"marked":11717,"Ġillicit":11718,"Ġprefer":11719,"Ġreference":11720,"Ġmaroon":11721,"Ġ780":11722,"ixis":11723,"Ġfrontoparietal":11724,"Ġrolling":11725,"purposeful":11726,"tub":11727,"pneumothorax":11728,"Ġcues":11729,"omax":11730,"cca":11731,"Ġulceration":11732,"Ġimmunocom":11733,"stit":11734,"Ġmgs":11735,"Ġaccessed":11736,"Ġcontamin":11737,"Ġatyps":11738,"Ġexertional":11739,"improv":11740,"Ġdiscontinu":11741,"Ġ425":11742,"Ġlotions":11743,"Ġdiaphragmatic":11744,"Ġlips":11745,"Ġimplications":11746,"157":11747,"baso":11748,"Ġbifrontal":11749,"Ġclonazepam":11750,"enem":11751,"imic":11752,"mit":11753,"unremarkable":11754,"Ġchin":11755,"osm":11756,"gone":11757,"Ġprophyl":11758,"Ġleakage":11759,"158":11760,"Ġdiverticula":11761,"isition":11762,"Ġtiming":11763,"oft":11764,"tm":11765,"Ġantecub":11766,"mand":11767,"Ġcalms":11768,"ores":11769,"Ġundergo":11770,"Ġpericarditis":11771,"tom":11772,"Ġhemorrhoids":11773,"Ġconjunction":11774,"hematochezia":11775,"aleal":11776,"2204":11777,"Ġorthost":11778,"followed":11779,"Ġtrouble":11780,"oob":11781,"Ġ214":11782,"Ġmanip":11783,"Ġwheezy":11784,"Ġoccupational":11785,"sensation":11786,"Ġglucoses":11787,"156":11788,"Ġ790":11789,"removed":11790,"Ġprepared":11791,"Ġnause":11792,"mology":11793,"Ġ419":11794,"================":11795,"Ġpillows":11796,"Ġanaerobic":11797,"Ġwides":11798,"Ġlij":11799,"270":11800,"Ġbubble":11801,"Ġao":11802,"estig":11803,"Ġlogroll":11804,"Ġdens":11805,"Ġmaximal":11806,"Ġphleb":11807,"remain":11808,"Ġloading":11809,"Ġcollaterals":11810,"Ġpolyps":11811,"Ġmanual":11812,"neurologic":11813,"ytics":11814,"Ġreversible":11815,"-,":11816,"Ġdescended":11817,"Ġprecordium":11818,"regarding":11819,"ampicillin":11820,"seg":11821,"Ġplat":11822,"spinal":11823,"study":11824,"diet":11825,"Ġsid":11826,"vit":11827,"intrinsic":11828,"Ġtransitional":11829,"oxins":11830,"Ġbiops":11831,"Ġacetabular":11832,"enhancing":11833,"Ġgained":11834,"Ġdosage":11835,"albumin":11836,"Ġdysarthria":11837,"hypothyroidism":11838,"galeal":11839,"Ġsublingual":11840,"Ġanterolisthesis":11841,"Ġguaic":11842,"Ġspanish":11843,"bloody":11844,"ivocal":11845,"Ġ338":11846,"deep":11847,"Ġexpectorating":11848,"Ġolt":11849,"(+)":11850,"Ġsequent":11851,"ursue":11852,"Ġplacing":11853,"enytoin":11854,"Ġwidespread":11855,"inj":11856,"Ġscrew":11857,"obtained":11858,"Ġanticipation":11859,"ople":11860,"Ġoxacillin":11861,"Ġreorientation":11862,"Ġdir":11863,"Ġrtx":11864,"Ġdonor":11865,"via":11866,"Ġdried":11867,"canc":11868,"Ġrandom":11869,"Ġsupras":11870,"itracin":11871,"Ġpent":11872,"Ġcrystal":11873,"crystal":11874,"Ġbleeds":11875,"Ġblind":11876,"Ġlightened":11877,"Ġclipping":11878,"Ġfolds":11879,"Ġunsure":11880,"ĠĠĠĠĠĠĠĠĠĠĠĠĠĠĠĠĠĠĠĠĠĠĠĠĠĠĠĠĠĠĠĠĠĠĠĠĠĠĠĠĠĠĠĠĠ":11881,"annular":11882,"Ġuremia":11883,"reported":11884,"drop":11885,"pcp":11886,"amiod":11887,"Ġsubstance":11888,"dig":11889,"Ġ248":11890,"Ġbrainstem":11891,"Ġelectively":11892,"sb":11893,"Ġoxycontin":11894,"reflex":11895,"oring":11896,"dysmorphic":11897,"greater":11898,"aware":11899,"Ġurinalysis":11900,"meas":11901,"Ġsphincterotomy":11902,"Ġ336":11903,"Ġshel":11904,"Ġnsaids":11905,"loving":11906,"obular":11907,"Ġambulated":11908,"Ġ232":11909,"Ġmentating":11910,"Ġthirty":11911,"Ġflight":11912,"Ġbanding":11913,"spect":11914,"Ġcluster":11915,"alk":11916,"Ġwrapped":11917,"magnes":11918,"Ġrecieving":11919,"201":11920,"again":11921,"Ġnonreactive":11922,"Ġigg":11923,"Ġunrevealing":11924,"epine":11925,"Ġhydrop":11926,"Ġgentamycin":11927,"trac":11928,"Ġhypoperfusion":11929,"Ġindocin":11930,"Ġsubq":11931,"Ġswimming":11932,"Ġ660":11933,"Ġsuprapubic":11934,"uosity":11935,"Ġivs":11936,"Ġparadoxical":11937,"Ġlcws":11938,"plasia":11939,"pseud":11940,"Ġenjo":11941,"Ġrubella":11942,"Ġhbsag":11943,"ht":11944,"ontine":11945,"several":11946,"restarted":11947,"fortun":11948,"icted":11949,"Ġimmunocomprom":11950,"rub":11951,"Ġexpanded":11952,"Ġresolves":11953,"bedside":11954,"child":11955,"kidne":11956,"ception":11957,"alapril":11958,"Ġidentify":11959,"161":11960,"Ġafso":11961,"Ġ209":11962,"Ġdelta":11963,"Ġinjections":11964,"Ġrelation":11965,"xx":11966,"Ġhuman":11967,"Ġfatigued":11968,"ators":11969,"Ġnsvt":11970,"Ġscanning":11971,"750":11972,"ythm":11973,"rist":11974,"ubstance":11975,"admin":11976,"Ġmrg":11977,"etil":11978,"ciprofloxacin":11979,"Ġresuscitated":11980,"Ġalternatives":11981,"nic":11982,"Ġtricycl":11983,"chlorper":11984,"Ġmaneuvers":11985,"Ġmembrane":11986,"law":11987,"pol":11988,"ppd":11989,"aml":11990,"trivial":11991,"oped":11992,"ange":11993,"Ġhomogeneous":11994,"hcp":11995,"Ġmyelos":11996,"Ġhope":11997,"Ġbandemia":11998,"--------------":11999,"applied":12000,"Ġclavicles":12001,"Ġgj":12002,"circum":12003,"Ġpes":12004,"refer":12005,"ĠĠĠĠĠĠĠĠĠĠĠĠĠĠĠĠĠĠĠĠĠĠĠĠĠĠĠĠĠĠĠĠĠĠĠĠĠĠĠĠĠĠĠĠĠĠĠĠĠĠ":12006,"Ġepit":12007,"chlorperazine":12008,"Ġconfirmation":12009,"Ġsubdiaphragmatic":12010,"jd":12011,"asps":12012,"Ġsamples":12013,"Ġrussian":12014,"opac":12015,"early":12016,"years":12017,"Ġpursue":12018,"they":12019,"Ġstump":12020,"Ġ204":12021,"morning":12022,"Ġinterrog":12023,"sulosin":12024,"ellular":12025,"Ġdisplay":12026,"Ġ207":12027,"Ġrested":12028,"ngn":12029,"Ġdiuretic":12030,"Ġnsclc":12031,"crack":12032,"insert":12033,"inshed":12034,"Ġuterine":12035,"Ġ1830":12036,"raumatic":12037,"Ġ399":12038,"Ġ433":12039,"Ġtalked":12040,"leukocytosis":12041,"eyes":12042,"Ġulcerative":12043,"Ġproximally":12044,"Ġpleased":12045,"ruption":12046,"det":12047,"gallops":12048,"lobe":12049,"ref":12050,"Ġesbl":12051,"Ġclavicular":12052,"Ġniv":12053,"Ġgp":12054,"gill":12055,"difficulty":12056,"Ġcho":12057,"ynes":12058,"acol":12059,"pacing":12060,"Ġ529":12061,"lon":12062,"Ġangioedema":12063,"Ġfinish":12064,"Ġ318":12065,"bun":12066,"Ġvoriconazole":12067,"Ġurobilngn":12068,"tia":12069,"avir":12070,"Ġ451":12071,"162":12072,"Ġ417":12073,"Ġtortuosity":12074,"avoid":12075,"foot":12076,"Ġadmits":12077,"Ġencephalitis":12078,"Ġcalorie":12079,"Ġshov":12080,"375":12081,"Ġ680":12082,"romegaly":12083,"Ġdome":12084,"eth":12085,"Ġconcurrent":12086,"deg":12087,"gro":12088,"advanc":12089,"being":12090,"005":12091,"idual":12092,"163":12093,"Ġgangrene":12094,"diaper":12095,"magnesium":12096,"akote":12097,"mi":12098,"Ġoett":12099,"Ġintroduced":12100,"Ġ590":12101,"Ġnephrotoxins":12102,"hip":12103,"Ġ820":12104,"Ġmist":12105,"Ġpersistant":12106,"simvastatin":12107,"Ġpleuro":12108,"pip":12109,"Ġdst":12110,"vical":12111,"Ġdeemed":12112,"Ġaster":12113,"Ġ1330":12114,"Ġskeletal":12115,"neurology":12116,"Ġlevoquin":12117,"Ġaccurate":12118,"Ġirrigated":12119,"nite":12120,"Ġlaryng":12121,"Ġraf":12122,"Ġteams":12123,"Ġhypokalemia":12124,"congestive":12125,"Ġ426":12126,"scopy":12127,"caps":12128,"Ġhypercalcemia":12129,"Ġ468":12130,"pack":12131,"Ġclarify":12132,"Ġitself":12133,"sur":12134,"Ġshields":12135,"ptive":12136,"liter":12137,"Ġimmunocompromised":12138,"Ġirregularly":12139,"Ġvesicles":12140,"adh":12141,"next":12142,"Ġacqu":12143,"Ġextraocular":12144,"Ġsubgaleal":12145,"identified":12146,"fracture":12147,"salmeterol":12148,"Ġasps":12149,"Ġ264":12150,"fall":12151,"piv":12152,"Ġcellcept":12153,")).":12154,"Ġgreatest":12155,"Ġnarrowed":12156,"organisms":12157,"cancer":12158,"360":12159,"yom":12160,"Ġimpairment":12161,"Ġprongs":12162,"Ġrejection":12163,"Ġhypertonic":12164,"Ġretaped":12165,"Ġwaff":12166,"Ġspirometry":12167,"los":12168,"Ġultram":12169,"iton":12170,"Ġhol":12171,"Ġmajority":12172,"Ġnepro":12173,"ference":12174,"rian":12175,"Ġguardi":12176,"Ġdocumentation":12177,"Ġdecort":12178,"fick":12179,"Ġhypercap":12180,"Ġtaped":12181,"Ġmarkers":12182,"Ġundergone":12183,"Ġemphysematous":12184,"independent":12185,"**]'":12186,"iferol":12187,"166":12188,"Ġcane":12189,"unclear":12190,"Ġ414":12191,"168":12192,"clining":12193,"cvp":12194,"decrease":12195,"Ġantrum":12196,"Ġutis":12197,"chond":12198,"Ġtriglycer":12199,"anteroseptal":12200,"Ġbowels":12201,"Ġtracks":12202,"Ġmoniter":12203,"Ġorthopedic":12204,"Ġcache":12205,"Ġcircumflex":12206,"Ġkeflex":12207,"Ġtur":12208,"Ġnbn":12209,"Ġconserv":12210,"Ġtypical":12211,"Ġmesh":12212,"Ġ437":12213,"Ġ313":12214,"Ġexploration":12215,"Ġhemic":12216,"stopped":12217,"xin":12218,"Ġparticle":12219,"lov":12220,"oscope":12221,"Ġstopping":12222,"Ġfaxed":12223,"Ġgrafts":12224,"Ġdroplet":12225,"Ġsettled":12226,"Ġcisatracurium":12227,"bacter":12228,"diag":12229,"improvement":12230,"phot":12231,"Ġtonsillectomy":12232,"elvic":12233,"notdone":12234,"Ġstret":12235,"Ġexpectorate":12236,"Ġsubluxation":12237,"inferolateral":12238,"locked":12239,"//<":12240,"1769":12241,"Ġpra":12242,"transfusion":12243,"lnp":12244,"Ġsmv":12245,"injur":12246,"orex":12247,"aptic":12248,"rca":12249,"Ġspiking":12250,"Ġadjustment":12251,"Ġrhinorrhea":12252,"Ġ645":12253,"Ġinvestig":12254,"Ġhypothyroid":12255,"chr":12256,"Ġlasting":12257,"195":12258,"robial":12259,"Ġcaspofungin":12260,"tazo":12261,"resting":12262,"Ġvod":12263,"Ġ503":12264,"Ġfacilitate":12265,"Ġintermedi":12266,"sulfa":12267,"Ġ305":12268,"Ġdesitin":12269,"Ġ363":12270,"base":12271,"Ġdilator":12272,"Ġrbbb":12273,"Ġ288":12274,"arct":12275,"warfarin":12276,"Ġ960":12277,"iddm":12278,"Ġ436":12279,"164":12280,"Ġdoubt":12281,"Ġdopplers":12282,"Ġstandby":12283,"Ġpurposefully":12284,"Ġgastropathy":12285,"Ġstrongly":12286,"Ġyom":12287,"Ġwilling":12288,"cmh":12289,"Ġplasma":12290,"Ġspasm":12291,"Ġfsbg":12292,"nife":12293,"lipitor":12294,"Ġ%)":12295,"amiodarone":12296,"Ġmwf":12297,"ureter":12298,"excluded":12299,"vl":12300,"Ġĉ":12301,"Ġ251":12302,"iii":12303,"weakness":12304,"Ġretrop":12305,"until":12306,"coc":12307,"Ġcycles":12308,"Ġspoken":12309,"Ġmultivitamins":12310,"tissue":12311,"Ġporcine":12312,"esin":12313,"stools":12314,"itating":12315,"Ġchoking":12316,"159":12317,"itish":12318,"Ġhypoglycemic":12319,"Ġmix":12320,"appre":12321,"Ġflaring":12322,"Ġintestinal":12323,"senna":12324,"ilin":12325,"Ġperformance":12326,"olazone":12327,"Ġaside":12328,"scan":12329,"Ġmesentery":12330,"amer":12331,"echocardiogram":12332,"Ġequivocal":12333,"ottic":12334,"Ġ455":12335,"Ġtransplanted":12336,"Ġmobile":12337,"Ġpcr":12338,"yline":12339,".'":12340,"Ġelement":12341,"ij":12342,"Ġbt":12343,"agis":12344,"Ġgradual":12345,"Ġinterpret":12346,"Ġrose":12347,"igned":12348,"Ġorientated":12349,"(>":12350,"sister":12351,"Ġglasses":12352,"Ġdeler":12353,"Ġoccult":12354,",+":12355,"gentamicin":12356,"Ġ333":12357,"ertic":12358,"Ġ256":12359,"positioning":12360,"Ġgad":12361,"Ġanis":12362,"Ġcalculi":12363,"pid":12364,"Ġincidentally":12365,"Ġessential":12366,"Ġconventional":12367,"Ġautoimmune":12368,"rays":12369,"derm":12370,"Ġfreely":12371,"growth":12372,"sodium":12373,"Ġyellowish":12374,"represent":12375,".-":12376,"intensive":12377,"metast":12378,"Ġafterload":12379,"Ġ467":12380,"each":12381,"pal":12382,"heres":12383,"spl":12384,"Ġvalsartan":12385,"Ġpheresis":12386,"Ġbrb":12387,"Ġ294":12388,"tonight":12389,"Ġstrokes":12390,"169":12391,"oscop":12392,"Ġ1030":12393,"Ġsubtherapeutic":12394,"Ġmural":12395,"Ġfrustr":12396,"Ġkayexalate":12397,"Ġ317":12398,"chan":12399,"Ġexercises":12400,"ua":12401,"Ġanastam":12402,"Ġarteriovenous":12403,"Ġfavor":12404,"hypercholesterolemia":12405,"Ġtbm":12406,"900":12407,"avid":12408,"Ġdyspneic":12409,"Ġdchf":12410,"friend":12411,"Ġcess":12412,"Ġoa":12413,"cervical":12414,"Ġreassuring":12415,"estrian":12416,"font":12417,"Ġcart":12418,"Ġ329":12419,"Ġbuilding":12420,"iatry":12421,"Ġthirst":12422,"additional":12423,"Ġasterixis":12424,"Ġ760":12425,"Ġdoxycycline":12426,"yrs":12427,"Ġts":12428,"Ġ237":12429,"Ġmaturation":12430,"pupil":12431,"thyroid":12432,"containing":12433,"Ġmastectomy":12434,"ucible":12435,"Ġosmol":12436,":-":12437,"Ġ547":12438,"concern":12439,"Ġobject":12440,"Ġsteps":12441,"Ġaids":12442,"<=":12443,"Ġblockade":12444,"Ġintram":12445,"bottling":12446,"Ġforms":12447,"Ġforget":12448,"symmet":12449,"ĠĠĠĠĠĠĠĠĠĠĠĠĠĠĠĠĠĠĠĠĠĠĠĠĠĠĠĠĠĠĠĠĠĠĠĠĠĠĠĠĠĠĠĠĠĠĠĠĠĠĠĠĠ":12450,"arynx":12451,"Ġ243":12452,"Ġbacitracin":12453,"Ġsession":12454,"Ġshovel":12455,"onts":12456,"zing":12457,"sleeps":12458,"reh":12459,"inflammatory":12460,"Ġvomit":12461,"radiation":12462,"fing":12463,"arean":12464,"Ġ236":12465,"require":12466,"hand":12467,"Ġ412":12468,"Ġintras":12469,"Ġthoracics":12470,"Ġpalsy":12471,"appreci":12472,"0730":12473,"prevacid":12474,"Ġfxn":12475,"append":12476,"supple":12477,"Ġsequence":12478,"Ġatraumatic":12479,"eti":12480,"vts":12481,"osh":12482,"Ġileum":12483,"Ġclarification":12484,"kesperson":12485,"iece":12486,"Ġ...":12487,"Ġperiphery":12488,"Ġbruises":12489,"Ġdemerol":12490,"Ġcarotids":12491,"Ġadls":12492,"Ġ263":12493,"spoke":12494,"Ġperibronch":12495,"ilities":12496,"Ġpains":12497,"182":12498,"Ġcxray":12499,"prominent":12500,"Ġdiminshed":12501,"Ġemphasize":12502,"Ġstrips":12503,"Ġtunnelled":12504,"duce":12505,"Ġrop":12506,"Ġsanguinous":12507,"Ġcolchicine":12508,"167":12509,"hepatitis":12510,"arctation":12511,"clavicular":12512,"Ġindices":12513,"Ġfoll":12514,"coagul":12515,"Ġreaches":12516,"stud":12517,"Ġrectally":12518,"Ġfontanelle":12519,"Ġsalt":12520,"Ġuri":12521,"Ġdating":12522,"Ġlocalization":12523,"Ġmethylprednisolone":12524,"few":12525,"Ġenhanced":12526,"cral":12527,"obronchial":12528,"Ġfb":12529,"Ġblockers":12530,"dri":12531,"Ġcessation":12532,"igo":12533,"Ġbronchograms":12534,"cirrhosis":12535,"Ġ880":12536,"estaff":12537,"azosin":12538,"Ġepithelial":12539,"orium":12540,"Ġinfiltrated":12541,"Ġstandpoint":12542,"Ġnurses":12543,"asth":12544,"ocellular":12545,"Ġmeasurement":12546,"astic":12547,"Ġafb":12548,"Ġbursts":12549,"inopathy":12550,"Ġconv":12551,"uitary":12552,"Ġnutr":12553,"Ġ1430":12554,"Ġavail":12555,"Ġforehead":12556,"Ġyank":12557,"abdomy":12558,"Ġscout":12559,"Ġplacements":12560,"Ġplasm":12561,"Ġ625":12562,"receiving":12563,"Ġdehiscence":12564,"Ġverbalized":12565,"lovenox":12566,"ener":12567,"oliday":12568,"osities":12569,"Ġthrills":12570,"Ġnos":12571,"anest":12572,"Ġlaw":12573,"Ġdeclining":12574,"Ġthings":12575,"Ġ602":12576,"airway":12577,"Ġqod":12578,"monitoring":12579,"Ġobtund":12580,"Ġ315":12581,"ceftaz":12582,"armed":12583,"Ġbenzo":12584,"pager":12585,"Ġtransl":12586,"2300":12587,"alesma":12588,"Ġvisualize":12589,"Ġcoreg":12590,"etric":12591,"Ġmurmer":12592,"Ġmissed":12593,"edo":12594,"Ġ-[**":12595,"ilators":12596,"fortunately":12597,"Ġnovas":12598,"Ġplanes":12599,"Ġseminal":12600,"Ġaugmentin":12601,"athe":12602,"trace":12603,"Ġherp":12604,"Ġemerged":12605,"Ġpsoas":12606,"Ġhousestaff":12607,"Ġ347":12608,"Ġappy":12609,"Ġmandible":12610,"Ġ272":12611,"Ġindicates":12612,"Ġreinforced":12613,"Ġ1530":12614,"Ġaccount":12615,"Ġvomitting":12616,"pv":12617,"aed":12618,"Ġcalcane":12619,"Ġsiadh":12620,"Ġdang":12621,"Ġ930":12622,"Ġelements":12623,"mech":12624,"Ġhyperintense":12625,"mls":12626,"Ġppf":12627,"crackles":12628,"235":12629,"hands":12630,"intervent":12631,"Ġpedestrian":12632,"050":12633,"Ġthumb":12634,"Ġ1130":12635,"Ġflovent":12636,"amibi":12637,"Ġ266":12638,"Ġangles":12639,"Ġgranulation":12640,"urinary":12641,"Ġroux":12642,"Ġdifference":12643,"estamibi":12644,"Ġmargins":12645,"Ġrheumatic":12646,"Ġgrasps":12647,"Ġxanthalesma":12648,"Ġnovasource":12649,"Ġstaphylococcus":12650,"Ġcriticaid":12651,"Ġexcrete":12652,"elying":12653,"Ġmaleate":12654,"Ġpyelonephritis":12655,"Ġorgans":12656,"230":12657,"Ġwaffle":12658,"enlarg":12659,"Ġ458":12660,"chct":12661,"Ġverified":12662,"episodes":12663,"Ġlocked":12664,"Ġtwitching":12665,"Ġcaffiene":12666,"Ġorthostatic":12667,"Ġaspergill":12668,"Ġvtach":12669,"Ġhydropneumothorax":12670,"Ġthrive":12671,"attempted":12672,"Ġsestamibi":12673,"Ġyoung":12674,"Ġgradients":12675,"Ġaim":12676,"Ġpager":12677,"utical":12678,"Ġcondom":12679,"serum":12680,"Ġneosure":12681,"istered":12682,"Ġinflated":12683,"Ġgranuloma":12684,"nasal":12685,"err":12686,"opharm":12687,"luvc":12688,"Ġai":12689,"Ġbink":12690,"Ġhld":12691,"Ġexplaining":12692,"anticoag":12693,"Ġctr":12694,"effusions":12695,"narc":12696,"cardiologist":12697,"Ġterminal":12698,"Ġcw":12699,"compliance":12700,"Ġbelieved":12701,"Ġcvvhdf":12702,"Ġsedatives":12703,"Ġvigorously":12704,"ineral":12705,"Ġsfa":12706,"Ġafterwards":12707,"Ġ735":12708,"iphen":12709,"rilobular":12710,"Ġsufficient":12711,"smok":12712,"waking":12713,"Ġmiss":12714,"Ġmibi":12715,"ovir":12716,"172":12717,"Ġexcretion":12718,"Ġws":12719,"Ġmultipod":12720,"Ġseed":12721,"Ġterms":12722,"persistent":12723,"monia":12724,"ritation":12725,"Ġcircumference":12726,"oncology":12727,"Ġpolysubstance":12728,"Ġhfa":12729,"Ġ422":12730,"sensitive":12731,"380":12732,"Ġwaxing":12733,"arry":12734,"desat":12735,"titrated":12736,"Ġsidelying":12737,"Ġpinpoint":12738,"Ġantifungal":12739,"Ġhemodyn":12740,"kidney":12741,"arte":12742,"Ġacquisition":12743,"Ġintially":12744,"mob":12745,"infusing":12746,"Ġairleak":12747,"Ġcontracted":12748,"egd":12749,"icer":12750,"Ġ536":12751,"Ġsertraline":12752,"ianal":12753,"serial":12754,"address":12755,"Ġadaptic":12756,"withdraw":12757,"Ġlocalized":12758,"tro":12759,"Ġflushing":12760,"Ġful":12761,"because":12762,"atically":12763,"pidem":12764,"lesions":12765,"Ġvii":12766,"Ġpons":12767,"Ġ359":12768,"commun":12769,"Ġinvolve":12770,"angio":12771,"Ġscab":12772,"Ġimmobil":12773,"Ġeccym":12774,"icits":12775,"thought":12776,"Ġsizes":12777,"strained":12778,"ylate":12779,"Ġ296":12780,"Ġmotorcycle":12781,"bic":12782,"anz":12783,"Ġshot":12784,"raft":12785,"Ġovale":12786,"Ġrefuses":12787,"Ġ730":12788,"Ġlocalizing":12789,"seat":12790,"Ġdevel":12791,"Ġweights":12792,"Ġterminate":12793,"newborn":12794,"closely":12795,"Ġbear":12796,"Ġoptim":12797,"Ġleuks":12798,"Ġbolt":12799,"Ġmeropenum":12800,"Ġgpcs":12801,"ometh":12802,"vac":12803,"local":12804,"Ġsupraventricular":12805,"similar":12806,"Ġcyu":12807,"Ġbulk":12808,"vss":12809,"ists":12810,"Ġ231":12811,"Ġafos":12812,"Ġhelped":12813,"Ġsuffered":12814,"Ġevid":12815,"Ġdiverticulum":12816,"Ġbore":12817,"Ġdcd":12818,"Ġnotice":12819,"extensive":12820,"Ġreaccum":12821,"Ġsets":12822,"Ġtremulous":12823,"yle":12824,"ently":12825,"Ġcerebrovascular":12826,"Ġ445":12827,"faces":12828,"aderm":12829,"Ġdvts":12830,"Ġban":12831,"Ġspokesperson":12832,"thym":12833,"atenolol":12834,"Ġoutputs":12835,"Ġcigare":12836,"Ġchb":12837,"Ġestablish":12838,"ycline":12839,"abx":12840,"Ġhernias":12841,"Ġhemoglobin":12842,"Ġdemineral":12843,"Ġsxing":12844,"Ġheavily":12845,"Ġ453":12846,"trending":12847,"Ġcontainment":12848,"pmicu":12849,"Ġhealthcare":12850,"Ġregurgitant":12851,"wardname":12852,"ece":12853,"nf":12854,"Ġhar":12855,"ensit":12856,"Ġtapped":12857,"Ġorbit":12858,"shock":12859,"Ġdepakote":12860,"Ġlobar":12861,"Ġdependence":12862,"Ġlacunar":12863,"Ġvalves":12864,".(":12865,"Ġresponses":12866,"Ġdiscussions":12867,"Ġ**];":12868,"Ġcyclospor":12869,"Ġ273":12870,"Ġcentrilobular":12871,"fat":12872,"pheric":12873,"isional":12874,"Ġwhose":12875,"olitis":12876,"Ġ398":12877,"Ġ^^":12878,"Ġebl":12879,"iflu":12880,"Ġfasciotomy":12881,"Ġdjd":12882,"Ġhelically":12883,"para":12884,"Ġrisper":12885,"Ġcyber":12886,"physician":12887,"Ġvalvuloplasty":12888,"Ġconfluence":12889,"embol":12890,"Ġidi":12891,"Ġburr":12892,"Ġinterv":12893,"Ġemp":12894,"gua":12895,"Ġwhitish":12896,"Ġ287":12897,"Ġ534":12898,"Ġsot":12899,"Ġdoctors":12900,"Ġburden":12901,"ifenesin":12902,"Ġalcoholism":12903,"Ġredemonstrated":12904,"Ġsmelling":12905,"Ġsequelae":12906,"ilateral":12907,"Ġphysicians":12908,"resh":12909,"Ġartifacts":12910,"Ġ247":12911,"Ġarrhythmias":12912,"brother":12913,"340":12914,"arinal":12915,"opin":12916,"Ġcentrally":12917,"Ġresidue":12918,"studies":12919,"Ġdistr":12920,"ttes":12921,"icardiocentesis":12922,"Ġflexure":12923,"Ġapplication":12924,"laser":12925,"Ġbumped":12926,"Ġfocused":12927,"Ġatherosclerosis":12928,"Ġenterobacter":12929,"Ġcomponents":12930,"guiac":12931,"Ġdiap":12932,"Ġugi":12933,"Ġradiopharm":12934,"Ġrf":12935,"Ġunf":12936,"Ġ259":12937,"Ġclinda":12938,"Ġcbi":12939,"Ġcirrh":12940,"Ġverify":12941,"omeprazole":12942,"Ġdram":12943,"Ġrestaging":12944,"emergency":12945,"ojejunostomy":12946,"anes":12947,"Ġ##":12948,"Ġprogressing":12949,"Ġcorneals":12950,"case":12951,"istinct":12952,"Ġ740":12953,"integr":12954,"amen":12955,"Ġacetabulum":12956,"Ġ510":12957,"Ġ485":12958,"pet":12959,"about":12960,"Ġmetolazone":12961,"racycline":12962,"Ġtrap":12963,"Ġrarely":12964,"Ġ252":12965,"Ġzocor":12966,"asthenia":12967,"dc":12968,"aced":12969,"Ġpauses":12970,"cralfate":12971,"Ġsubcarinal":12972,"Ġwheelchair":12973,"Ġsmoke":12974,"passed":12975,"Ġexceeding":12976,"ectable":12977,"Ġapproval":12978,"ogast":12979,"Ġdesire":12980,"Ġintegrillin":12981,"ulla":12982,"thro":12983,"Ġkil":12984,"roughly":12985,"Ġ319":12986,",[**":12987,"Ġsacro":12988,"maintained":12989,"Ġlido":12990,"Ġwatery":12991,"Ġflail":12992,"Ġpumping":12993,"Ġenjoys":12994,"Ġmeg":12995,"Ġcer":12996,"Ġ349":12997,"Ġaca":12998,"obstipation":12999,"lfish":13000,"Ġhodgkin":13001,"count":13002,"Ġ295":13003,"audication":13004,"Ġwanting":13005,"Ġbehind":13006,"Ġmapping":13007,"appropriately":13008,"Ġ429":13009,"Ġ309":13010,"Ġretrograde":13011,"177":13012,"Ġ2130":13013,"Ġfistul":13014,"Ġhemo":13015,"Ġsyrup":13016,"Ġexacerbated":13017,"Ġpodiatry":13018,"Ġ570":13019,"extremity":13020,"Ġdb":13021,"Ġasbest":13022,"aflutter":13023,"Ġpartly":13024,"Ġtailored":13025,"Ġscreened":13026,"Ġdecondition":13027,"rillator":13028,"ilution":13029,"recommendations":13030,"onuclear":13031,"subsequently":13032,"Ġ+,":13033,"Ġorogastric":13034,"rv":13035,"Ġtom":13036,"Ġtransvenous":13037,"prolonged":13038,"Ġvl":13039,"une":13040,"Ġspacing":13041,"Ġtah":13042,"articular":13043,"Ġproperly":13044,"anterolateral":13045,"Ġfoods":13046,"Ġneuromuscular":13047,"Ġdivision":13048,"hydrated":13049,"Ġguard":13050,"Ġinitally":13051,"Ġdermat":13052,"Ġpronator":13053,"Ġtell":13054,"Ġfu":13055,"Ġschool":13056,"Ġauditory":13057,"Ġpituitary":13058,"Ġisolation":13059,"Ġfluent":13060,"ovan":13061,"Ġ242":13062,"Ġindistinct":13063,"Ġslice":13064,"Ġrectus":13065,"graft":13066,"Ġmagnetic":13067,"Ġbenzod":13068,"Ġcardioverted":13069,"Ġelsewhere":13070,"urnal":13071,"levyn":13072,"Ġascitic":13073,"Ġdisturb":13074,"rap":13075,"Ġrm":13076,"Ġeffectively":13077,"Ġsurfaces":13078,"etiapine":13079,"Ġmaint":13080,"Ġintolerances":13081,"alox":13082,"Ġcoursing":13083,"ystole":13084,"Ġcoma":13085,"Ġhematochezia":13086,"Ġabdominial":13087,"ascites":13088,"izine":13089,"Ġtonic":13090,"vegetations":13091,"Ġ274":13092,"Ġsisters":13093,"Ġlam":13094,"chanteric":13095,"Ġspeciation":13096,"Ġpenis":13097,"Ġgut":13098,"exerc":13099,"aing":13100,"knife":13101,"Ġcompreh":13102,"Ġ____":13103,"Ġabut":13104,"Ġlegal":13105,"=.":13106,"overnight":13107,"Ġaggitation":13108,"Ġ413":13109,"bec":13110,"Ġ515":13111,"ocutaneous":13112,"Ġbene":13113,"orth":13114,"Ġ447":13115,"Ġreferring":13116,"Ġdaytime":13117,"Ġ269":13118,"Ġmcgs":13119,"Ġhat":13120,"ulosis":13121,"245":13122,"Ġ284":13123,"admit":13124,"irritable":13125,"Ġcaudate":13126,"Ġ278":13127,"onium":13128,"Ġasymmetry":13129,"196":13130,"Ġldl":13131,"Ġtrip":13132,"Ġsubtotal":13133,"Ġenlarging":13134,"mean":13135,"Ġgnrs":13136,"icone":13137,"hemorrhagic":13138,"izer":13139,"Ġ258":13140,"mater":13141,"concerning":13142,"Ġcholecystostomy":13143,"(+":13144,"Ġmidclavicular":13145,"Ġsclerae":13146,"Ġoss":13147,"velamer":13148,"Ġprevention":13149,"cturnal":13150,"Ġectopic":13151,"Ġ770":13152,"Ġcaud":13153,"atorvastatin":13154,"insol":13155,"tazapine":13156,"Ġfonts":13157,"Ġkn":13158,"Ġendoscopic":13159,"Ġthinks":13160,"Ġawakens":13161,"Ġhdl":13162,"Ġlosses":13163,"Ġinduction":13164,"Ġ449":13165,"Ġrhabdomy":13166,"Ġfingerstick":13167,"desis":13168,"Ġgun":13169,"Ġsensing":13170,"afternoon":13171,"Ġambu":13172,"amax":13173,"Ġ670":13174,"Ġfreeca":13175,"Ġxr":13176,"Ġfsg":13177,"isc":13178,"Ġach":13179,"lous":13180,"ovac":13181,"Ġ1250":13182,"275":13183,"Ġmicroorganisms":13184,"174":13185,"Ġenalapril":13186,"Ġdecortication":13187,"minute":13188,"Ġpariet":13189,"Ġmortise":13190,"Ġcalcific":13191,"Ġcolonization":13192,"Ġcuffed":13193,"Ġpleasure":13194,"Ġfontanelles":13195,"fu":13196,"Ġbenzodiaz":13197,"bolus":13198,"176":13199,"Ġthrombocyt":13200,"Ġscapula":13201,"Ġdigested":13202,"Ġsuppression":13203,"Ġhopes":13204,"witnessed":13205,"Ġinfra":13206,"amylase":13207,"Ġamyloid":13208,"Ġinhibitors":13209,"ocyte":13210,"Ġadlib":13211,"Ġpill":13212,"Ġvasopressors":13213,"'m":13214,"station":13215,"Ġgastrectomy":13216,"Ġhypoattenuating":13217,"Ġvisc":13218,"Ġoption":13219,"Ġpassive":13220,"225":13221,"Ġgtube":13222,"Ġ673":13223,"Ġdise":13224,"thickness":13225,"husband":13226,"Ġcesarean":13227,"immedi":13228,"limited":13229,"proximal":13230,"tv":13231,"Ġ415":13232,"Ġhypoechoic":13233,"drink":13234,"Ġaggitated":13235,"Ġlavaged":13236,"Ġdash":13237,"188":13238,"Ġmethod":13239,"Ġtraining":13240,"Ġpedicle":13241,"Ġpureed":13242,"Ġorthopedics":13243,"Ġendorses":13244,"asms":13245,"izem":13246,"Ġ277":13247,"Ġtransmitral":13248,"Ġazithro":13249,"cardias":13250,"nod":13251,"Ġspinous":13252,"vian":13253,"Ġcurv":13254,"Ġdiagonal":13255,"milk":13256,"athyroid":13257,"visit":13258,"Ġcareg":13259,"Ġdss":13260,"shaped":13261,"Ġmedicines":13262,"Ġrequests":13263,"Ġdluvc":13264,"Ġindepend":13265,"caltco":13266,"list":13267,"thorax":13268,"morphonuclear":13269,"ultras":13270,"Ġlasted":13271,"thrombocytopenia":13272,"sheepskin":13273,"Ġheat":13274,"orted":13275,"Ġlsb":13276,"Ġhydroureter":13277,"basal":13278,"Ġstenoses":13279,"atase":13280,"nebul":13281,"Ġdevelops":13282,"pupils":13283,"Ġcrest":13284,"Ġdisloc":13285,"Ġhila":13286,"scre":13287,"Ġppp":13288,"Ġ538":13289,"Ġchg":13290,"anta":13291,"Ġreasonable":13292,"Ġsaturating":13293,"Ġboost":13294,"/?":13295,"four":13296,"ralgias":13297,"Ġsux":13298,"otopic":13299,"205":13300,"Ġammonia":13301,"Ġmechanism":13302,"290":13303,"segment":13304,"Ġ382":13305,"Ġpract":13306,"Ġtamsulosin":13307,"els":13308,"Ġnystagmus":13309,"Ġroughly":13310,"Ġhemispheres":13311,"Ġmammary":13312,"Ġphototx":13313,"ier":13314,"tomorrow":13315,"Ġperianal":13316,"Ġwts":13317,"Ġinotrop":13318,"psychosocial":13319,"Ġ525":13320,"Ġdfddp":13321,"440":13322,"calcifications":13323,"lc":13324,"precord":13325,"aden":13326,"unasyn":13327,"dilt":13328,"ulcer":13329,"Ġending":13330,"Ġconversant":13331,"perrl":13332,"?????":13333,"usb":13334,"Ġtamiflu":13335,"Ġ254":13336,"lactate":13337,"Ġhospitalizations":13338,"Ġgreatly":13339,"Ġpetech":13340,"clot":13341,"Ġstronger":13342,"arterectomy":13343,"Ġassault":13344,"Ġklon":13345,"Ġrox":13346,"atories":13347,"Ġdesaturated":13348,"Ġglob":13349,"Ġimpaction":13350,"healing":13351,"Ġtk":13352,"Ġbiv":13353,"Ġtooth":13354,"Ġtubular":13355,"ympan":13356,"ampin":13357,"Ġimmunosuppression":13358,"Ġpool":13359,"Ġcharacterization":13360,"took":13361,"Ġdashboard":13362,"Ġinfuse":13363,"Ġhypocal":13364,"Ġcryo":13365,"bnzodz":13366,"vag":13367,"Ġmess":13368,"Ġtomm":13369,"oken":13370,"Ġbanana":13371,"house":13372,"Ġsynagis":13373,"Ġcontractility":13374,"Ġinstrumentation":13375,"Ġcompliant":13376,")(~":13377,"recently":13378,"Ġprobal":13379,"Ġfxs":13380,"istic":13381,"Ġmammogram":13382,"piperacillin":13383,"artifact":13384,"Ġassists":13385,"Ġsarcoidosis":13386,"mu":13387,"Ġwd":13388,"Ġgrounds":13389,"bip":13390,"Ġfibro":13391,"guid":13392,"**]*":13393,"Ġlord":13394,"Ġadnexa":13395,"Ġtension":13396,"discomfort":13397,"Ġphoned":13398,"Ġcompressible":13399,"Ġpylori":13400,"hydramine":13401,"Ġintraop":13402,"Ġsmokes":13403,"Ġpas":13404,"Ġ??????":13405,"vascularization":13406,"Ġparac":13407,"Ġtentorium":13408,"Ġcreams":13409,"Ġurin":13410,"Ġwarming":13411,"Ġradical":13412,"Ġheroin":13413,"Ġfalx":13414,"Ġ334":13415,"Ġgfr":13416,"Ġ395":13417,"171":13418,"Ġbasic":13419,"Ġmalle":13420,"Ġcirrhotic":13421,"Ġreevaluate":13422,"Ġganz":13423,"Ġunsteady":13424,"Ġmyasthenia":13425,"Ġburning":13426,"Ġdriver":13427,"Ġintermit":13428,"Ġwashing":13429,"Ġdegeneration":13430,"Ġ**]'":13431,"Ġ423":13432,"Ġregard":13433,"Ġsling":13434,"Ġpassage":13435,"iphenhydramine":13436,"ups":13437,"Ġ241":13438,"Ġnap":13439,"Ġpolymorphonuclear":13440,"-?":13441,"Ġ830":13442,"Ġcareful":13443,"Ġtotally":13444,"Ġcavitary":13445,"**]+]":13446,"Ġstabilization":13447,"lle":13448,"Ġprocessing":13449,"smx":13450,"algia":13451,"assemia":13452,"Ġspondylosis":13453,"pnd":13454,"Ġ271":13455,"179":13456,"possib":13457,"Ġdw":13458,"children":13459,"septic":13460,"pen":13461,"Ġlosartan":13462,"183":13463,"Ġreadd":13464,"173":13465,"Ġpravastatin":13466,"Ġprompting":13467,"Ġluq":13468,"Ġ428":13469,"iary":13470,"Ġmgt":13471,"oriasis":13472,"Ġ635":13473,"Ġcallus":13474,"technique":13475,"folic":13476,"lid":13477,"Ġencouraging":13478,"Ġamni":13479,"felt":13480,"susp":13481,"Ġseek":13482,"Ġshellfish":13483,"Ġporta":13484,"Ġfalse":13485,"emporal":13486,"Ġangulation":13487,"agree":13488,"Ġapep":13489,"iating":13490,"enteric":13491,"Ġbearing":13492,"Ġdie":13493,"Ġhepatocellular":13494,"Ġ358":13495,"logist":13496,"Ġtlcl":13497,"211":13498,"axil":13499,"_________":13500,"retro":13501,"Ġbreastfed":13502,"Ġconstantly":13503,"Ġbronchodilators":13504,"Ġnts":13505,"csf":13506,"Ġpersonally":13507,"Ġvagal":13508,"leaflet":13509,"Ġ292":13510,"Ġemission":13511,"Ġprostatic":13512,"Ġdelerium":13513,"rle":13514,"Ġbite":13515,"cva":13516,"Ġirritation":13517,"hypoactive":13518,"Ġtoxicology":13519,"bottled":13520,"atz":13521,"Ġever":13522,"ifem":13523,"Ġlimitation":13524,"Ġgutter":13525,"Ġlump":13526,"Ġcoarctation":13527,"Ġanomal":13528,"Ġlongstanding":13529,"Ġclimb":13530,"Ġrami":13531,"Ġ535":13532,"Ġinhaled":13533,"Ġdfa":13534,"dilantin":13535,"Ġentering":13536,"Ġjejunostomy":13537,"osing":13538,"Ġcycled":13539,"Ġtires":13540,"Ġwiggle":13541,"Ġ539":13542,"ieves":13543,"Ġbeneath":13544,"cns":13545,"Ġnitrate":13546,"usting":13547,"Ġcyberknife":13548,"oxyl":13549,"265":13550,"progression":13551,"Ġpatches":13552,"afate":13553,"Ġneurosurgical":13554,"modest":13555,"Ġib":13556,"Ġseason":13557,"181":13558,"Ġhungry":13559,"Ġretropulsion":13560,"hematology":13561,"Ġhopefully":13562,"Ġ533":13563,"ptx":13564,"Ġlyte":13565,"Ġphal":13566,"impaired":13567,"Ġtegaderm":13568,"Ġbelieve":13569,"cover":13570,"Ġcompressions":13571,"Ġdecreases":13572,"Ġremark":13573,"Ġbiopsies":13574,"Ġnard":13575,"Ġreally":13576,"irected":13577,"Ġconsiderations":13578,"atrium":13579,"Ġsheaths":13580,"Ġcyanotic":13581,"Ġ457":13582,"Ġthyromegaly":13583,"oge":13584,"Ġimmunology":13585,"know":13586,"Ġunfortunately":13587,"Ġworkstation":13588,"Ġlingular":13589,"Ġjer":13590,"Ġflomax":13591,"Ġcancelled":13592,"Ġlie":13593,"Ġoxide":13594,"Ġpersisted":13595,"resolving":13596,"ensible":13597,"udative":13598,"kne":13599,"Ġconsp":13600,"184":13601,"Ġ291":13602,"Ġ261":13603,"Ġprobalance":13604,"Ġcountdown":13605,"abine":13606,"appe":13607,"exercise":13608,"Ġallevyn":13609,"erythe":13610,"Ġcapped":13611,"Ġparalytic":13612,"Ġsparing":13613,"rexate":13614,"Ġcholangiocarcinoma":13615,"Ġdiscussing":13616,"cholecyst":13617,"Ġtrazadone":13618,"Ġobtuse":13619,"Ġframe":13620,"ĠĠĠĠĠĠĠĠĠĠĠĠĠĠĠĠĠĠĠĠĠĠĠĠĠĠĠĠĠĠĠĠĠĠĠĠĠĠĠĠĠĠĠĠĠĠ":13621,"phe":13622,"Ġupward":13623,"Ġstimulus":13624,"178":13625,"Ġdictated":13626,"Ġrotator":13627,"Ġ923":13628,"Ġcramping":13629,"anching":13630,"Ġpresyn":13631,"sensory":13632,"partum":13633,"Ġ427":13634,"calcified":13635,"Ġantihypertensive":13636,"orient":13637,"Ġlatter":13638,"calciferol":13639,"Ġbigeminy":13640,"330":13641,"icable":13642,"ronate":13643,"Ġsacroiliac":13644,"urea":13645,"imeters":13646,"abil":13647,"Ġ386":13648,",.":13649,"teens":13650,"189":13651,"Ġconduit":13652,"symmetric":13653,"Ġ234":13654,"ocardium":13655,"Ġdesensit":13656,"Ġhepatosplenomegaly":13657,"poc":13658,"212":13659,"Ġ405":13660,"reviewed":13661,"divertic":13662,"Ġtof":13663,"Ġileal":13664,"pancre":13665,"Ġ281":13666,"Ġ459":13667,"Ġdeceased":13668,"Ġovernite":13669,"Ġavb":13670,"Ġanalgesia":13671,"192":13672,"Ġserious":13673,"186":13674,"Ġcpp":13675,"255":13676,"dermal":13677,"Ġ311":13678,"Ġsubsternal":13679,"gastric":13680,"Ġimportance":13681,"Ġ477":13682,"Ġsuprasellar":13683,"pf":13684,"Ġcrt":13685,"Ġfront":13686,"mac":13687,"inoid":13688,"Ġsecs":13689,"dressing":13690,"Ġ657":13691,"Ġlipid":13692,"Ġ497":13693,"portacath":13694,"Ġphenobarbital":13695,"Ġelevate":13696,"Ġpeople":13697,"Ġquint":13698,"Ġconc":13699,"Ġneutroph":13700,"polar":13701,"Ġjel":13702,"Ġoxygenating":13703,"Ġtorsemide":13704,"Ġnuclear":13705,"Ġnephrocaps":13706,"Ġexpress":13707,"Ġpatterns":13708,"Ġdigital":13709,"Ġunrestrained":13710,"dad":13711,"tenderness":13712,"Ġbilirub":13713,"Ġfused":13714,"Ġatelectases":13715,"=[**":13716,"later":13717,"Ġexophy":13718,
[...]
